<pad>
<unk>
<s>
</s>
▁the
▁and
,
▁of
.
▁to
▁I
▁in
s
▁can
▁a
."
▁
]
▁"
ing
▁for
-
▁or
▁be
▁that
▁as
▁is
▁with
▁on
▁by
)
▁(
'
;
ed
d
/
:
▁use
e
▁are
▁from
g
▁this
▁which
▁my
▁an
▁The
▁such
▁shall
"
▁about
▁e
▁how
y
▁not
▁different
al
ly
▁at
a
▁other
▁have
▁2
▁their
▁any
▁will
▁1
▁using
▁Malta
▁it
▁S
▁Gozo
▁understand
▁may
▁explain
The
▁others
▁'
▁between
t
▁also
▁identify
▁information
▁has
▁describe
er
i
▁work
▁European
▁more
▁when
c
or
▁A
▁was
▁its
▁5
▁all
▁F
b
▁what
▁Article
on
▁Commission
r
▁Regulation
▁am
▁should
▁time
▁Member
▁including
o
▁out
▁through
▁-
▁one
▁"1]
es
▁3]
S
▁discuss
▁‘
▁these
EC
▁where
▁4
▁used
▁food
▁social
▁"2
▁they
▁into
▁EU
▁States
n
▁been
▁appropriate
▁people
▁data
▁make
▁health
▁6
▁simple
▁public
▁No
▁7
ic
m
▁products
▁within
▁life
▁under
▁know
I
▁than
▁if
▁Maltese
▁number
th
▁well
▁project
▁person
▁order
▁you
▁8
In
in
▁some
▁up
▁particular
▁being
▁water
▁write
>
▁present
related
▁do
▁accordance
▁environment
▁"(
▁language
▁referred
▁following
▁area
▁new
▁apply
▁them
▁who
▁own
▁texts
▁Thi
▁Annex
▁9
l
3]
▁10
▁show
ar
ubject
▁national
▁those
▁level
▁3
▁made
▁energy
▁set
▁so
▁measures
▁recognise
▁demonstrate
▁help
;"
▁part
▁personal
f
▁local
▁article
▁provided
ocus
▁C
se
▁Directive
▁short
▁two
▁"4]
▁ask
▁various
▁process
A
▁"5
▁give
▁school
were
▁would
▁range
▁•
▁like
▁me
▁importance
ation
▁his
p
▁re
▁market
▁activities
▁research
ive
▁read
▁Minister
▁development
st
▁services
?
▁past
▁both
▁main
▁un
▁able
ion
▁during
▁years
Gozo
▁specific
▁understanding
D
▁economic
▁form
▁p
▁Council
▁talk
▁E
▁support
▁case
▁product
▁Ministry
▁service
▁only
▁year
▁P
▁design
▁but
▁ways
▁provisions
▁place
▁necessary
u
C
▁rules
▁eco
▁text
▁paragraph
▁ensure
▁performance
en
▁types
▁given
▁take
▁"6
▁need
▁learning
▁B
▁physical
▁quality
▁law
▁words
▁respect
""
▁L
▁issues
▁system
▁countries
▁Authority
▁D
▁list
▁materials
▁conditions
▁role
▁subject
▁Parliament
▁after
▁music
▁first
▁each
▁our
▁M
▁writing
▁impact
▁way
:"
▁application
▁your
),
▁change
▁human
▁12
4]
▁basic
▁non
▁skills
▁over
P
k
▁no
▁evaluate
▁create
▁provide
▁R
▁compare
▁material
▁control
▁find
▁cultural
▁"7
▁euro
▁context
▁plan
▁financial
▁11
2
▁same
▁terms
▁required
able
▁future
▁down
▁In
te
ers
▁ideas
▁follow
▁House
▁examples
▁report
1]
▁requirements
▁community
▁there
▁procedure
▁means
▁include
▁(1)
▁why
▁important
▁events
re
▁value
▁de
▁effects
▁environmental
ity
▁Health
▁legal
▁while
wards
▁without
▁relevant
▁taken
▁group
▁O
▁account
▁projects
▁sources
h
▁express
▁g
Thi
▁Europe
▁knowledge
▁safety
▁foods
▁action
▁content
ment
▁country
▁we
▁questions
▁society
▁n
▁purpose
▁complex
▁Community
▁"8
▁per
▁good
▁current
▁business
▁activity
▁most
le
▁opinion
▁he
▁expressions
▁result
▁certain
▁purposes
T
▁substances
▁office
▁analyse
▁world
▁before
ce
ra
▁effect
▁systems
▁claim
▁Act
▁animal
▁values
▁vocabulary
F
▁f
▁children
▁contact
ur
ary
▁resources
▁produce
w
▁historical
▁care
▁media
▁name
▁T
▁members
▁scheme
▁l
▁authority
▁international
▁situations
▁aware
▁production
▁meaning
▁another
▁key
▁scientific
▁technology
▁three
▁total
▁line
▁period
▁sustainable
▁relate
la
▁forms
▁digital
▁t
▁sub
▁family
▁further
▁problems
▁general
▁Union
▁intended
▁point
▁months
▁relat
▁common
▁distinguish
▁numbers
▁art
▁state
▁possible
▁protection
▁processes
ir
',
▁State
it
▁areas
an
M
ate
el
▁myself
▁force
▁ta
li
▁date
▁positive
▁risk
▁articles
▁15
▁concern
▁rights
▁Area
▁exist
▁taking
▁available
▁Gozitan
▁needs
il
▁perform
▁together
▁must
▁natural
(
▁develop
▁students
x
▁cases
▁based
▁draw
▁written
to
▁elements
▁aspects
▁co
▁tools
6
▁consider
▁reflect
▁addition
round
ch
▁could
▁reference
B
▁"9
▁policy
▁functions
▁consumer
▁20
▁high
▁Outcome
▁investigate
▁member
▁interest
▁""
▁(2)
▁la
▁held
▁points
▁relationship
▁right
▁It
▁c
▁added
▁decision
▁19
▁island
1
▁across
▁Public
▁formulae
ies
▁method
▁day
▁address
v
▁access
▁explore
▁whether
at
▁better
▁free
▁lead
▁works
▁variet
▁learn
▁interpret
E
▁online
3
▁phrases
▁listen
▁election
▁"3
▁body
▁technical
▁familiar
▁adopted
▁plastic
▁s
▁power
us
▁16
▁reasons
▁General
▁li
▁direct
▁groups
▁inform
▁participate
▁home
▁migration
▁moral
▁making
▁levels
▁"-
▁contain
▁13
▁processing
▁least
_
▁President
ta
as
(2)
▁OF
▁organise
▁wide
▁communicate
▁contexts
▁changes
▁Government
▁Police
▁amended
▁techniques
▁established
▁plant
▁practice
▁regard
▁special
▁St
▁framework
)."
If
O
▁correct
▁MRLs
▁implementation
▁growth
▁tal
est
▁factors
▁according
▁long
▁found
▁carry
▁involved
▁programme
▁substance
▁equipment
▁carried
As
▁i
▁less
For
▁opinions
▁sector
▁example
▁G
ine
▁methods
▁end
▁negative
▁claims
▁does
▁m
▁procedures
4
ness
▁live
ii
▁laid
▁four
▁working
▁structures
▁improve
tion
▁14
▁literary
uch
L
8
▁W
▁practices
▁air
▁Debono
▁Schedule
▁respond
▁assessment
▁age
▁III
▁open
▁global
▁consumers
▁individual
ve
▁presentation
▁schools
▁having
▁since
▁Constitution
▁last
▁Representatives
the
▁consultation
▁call
▁benefits
▁differences
▁persons
▁government
▁question
▁legislation
ent
▁visit
▁Food
▁principles
▁Commissioner
▁relation
▁structure
▁listed
▁effective
▁economy
▁basis
▁everyday
▁outline
▁contract
▁processed
▁potential
▁management
▁visual
▁effectively
▁foodstuffs
▁limit
▁movement
?"
▁contribute
▁clear
▁characteristics
▁experience
▁light
EEC
▁audience
▁construct
▁difference
▁active
▁properties
▁competent
▁said
▁friends
▁details
▁setting
▁second
▁building
▁self
▁Ambassador
▁done
up
▁"10
▁places
▁appreciate
▁view
▁relationships
▁nature
▁II
▁sites
▁For
▁say
▁18
un
▁organisation
▁trade
▁THE
▁transport
▁replace
é
▁specified
▁keep
▁applicable
▁third
▁pre
▁act
▁request
ro
▁vision
▁evidence
▁manner
is
▁against
▁thereof
▁had
▁upon
▁b
ant
▁applicant
▁affect
um
▁benefit
▁Directorate
▁V
ous
z
▁decisions
”
▁industry
▁solve
▁answer
▁due
What
▁reduce
▁test
▁speech
▁policies
▁capacity
▁might
▁amount
ical
▁il
▁aid
▁etc
▁verbs
▁come
▁foreign
▁“
▁political
▁exercise
▁Chinese
▁AND
▁results
▁court
▁waste
▁promote
▁prepare
▁Court
▁animals
▁play
(3)
▁components
▁instruments
▁healthy
▁increase
It
▁risks
▁large
▁consumption
▁living
▁appointed
▁whole
tic
ti
na
▁N
▁treatment
▁culture
▁remain
▁studies
▁identity
ist
▁sexual
▁responsible
▁small
▁ethical
▁weather
▁focus
▁mentioned
▁protein
▁Part
▁type
▁class
▁reading
▁cost
▁30
▁Re
▁already
▁things
▁TO
age
▁aim
article
OJ
▁features
de
R
▁expressed
▁included
▁17
and
▁select
▁needed
▁document
▁situation
▁event
▁opportunities
▁single
▁d
▁cause
▁Social
▁issued
•
7
▁actions
▁considered
▁term
▁programmes
▁infant
▁initiative
▁dance
H
▁subjects
▁parties
▁devices
▁record
5
ting
G
▁objectives
▁establish
▁significant
▁applications
▁tense
▁post
▁maximum
▁Main
▁criteria
▁discussion
▁Loc
many
▁experiences
▁en
▁challenges
▁Eco
▁plants
▁sports
▁continue
▁overall
▁look
▁similar
▁Hon
▁con
▁meet
▁sentences
▁real
▁safe
▁acid
▁internet
▁soil
▁feel
Learning
▁choices
▁Learning
if
▁characters
▁German
am
▁space
▁problem
▁authorities
However
▁Decision
▁therefore
▁recycling
▁low
very
...'
▁regulations
ext
▁full
ma
▁traditional
▁analysis
N
▁rate
ingle
ING
▁function
▁essential
j
▁engage
▁tasks
▁protect
▁assess
▁require
et
▁field
▁j
▁major
▁1774/2002
▁recycled
▁National
▁become
▁study
▁critically
ri
▁adjectives
▁"12
▁/
▁original
▁1.
▁K
▁mg
▁review
▁education
▁assist
bathing
▁100
▁employment
▁site
term
▁authorised
▁prevent
▁25
▁provision
▁Mr
▁r
▁define
▁enhance
▁investment
▁description
▁drama
▁climate
▁register
▁July
▁either
▁construction
ance
▁organisations
▁developed
▁%
(1)
ter
▁targets
▁H
▁among
▁size
▁chemical
▁young
▁Unit
▁secondary
▁instructions
out
▁initiatives
▁final
▁allow
▁standard
▁provid
▁"11
▁regards
ten
▁reason
▁share
ill
▁di
▁progress
▁Embassies
▁authorisation
▁cross
▁minimum
▁responsibility
▁sever
▁price
▁efficiency
▁team
▁proposed
▁implemented
▁publication
▁21
▁"""
▁limited
▁achieve
products
▁determine
▁"13
▁standards
▁Giovann
▁retail
▁October
▁security
▁giv
▁assistance
▁agreement
▁sample
▁sound
▁table
▁website
▁documents
▁object
▁parts
▁patterns
▁includes
▁start
ted
▁adopt
are
▁influence
▁objects
▁effort
▁labour
▁even
▁comply
▁Committee
▁fact
▁explained
▁acts
▁best
▁job
▁collaborati
▁Pillar
▁Development
▁debt
▁until
▁six
▁put
▁primary
▁concept
▁population
▁official
▁five
9
▁dis
ia
▁see
▁meeting
)"
▁(3)
▁appropriately
▁avoid
▁w
▁link
▁3.
▁measure
▁International
▁Safety
▁still
fiscal
▁drawing
▁story
▁Treaty
▁hand
▁go
▁presented
▁costs
▁scale
▁every
▁vitamins
▁exceed
▁pro
economic
for
▁days
▁u
▁equal
▁contrast
▁temperature
▁Rights
▁increasing
▁2016
▁throughout
▁relative
▁tourism
ol
ig
▁minerals
io
▁produced
nd
▁conduct
ne
▁designed
▁provides
▁obtain
▁al
▁great
co
▁developing
▁approach
▁recall
▁consignment
▁traffic
▁unless
▁Me
▁Internet
▁software
▁quantity
thus
▁compliance
▁nutritional
ism
▁candidate
▁educational
▁laws
▁did
▁land
▁(4)
▁ma
▁sectors
U
▁whil
ut
▁creative
▁Office
▁above
▁families
▁milk
▁extent
▁medical
▁facilities
▁pressure
▁feedback
▁issue
▁agent
▁inter
kg
ad
▁contribution
▁communication
▁colour
▁sentence
▁response
▁"1.
...
On
▁speak
▁Regulations
be
ry
ul
▁model
▁shapes
▁formal
▁Director
▁communities
▁coordination
▁behaviour
▁daily
▁Board
▁Arabic
▁electronic
▁published
▁now
em
▁received
▁Fund
▁institutions
▁=
▁informed
▁arguments
▁stated
▁enable
▁feed
▁musical
▁Education
q
▁supply
▁money
▁internal
▁history
▁accurately
▁+
▁&
▁businesses
▁Any
▁surface
▁cultures
▁proposal
Y
line
▁promot
ja
do
▁times
lu
time
of
▁think
▁22
▁sp
▁regarding
▁Protecti
▁reach
ish
▁consist
▁suggest
▁otherwise
▁turn
▁scope
▁diversity
▁refer
▁stories
▁EMU
▁Legal
▁email
▁consult
▁clearly
▁check
▁matter
▁shape
id
▁payment
▁Where
▁views
▁character
';
▁mean
▁bi
no
%
▁efficient
▁crisis
▁religious
▁civil
▁creation
▁rice
▁2014
▁property
▁especial
▁private
▁regulatory
0
▁English
▁2006
ised
▁launched
▁covered
▁carbon
ng
▁feelings
▁consequences
▁2.
▁origin
▁limits
▁mobil
▁Other
▁today
▁cannot
based
▁29
▁Dr
▁add
one
▁presence
▁Executive
▁summarise
▁technologies
▁hair
▁suitable
▁grade
▁practical
▁agricultural
▁2008
▁Work
▁target
▁28
que
▁fully
▁fat
▁comment
▁computer
▁consideration
▁implementing
▁jobs
▁All
▁build
nt
▁To
▁sea
▁interests
▁involv
▁Prime
▁September
▁calculate
▁Agency
▁restoration
▁installation
/100
▁ten
▁valid
▁aims
▁circuit
▁Service
▁facilitate
▁reactions
▁26
▁concerned
▁br
ect
mo
V
To
▁involve
ose
▁encourage
▁nutrition
▁January
▁Studies
▁associate
▁ensuring
▁gender
▁sequence
▁blood
▁March
▁participation
▁awareness
▁amongst
▁weight
▁Information
▁get
▁NGOs
ha
▁obtained
▁experiment
lo
▁steps
▁piece
▁angle
▁objective
▁career
▁particularly
▁modern
▁represent
▁critical
▁samples
ise
▁Foundation
▁prejudice
▁sampling
▁demand
▁because
▁illegal
▁dialogue
▁companies
▁sustainability
▁University
▁strategies
▁Centre
▁absence
▁confidently
▁back
▁forward
▁23
▁An
ok
▁When
ap
▁position
▁her
▁2012
com
▁performed
▁citizens
▁implement
▁"14
▁angles
.1
ure
▁listening
▁balance
ors
▁opportunit
▁traditions
▁sense
▁labelling
▁2015
▁MSA
▁submitted
▁him
▁someone
▁indicate
▁implications
▁How
▁analytical
▁"15
▁detailed
▁genres
ty
ot
▁diet
▁voice
▁drink
▁statement
▁word
ities
isation
▁vi
▁man
work
ence
▁then
coming
▁charge
▁mental
▁grow
▁heritage
▁conference
▁contravention
▁species
▁confidence
ative
▁volume
▁however
▁appointment
▁paid
▁causes
ac
▁divers
▁increased
▁reduction
▁sport
ew
▁individuals
);
▁residues
Through
iv
▁powers
▁heat
budgetary
▁administrat
▁Embassy
▁advice
▁distribution
▁attention
▁December
▁FOR
▁Stock
▁selection
▁requires
▁offer
▁meat
▁"3.
▁restrictions
▁defined
▁known
▁network
▁bring
▁pesticide
72
▁source
ual
▁regulation
im
▁professional
▁You
▁notation
▁amend
▁Articles
▁medicines
▁pieces
ts
▁face
ian
▁serve
▁0
▁que
▁2002
pa
EU
▁2007
▁travel
о
▁behalf
▁leisure
▁technological
▁Data
▁classroom
▁introduction
▁submit
▁income
▁hygiene
responsibilities
▁identified
▁controller
▁Section
▁capital
▁far
▁establishment
▁expected
▁video
▁arts
▁enjoy
ef
▁May
▁connected
▁beliefs
▁detail
▁v
▁performances
▁Mon
▁goods
▁users
▁course
▁us
▁teacher
▁solutions
▁task
▁film
▁depend
▁directions
0%
▁weeks
dditional
(4)
▁themes
▁matters
▁join
▁containing
▁close
W
▁proportion
▁performing
▁strong
▁fair
е
▁expenditure
▁fundamental
▁mathematical
▁Day
▁guidance
▁possession
▁modified
▁Mediterranean
▁million
▁Secretary
▁Digital
▁God
▁School
op
▁lack
▁Provide
▁normal
ps
▁electrical
▁monitoring
▁She
▁generally
▁drugs
▁"2.
▁instrument
▁customer
▁medicine
▁styles
▁lives
ally
▁party
directly
mt
▁appear
________________
▁Services
▁developments
ful
▁attend
▁concepts
▁recent
▁generate
▁Market
▁Ordinance
▁fruit
▁themselves
▁equivalent
▁medium
▁debate
▁exchange
▁possibility
▁Management
▁alcohol
▁Home
▁Th
▁attended
▁pets
20
▁IN
▁conclusions
▁advantages
▁fractions
sis
▁27
▁namely
▁recommendations
▁determined
▁currently
▁officers
▁lifestyle
▁offence
▁operator
▁If
ver
▁units
border
speaking
▁via
▁teachers
life
▁acting
▁proposals
▁separate
▁markets
▁manufacture
▁adapt
▁manage
▁complete
mit
▁Consul
▁applied
▁manufacturing
▁socio
▁proceedings
▁coordinate
▁skin
▁electricity
▁approved
▁2020
▁rain
▁deem
▁dietary
▁June
▁declaration
▁speed
▁introduce
▁operational
▁budget
▁acids
▁Chapter
ni
▁trees
▁learners
▁car
pe
▁achieved
▁pursuan
▁centre
▁commitment
ll
▁principle
▁letters
▁don
Whil
▁De
vi
▁models
▁se
▁2003
▁adequate
▁Environment
▁Human
▁competition
▁criminal
▁much
▁adoption
▁circumstances
▁voluntar
▁length
▁ecoGozo
▁arrangements
▁extended
▁manufactured
▁infants
▁regular
▁items
mi
▁fund
▁2002/
▁cleaning
▁topics
00
ie
▁contained
▁addressed
▁Economic
▁composition
▁want
▁choice
▁ground
mb
▁reports
▁clean
ph
▁pay
temporary
▁languages
▁flow
▁import
▁accompani
ought
▁World
▁changing
▁democratic
▁duties
▁entitled
▁commercial
▁consolidation
▁2013
▁Italy
▁frequency
▁removal
▁integration
▁near
▁prescribed
▁Civi
▁invite
▁4.
▁mind
▁Do
▁union
▁ATM
▁longer
▁Ma
▁Jo
▁VI
ory
▁5.
▁ability
▁ex
▁visited
▁reforms
▁messages
▁letter
ial
▁week
▁investigations
▁There
▁Councils
che
au
con
her
▁h
Article
▁2004
ated
▁artist
he
▁multi
▁extract
▁Euro
5%
▁Affairs
▁applies
▁maintenance
▁previous
▁transition
▁stock
▁staff
▁pollution
▁permitted
▁contemporary
Qu
▁emergency
▁fixed
▁outside
▁annual
ww
▁geographical
▁[
▁participat
▁gluten
▁roles
▁Environmental
les
▁discussions
▁higher
▁specifications
▁emissions
ħ
da
▁later
thing
▁peers
▁24
gov
▁diagrams
50
▁collaborate
▁nutrients
▁evaluation
▁representation
▁operation
▁residue
▁Co
▁maintain
▁follows
▁networks
int
With
Where
making
Dur
▁supporting
▁speaking
side
▁facts
▁central
▁sustain
á
ġ
▁just
▁Department
▁LEVEL
▁November
▁column
▁reducing
▁terminology
▁Italian
▁entry
▁innovative
▁Republic
▁storage
▁2005
▁itself
▁except
▁Code
▁front
▁external
▁regional
▁ICT
▁deal
▁notification
▁below
▁cover
▁organic
▁lines
▁mi
▁du
▁cut
▁tests
▁equations
os
▁requests
▁tax
ite
ip
▁Dur
▁section
▁instance
▁occasion
▁fa
▁MRL
▁interpretation
▁operations
▁o
▁operators
▁strengthen
▁move
AL
▁el
▁31
▁uses
▁2011
ba
▁referr
▁sounds
let
▁deep
▁child
▁Speaker
▁abroad
▁conventions
▁describing
▁doctor
▁relevance
▁restaurant
▁science
▁perfect
▁mediator
▁welfare
▁exhibition
First
▁mass
▁status
▁committed
▁fit
▁sent
▁financing
12
▁Action
▁derived
▁tell
▁completed
▁balanced
not
▁met
▁introduced
▁unit
▁vehicles
▁affected
▁Con
▁With
ito
10
▁preparation
▁certificate
▁alternative
▁challenge
ES
▁direction
pro
▁funds
▁notice
▁testing
▁lighting
▁factor
▁gra
▁happen
▁classif
▁prior
▁Christian
▁Broadcast
▁campaign
▁plaster
▁mandator
▁advertising
▁innovation
▁convey
▁April
▁reasonable
▁mediation
▁fresh
▁bill
▁along
▁agreed
▁"17
ner
uty
▁web
▁iron
▁He
▁Dep
▁vegetables
po
▁"4.
▁estimate
▁funding
▁ingredients
▁symbols
▁y
sh
▁thinking
▁receive
▁J
▁block
▁freedom
▁ratio
▁simulant
▁holiday
▁conversation
▁style
▁artists
▁plural
▁pesticides
including
▁represents
▁provider
etary
▁Plan
▁enter
▁return
▁marketing
▁launch
ified
▁difficult
At
▁vote
Different
▁Technology
▁Vitamin
▁dialect
▁elected
▁fashion
▁geometry
▁improvise
▁creating
▁input
▁label
▁industrial
▁destination
▁categories
▁2009
▁factual
▁consent
▁program
▁effectiveness
▁acceptable
▁specifically
▁lay
▁copy
▁pronouns
▁SES
ave
ily
▁training
part
▁expenses
man
ach
▁selected
ability
▁mov
J
▁movements
▁Non
▁exceeding
red
▁nor
▁crime
▁package
▁square
▁argument
▁investigation
▁location
▁lot
▁ho
xi
▁book
▁charges
▁formula
=
water
▁computers
▁draft
▁cons
▁accept
▁grant
▁confident
rising
old
▁broad
▁Commonwealth
▁French
▁artisan
▁beyond
▁unique
▁Kikku
▁concentration
▁elector
▁structural
▁hours
▁cooperation
▁rural
▁similarities
▁competitiveness
▁Communication
▁fall
▁Application
▁differentiate
▁delegated
▁fields
▁treated
▁New
▁lower
log
orary
▁"16
▁pack
▁names
▁Islands
▁orally
▁aimed
ens
▁amending
istic
▁coming
▁translate
▁50
ard
K
"""
▁occasions
▁renewable
▁stage
▁citizen
▁representative
▁nutrient
▁saving
▁We
▁ca
(5)
▁fish
?'
▁U
▁deliver
▁ha
,000
▁proper
▁transform
▁promotion
▁dates
za
mperfect
▁Justice
▁challenging
▁guarantee
▁literature
▁packaging
▁scrutiny
▁strategy
▁telephone
▁confirm
▁death
▁genetically
▁domestic
▁cycle
▁satisfaction
▁contamination
▁fluently
▁wishes
▁subarticle
use
▁inclusion
▁emotions
▁plot
EN
▁Scale
▁celebrate
▁heard
▁meant
▁periods
▁collected
▁strengths
bi
▁obligations
IN
▁shown
▁laying
▁parents
▁favour
▁(5)
▁complement
▁dynamics
▁pass
om
▁connections
▁graphs
AN
▁books
▁alternatives
▁providers
▁gain
▁liquid
▁household
▁message
▁changed
▁Al
▁once
▁offers
uc
▁plans
essential
ER
Hav
▁IV
▁collect
ex
▁extend
mm
▁observe
▁Be
▁immediate
▁constitute
▁differ
▁George
▁Group
▁generic
▁parallel
▁placing
▁title
▁violence
▁licence
▁sodium
▁ecological
▁Earth
lease
▁improving
▁appeal
▁justice
▁derogation
▁harmful
▁inclusive
▁percentage
▁conservation
▁series
▁difficulties
▁2010
▁please
▁Official
der
United
▁findings
▁Water
▁states
▁immediately
▁disadvantages
▁locality
▁integrated
▁substitute
▁nouns
tu
▁tenses
▁goals
▁poems
▁ones
▁workers
▁sum
▁send
▁partners
vis
all
▁dislikes
▁valleys
▁prepared
▁reduced
ible
▁radio
less
ga
▁representatives
▁theme
▁certificates
▁wall
▁division
▁improvement
▁graph
▁gas
▁house
▁broadcast
▁monitor
▁supported
▁On
ton
per
▁electric
▁ver
ier
▁love
▁predict
▁oblig
▁quantities
▁television
▁always
▁bodies
▁roaming
▁Bank
▁legislative
▁search
▁qualities
▁governance
▁interview
▁kJ
▁circle
▁yet
▁slow
▁Victoria
▁spoken
▁duty
▁distributed
ber
▁something
cy
▁fine
▁eye
▁engineering
▁Aid
▁ml
▁Force
(7)
▁wear
▁granted
▁"18
▁accordingly
▁bo
ental
...,
▁former
▁amounts
mon
▁finances
▁paragraphs
▁stand
tory
▁savings
▁comp
▁Ke
▁Ta
▁grounds
▁verb
▁receipt
...?
ide
▁reform
▁connection
ck
▁Mar
▁month
▁Cha
▁led
though
When
▁mon
▁demonstrat
ising
▁medicin
▁drawings
▁San
▁va
▁decide
▁brief
▁emotional
▁independent
▁restrict
▁supplement
ustainable
qualified
▁wind
▁Conference
▁Project
▁Society
▁Spanish
▁category
▁credit
▁disposal
▁grammar
▁justify
▁resolution
▁distance
▁safeguard
▁societies
▁poetry
▁store
▁supervision
▁CAS
▁registers
▁delay
▁highlight
▁Law
▁adjustment
▁permit
▁undertaken
▁early
▁concluded
▁specialist
▁prepositions
▁choose
▁filled
▁¿
▁drawn
▁observed
▁pictures
ANS
▁calculations
▁sole
▁banking
▁round
hrs
▁Care
▁schemes
ke
▁correctly
▁organisms
▁options
GO
▁banks
▁informal
▁visits
▁accounts
▁starting
................
▁idea
▁discussed
ICE
▁decimal
▁mechanism
▁compound
▁transfer
▁component
▁leave
▁k
tin
▁hold
▁off
Regulation
▁le
▁hear
▁card
fer
▁joint
▁45
▁formed
cu
▁count
▁likes
▁par
▁purchase
our
▁accurate
#
▁graphic
▁recreation
▁Journal
▁Mechanism
▁Treaties
▁built
▁vulnerable
▁weaknesses
▁half
▁kcal
▁stability
▁stakeholders
▁subsequent
▁display
▁rubble
▁subparagraph
▁match
▁theatre
▁91/414/
▁determination
▁acknowledge
▁VII
▁envisaged
▁wellbeing
set
▁composed
▁here
▁profit
▁village
▁meaningful
▁raw
▁oil
▁sharing
▁los
▁spaces
ating
▁accepted
mail
▁examination
▁Date
▁safely
▁corresponding
▁2010-2012
nother
▁old
▁file
▁Not
▁emerg
▁requested
▁EN
▁youths
▁offices
lic
day
▁judgement
▁settings
ff
rd
▁walls
▁useful
▁si
▁sh
▁personally
ien
▁perspective
▁root
▁scene
▁solution
▁resource
Th
ling
▁paper
ED
nimal
▁indicat
hi
▁board
▁officer
je
mg
ire
2002
los
(6)
▁fil
ces
.2
▁trans
▁2000
▁withdraw
ning
rimary
а
Â
▁College
▁Number
▁popular
▁straight
▁uniform
▁background
▁company
▁guidelines
▁mood
▁break
▁bullying
▁version
▁surveillance
▁Association
Therefore
▁Employment
After
▁expand
▁priorities
▁guilty
▁duration
▁2030
▁eligible
▁adaptation
▁arise
▁airspace
▁varieties
▁Design
▁discrimination
▁try
▁respective
▁X
▁marked
▁head
▁trends
▁illustrate
ster
ight
gen
▁speakers
▁raise
▁financed
▁fuels
▁songs
▁hazards
▁ever
▁Directives
▁One
▁...
▁regions
▁update
▁indicated
VAT
▁qu
▁salts
▁6.
▁judge
tro
▁sessions
▁Art
hat
▁relations
58
ather
fu
▁su
▁ro
▁reported
tre
sp
▁phone
▁customers
▁Ch
hip
.5
▁combination
▁reaction
▁des
▁statements
▁profession
▁tourist
Directive
after
tra
▁responses
ki
▁links
▁described
▁connect
▁host
▁websites
ological
▁propose
▁rhythm
▁attract
▁competitive
т
▁success
Physical
▁Company
▁Energy
▁Research
▁Shape
▁biodiversity
▁concrete
▁conventional
▁garden
▁studied
▁territory
▁degree
▁burden
▁vocational
▁coast
▁agriculture
▁singular
▁unemployment
▁cooking
▁dictionary
▁conferr
▁enough
▁hotel
▁latest
▁tablets
▁Convention
▁→
▁personnel
▁figures
▁planning
▁expir
▁instructed
▁Business
▁imperative
▁aesthetic
▁dried
▁prevention
▁excellent
▁More
▁attached
▁cable
▁format
▁Lisbon
▁TV
▁advanced
▁export
▁additives
▁infrastructure
LL
▁guests
▁significantly
ON
▁charged
▁conditional
▁attitudes
ati
▁games
▁experts
port
▁functional
▁poster
OR
▁comparisons
▁qualifications
tes
vous
vergence
▁condition
ned
▁Arts
▁loss
hole
▁scenes
▁Ca
rom
land
▁seek
▁System
▁conflict
▁professionals
▁outcome
▁dynamic
▁complaint
▁pattern
ov
▁tone
ture
▁por
▁plastics
▁controls
rat
▁comments
amp
go
authorised
Other
free
▁validate
▁para
▁news
▁examine
▁Administrat
▁influences
▁faith
▁sufficient
▁stat
▁prices
▁im
▁convers
▁adjust
lastic
▁stress
▁react
μ
▁Church
▁Presidency
▁accompany
▁diplomat
▁kept
▁macro
▁nucle
▁probability
▁sovereign
▁wood
▁constant
▁hospital
▁Contact
▁convert
▁entity
▁intervention
▁initial
▁IMF
▁render
▁Russian
▁prose
▁sort
▁cash
▁argue
▁Financial
▁actual
▁atmosphere
▁collection
▁billion
▁Cole
▁vice
lingual
etwork
▁green
▁constructive
▁Brussels
▁38
kull
▁adults
▁tra
▁Organisations
we
▁visitors
▁consistent
▁measurements
ai
▁farming
▁holder
▁At
▁whom
▁OR
▁base
▁formulate
▁signs
mark
▁feature
▁exclud
▁tourists
▁perspectives
ru
▁stages
▁x
000
▁pa
▁followed
▁playing
▁fee
▁mono
▁phase
▁routine
▁narrative
▁session
▁mineral
▁station
▁topic
▁Officer
ż
▁introduc
▁expression
à
orn
▁addressing
▁chi
▁mention
26
ification
▁concerns
18
ca
▁harm
▁wish
oreign
▁32
и
▁birth
<
▁February
▁Framework
▁Policy
▁TFEU
▁Valletta
▁adverbs
▁completion
▁concert
▁laboratory
▁poverty
▁revision
▁stipulate
▁irregular
▁panels
▁discover
GHG
▁police
▁limitations
▁Materials
▁"19
▁SMS
▁Superintenden
▁PA
▁database
▁descriptions
Moreover
▁'¿
▁run
▁graphical
▁Stand
▁path
▁withdrawn
La
▁gases
▁double
▁EIA
▁Statement
▁Kuwait
act
▁gestures
▁spread
▁Berlin
▁independently
▁delivery
etic
▁sex
▁signed
▁recently
▁user
▁creatively
▁delivered
▁40
▁è
30
▁lists
▁ste
▁Bo
▁Se
▁triangles
▁reached
▁bar
▁accounting
____________
▁cells
other
▁mutual
▁La
▁"20
zi
going
▁ser
cha
ess
▁arm
▁audiences
▁feeding
▁discussing
▁modes
▁37
ice
nn
▁allowing
▁doing
.4
32
qu
▁Per
An
▁lifestyles
▁offences
ka
▁definition
▁solid
▁disease
▁ingredient
▁symbol
▁kind
radi
▁est
▁talking
▁net
with
▁"4
▁payments
▁islands
Social
point
specific
Member
year
level
ean
All
MENT
▁correspond
▁exception
▁farm
▁33
▁Cultur
Personal
1/
▁youth
▁warrant
▁appoint
▁authorise
▁locate
pending
▁recognised
▁successful
▁remove
▁collaborative
TION
*
▁audio
▁1999/468/
▁approval
▁availability
▁calculator
▁conviction
▁glass
▁measuring
▁powder
▁premises
▁summary
α
▁brick
▁simulate
▁serving
▁voting
Furthermore
▁chain
▁strict
▁transmission
▁notify
▁suggestions
▁extensive
▁resistance
▁Tourism
▁Issue
▁batch
▁booklet
▁fuq
▁Tribunal
▁specify
▁opt
most
▁bio
▁dedicated
▁permanent
▁victim
▁GDP
▁binding
▁Procedure
▁minor
▁harmonised
titude
▁brand
▁manufacturer
▁side
▁released
▁thoughts
▁abilities
▁designers
▁unable
▁removed
▁lessons
▁bonds
▁therein
rea
▁mal
▁marking
▁adapted
▁eggs
bre
▁formation
▁actively
▁65
▁forces
▁eating
▁treatments
▁shared
▁emphasis
▁revenues
▁reasoned
▁highly
▁fast
being
.3
azz
▁religions
▁soon
▁strengthening
▁dealing
?,
▁habitats
▁amendments
▁images
▁maintaining
▁continued
▁improved
▁outcomes
▁step
▁Mari
▁buildings
▁roots
▁engag
▁usage
▁Tri
TE
▁operate
▁ne
▁calls
pr
▁una
ttle
▁red
▁ME
▁functioning
SE
VE
▁8.
ably
▁finance
▁award
▁skill
AT
▁pen
▁shows
▁ordina
▁equation
▁sale
▁interaction
▁ist
▁tool
▁compar
▁300
OP
▁dry
▁code
control
health
Malta
ria
off
▁reflecting
▁advance
▁intend
ik
medi
▁impacts
ware
▁assign
▁Ms
▁genetic
▁smart
▁http
▁Categor
▁Engineer
▁Independence
▁Qala
▁Technic
▁chosen
▁clarify
▁delegation
▁embellish
▁extension
▁grammatical
▁precise
▁scenario
▁significance
▁thousand
▁urgency
▁wrong
▁closing
▁competence
▁entities
▁evolv
▁footprint
▁invitation
▁foster
▁Yes
▁Nations
▁descriptive
▁dioxide
▁partnership
▁damage
▁expose
▁hard
▁reasonably
▁Resources
▁roof
▁motion
iStock
▁Head
ium
▁France
▁everyone
▁Religion
▁proof
▁membership
▁interactive
▁Marsalforn
▁fragmentation
▁Palestine
▁Anniversary
▁trust
▁accountability
▁rotation
ATION
▁Hand
://
▁localities
▁Bill
▁documentation
▁Process
▁preferences
▁attractive
▁directive
▁installed
▁controlled
▁eight
▁barriers
▁classes
▁EUR
▁trader
▁page
▁compris
ich
▁Second
▁aviation
ural
40
und
▁verbal
▁foresee
IVE
▁Products
▁notes
▁originat
▁fill
ze
▁miss
enior
▁60
▁interactions
▁po
AR
▁stations
denti
▁achiev
▁Don
omic
ej
Me
men
▁receiv
▁tie
13
▁ready
▁die
iz
▁presenting
va
▁instances
▁guide
▁sign
▁designate
▁15.
▁courses
▁films
ID
▁sa
▁Cu
▁bank
▁multiple
▁habitat
▁image
▁comparison
▁qualification
▁consequence
▁recommendation
▁amendment
▁requirement
▁salt
▁student
▁Others
▁gather
▁...'
▁Media
Minister
appropriate
island
▁mix
▁detect
ries
Mr
Q
We
▁der
▁strategi
▁hundred
acquis
▁micro
▁sold
®
▁America
▁Crime
▁Family
▁Garden
▁HEALTH
▁Hospital
▁Inspector
▁MALTA
▁accuracy
▁aforesaid
▁assault
▁consonant
▁democracy
▁dimension
▁evaluating
▁fictional
▁imprisonment
▁incorporat
▁modify
▁reception
▁rhyme
▁schedule
▁understood
▁voltage
▁€1
▁Street
▁encounter
▁left
commerce
▁radiation
▁identification
▁participants
▁hereunder
▁print
▁scientists
▁integrate
▁military
▁agree
▁aspirations
▁transferred
▁Notice
▁Auditor
▁sensitive
▁handling
▁disability
▁submission
▁Feed
▁easily
▁Stability
▁exploit
▁workplace
▁earth
▁incurred
▁whereby
▁rise
efore
▁evolution
▁vary
▁Foodstuffs
▁download
▁Special
▁14(2)
▁continuous
▁Wied
▁trial
amous
There
▁EASA
▁Mathematics
▁heart
▁Band
▁List
▁pose
ector
▁Report
▁pocket
▁rates
▁statistics
▁35
▁filling
▁metals
form
▁constituents
▁seal
Ma
▁platforms
▁shops
▁Car
▁Pa
▁drive
▁(6)
▁residents
▁assessed
▁protected
▁Courts
▁surroundings
▁feeling
▁ago
▁mark
▁called
▁offering
Over
▁Whil
▁corrected
yl
▁fatt
▁varie
ju
▁eat
▁households
▁bear
▁lo
▁cap
▁notices
▁locally
▁created
ology
▁ge
He
▁biograph
mine
▁lawful
▁ra
▁author
▁note
▁tu
▁map
Bt
▁Programme
▁department
▁religion
▁Ha
▁vehicle
▁diagram
▁drug
▁vitamin
▁crop
ertain
▁restriction
▁considerations
▁fats
qa
▁surrounding
▁checks
Don
▁benefitt
▁room
Follow
light
mente
▁mis
▁thank
▁architectur
band
▁Chi
▁Committees
▁perceive
▁80
▁biologic
▁je
see
▁stabilis
▁subscribe
▁illness
▁derive
@
▁clinic
Scientific
▁Azzopardi
▁Chamber
▁Climate
▁Institute
▁Permanent
▁adverse
▁compulsory
▁erosion
▁fibre
▁imbalances
▁navigation
▁pictorial
▁principal
▁quadratic
▁verify
▁behind
▁Drama
▁SGP
▁academic
▁tobacco
▁dishes
▁switch
▁intellectual
▁secular
▁suitability
▁serious
▁travelling
▁devise
▁Annu
▁enforcement
▁complie
came
▁unknown
▁earlier
▁farmers
▁composer
▁globalisation
▁solar
▁algebraic
▁indication
▁symmetry
▁fail
▁screen
▁output
▁Portugal
▁majority
▁Six
▁consumed
▁reality
ncies
▁polymer
▁Science
▁Pro
▁recommended
▁habits
▁Consultation
▁verbally
▁transportation
▁city
▁landscape
▁valuable
▁м
▁beginn
▁shopping
▁detected
▁saw
▁Standards
Today
▁proved
▁instrumental
▁threats
▁combined
▁ongoing
▁copie
▁Culture
▁spending
ET
▁fla
▁offered
▁Na
▁holding
lar
2/
▁2.2
grams
stra
night
▁allowed
▁maps
20,
tter
għa
ante
▁takes
▁sales
▁anti
▁diseases
▁sides
▁Ar
▁Ant
▁complaints
fe
tru
such
▁7.
▁physically
pite
▁improvements
low
▁sing
▁US
▁presentations
14
▁conversations
.0
ris
▁recording
vid
▁cars
ix
mal
lled
rmal
▁positions
product
▁Region
▁forecast
▁photo
▁generation
▁resident
▁expert
▁cell
▁valley
▁vegetable
▁advantage
▁fraction
▁foodstuff
▁aspect
▁careers
16
duction
▁continu
▁Hav
д
ever
digit
pack
▁enhanc
▁ein
ato
▁spend
▁train
11
▁populations
ther
LE
▁parent
▁Z
▁decrease
warded
zzjoni
▁mari
tinent
▁rapid
í
08.
▁conception
▁compass
▁undertake
stream
▁chemicals
▁journal
▁hobbies
▁residence
▁Comino
▁Festival
▁Friday
▁LEARN
▁Requirements
▁Survey
▁WITH
▁appliances
▁approximation
▁assurance
▁calendar
▁century
▁dictionaries
▁favor
▁imagine
▁instead
▁literacy
▁memory
▁penalty
▁poultry
▁punctuation
▁purchasing
▁rehearsal
▁simplify
▁smoking
▁usually
▁vacant
▁white

▁Roam
▁purity
▁stay
▁vital
▁Medical
▁himself
▁Leader
▁intonation
▁Sky
▁sometimes
▁vowel
▁solidarity
▁Grow
▁urgent
▁63'
▁constru
▁sitting
▁comparative
▁rational
то
▁integrity
▁rock
▁privacy
▁incident
apid
▁Paul
▁Press
▁PPE
▁continuity
▁edition
▁flight
▁bab
▁insight
▁supplementary
▁fairness
▁satisfactory
▁bad
▁enjoyment
▁recovery
▁cereal
▁tw
▁semi
▁till
▁economies
▁Name
▁administration
▁mill
actical
▁finished
▁HA
▁Green
▁High
▁North
▁equality
▁tolerance
qui
▁divided
▁cruci
▁INTERVIEWER
▁Administrati
▁scripts
▁employed
▁ideal
▁consistency
▁(1),
▁clothing
biotic
▁located
▁commands
▁solving
▁nationality
▁minimise
▁buying
▁reservoirs
(8)
▁rest
▁maintained
▁learnt
▁closed
▁Germany
▁"25
▁Use
dm
roll
▁represented
▁min
▁managed
▁prais
marine
▁measured
▁Mi
ode
nes
Re
▁2(
▁reflections
▁pas
▁thanks
▁departments
▁secure
▁prove
▁che
▁caring
90
▁fees
▁environmentally
▁conflicts
▁(2
rust
▁Hol
...............
88
gan
sum
▁compounds
▁joints
mu
▁developer
CE
▁178
▁18-
27
▁holidays
ola
▁preparations
▁mode
▁India
▁PL
▁sets
▁interpretations
▁gi
ern
led
▁ear
cho
vern
ust
▁Att
▁oral
▁audit
▁tr
▁poet
ina
ld
ake
ibility
▁committee
▁3)
▁supplie
▁menu
▁council
▁revenue
▁game
▁dislike
▁belief
TS
▁technique
▁leader
▁Island
▁discipline
▁layer
▁id
▁manag
▁region
73
▁treat
orne
▁colours
board
è
human
European
▁determin
ree
▁las
▁sin
▁buy
▁belong
▁meetings
▁fac
gram
▁humans
▁sw
▁articulate
▁welcome
eu
cycl
▁criteri
HC
▁prefer
ull
▁pitch
▁Tunisia
▁bacteria
▁46
▁again
top
▁sweet
▁wire
nclusive
inimum
etails
ecutive
▁install
▁August
▁Electoral
▁Heritage
▁Opposition
▁Pretér
▁REGULATION
▁Register
▁Resolution
▁Year
▁aircraft
▁ambitious
▁beverages
▁deficit
▁density
▁ensemble
▁essay
▁execute
▁flexible
▁holistic
▁industries
▁irrigation
▁linguistic
▁magazine
▁nitrogen
▁oxygen
▁practitioner
▁preparing
▁prototype
▁salmonella
▁alphabet
▁floor
▁average
▁petfood
▁wealth
▁possibilities
▁quick
▁inverse
▁abuse
▁trading
▁Preca
ashing
▁cream
▁birthday
▁2017
▁carefully
▁connectors
▁numerical
▁agencies
▁China
▁mortar
▁UN
▁exposure
▁realistic
▁Young
▁possessive
▁steel
▁cutting
▁particles
▁never
▁accessible
▁latter
▁Medicines
▁planned
▁desire
▁Strategy
▁witnesses
▁informative
▁jew
▁alia
▁WH
▁appreciation
▁super
▁Building
▁Fourth
▁Restor
▁couple
▁else
elve
▁highest
▁wara
▁communicating
▁Measures
▁mechanical
▁Hague
▁justified
▁browser
▁successfully
▁Account
▁programming
għ
▁stronger
▁respectively
▁welcomed
▁SML
▁graduate
▁poly
▁War
No
▁properly
kun
▁Ex
▁Pre
▁gathered
car
▁versa
jiet
▁Some
▁mission
▁herein
▁recognis
▁Catholic
▁sheets
▁minutes
▁lab
ious
▁digit
▁Dar
▁lawyers
▁manager
over
▁employees
▁disaster
▁41
▁Man
▁encouraged
ole
▁periodic
▁channels
▁explanations
▁intentions
▁away
▁containers
eno
▁preserve
▁______________
▁seasons
▁band
▁photos
▁plays
▁Who
▁dec
ett
▁covering
▁notion
llo
▁codes
date
▁seat
▁specialis
fied
▁applicants
▁representing
ound
Je
▁mechanisms
▁apart
▁leaves
▁files
▁houses
▁divisions
ble
▁Ho
aff
▁organiz
15
▁ratios
▁simulants
ä
▁pool
way
▁ages
du
limin
▁mo
▁operat
▁newly
▁commitments
▁Po
▁institution
tical
ential
ature
NEX
▁PE
rian
ized
▁occur
▁transmit
28
▁3.1
tric
ues
▁danger
▁rule
▁advert
▁sugar
▁season
▁Representative
▁option
▁newspaper
▁achievement
▁war
▁partner
native
▁Sant
▁Funds
ow
▁reflection
ister
▁communications
▁ending
lert
friendly
consistent
service
Annex
personal
paid
OL
raising
have
tively
▁Bi
hand
▁door
ENT
▁officials
▁500
▁hi
nez
tiv
▁tables
▁release
▁Di
xcept
▁fun
tim
▁prim
▁combine
pend
▁motivat
▁excess
▁cor
▁Trans
▁executi
onsumer
у
NAME
SSION
▁1935/2004
▁396/2005
▁882/2004
▁Assembly
▁Freedom
▁Fundamental
▁Manager
▁Valley
▁accredit
▁affairs
▁aggregate
▁aloud
▁beneficial
▁carbohydrates
▁cellulose
▁critique
▁currency
▁depletion
▁enlarge
▁exclusive
▁fabric
▁fossil
▁hydrolysates
▁independence
▁lecture
▁outlook
▁pinyin
▁practise
▁sketch
▁smooth
▁spectrum
▁straightforward
▁women
▁yesterday
issolution
▁settlement
▁shift
Provision
▁prism
▁push
▁smoke
▁CAD
▁Method
▁repeal
▁salary
▁chance
▁deleted
▁geometric
▁monomer
▁ownership
▁transposition
▁amino
▁creativity
▁foot
▁entrepreneurial
▁punishment
▁prescription
▁polite
▁Bay
▁regenerat
▁labelled
▁comprehensive
▁separation
▁grid
▁Coca
▁failure
▁entertainment
▁Roadmap
▁Master
▁clock
▁conformity
▁revers
▁resin
▁modal
▁quot
▁track
▁lifelong
▁executive
▁reproduction
▁town
▁manual
lim
Since
▁45(2)
▁apprais
▁satisfied
▁Christmas
▁fire
▁revise
▁detection
▁Agriculture
▁association
▁underway
▁priority
nuts
▁empowered
▁bias
▁minn
▁Creat
▁resistor
▁Third
▁reinforce
▁save
Once
▁Brit
▁street
▁Present
▁Place
▁(*)
▁accommodation
▁Paris
▁0,5
▁investments
▁Example
▁Conditions
kont
▁teaching
interoperability
▁Children
▁greeting
▁Br
▁frame
withstand
▁sun
▁briefly
▁declared
▁Only
Għa
▁rich
92/
▁male
▁presents
▁reflective
▁purchased
▁selling
outh
200
▁charts
▁Person
▁press
▁variables
iro
Cola
ham
elle
▁served
▁gr
94
▁seen
▁textiles
llocation
▁artefacts
▁tat
▁targeted
24
but
ality
▁proteins
▁adverts
▁broadcasting
▁AN
▁ON
▁drafting
▁generations
01
CH
▁dispute
VI
▁definitions
▁solids
▁nets
▁narratives
▁analyses
▁tri
mming
magnetic
▁master
▁boards
ament
ita
vested
▁cu
▁transfers
non
▁habe
▁Foods
▁renewables
▁governments
audi
rata
▁squares
65
standing
▁Natur
ado
▁evaluated
(1),
▁2012.
tri
▁"1
▁tones
▁pi
by
▁BE
lt
▁drinks
DI
!
▁opening
▁pea
▁negotiate
▁...............
iving
▁cow
▁invest
▁updat
▁error
▁recogni
▁Product
▁profile
▁_______
0,000
▁platform
▁shop
▁peer
▁obligation
▁voter
finite
▁attitude
▁foundation
▁contributions
▁ren
present
ana
▁produc
depth
▁marketed
verbal
tourism
back
presentation
food
▁logic
effective
play
▁90
from
mmer
▁interesting
▁combin
reby
chi
▁choos
▁55
▁prohibit
▁acquire
▁weak
▁ban
▁primar
▁interact
▁distinct
▁composit
upervisor
▁govern
▁tempo
▁shelf
▁Access
▁Amend
▁divorce
▁twenty
Magistrate
TIT
­
▁178/2002
▁1924/2006
▁216/2008
▁Agius
▁Bethlehem
▁CONS
▁Century
▁Cittadella
▁Clerk
▁Declaration
▁Friggieri
▁Geography
▁Relations
▁Squad
▁Square
▁aktar
▁aluminium
▁cease
▁classmates
▁click
▁constraints
▁encouraging
▁explanatory
▁female
▁imaginative
▁infringement
▁magistrate
▁marriage
▁pyramid
▁qualify
▁rabbit
▁rehearse
▁sensitivity
▁suspension
▁threshold
▁universal
▁yield
▁zinc
▁Assistant
▁chord
▁drill
▁folk
▁termination
▁Two
▁segment
▁multiply
▁oath
▁score
▁Drug
▁expectations
▁hydrochloride
▁horse
/2005
▁Change
oriented
▁zu
▁greenhouse
Glass
▁flexibility
▁dignity
▁automatically
▁mixture
▁sewage
▁deadline
▁compensation
▁prefix
▁running
▁ECB
▁refus
▁metres
▁Investment
▁facial
▁painting
98/
▁adher
▁permission
ndemic
▁filter
▁Global
Metal
▁layout
▁seven
▁Hall
▁cake
▁distinction
▁box
▁fitness
▁Guidelines
▁liability
▁dependence
▁senior
▁edge
▁inspired
▁existence
▁601
ón
▁collective
▁deepen
▁noise
▁diary
▁administered
▁texture
ective
▁Whi
▁allocated
▁nationalities
▁defence
▁MCA
▁coli
ammont
ngua
▁imposed
▁carrie
harvest
ntil
lement
▁transformation
▁polygons
▁men
▁modelling
▁RF
▁signal
▁actors
▁Vienna
▁Power
One
▁finishing
▁Gra
▁stone
▁alter
▁NOT
▁reinforced
▁regularly
▁core
▁employer
▁hosted
ross
▁expressive
pre
▁retain
▁kin
▁addresses
▁hu
▁2011/
▁counter
▁2004/
▁depth
▁happened
▁cast
iva
▁mid
__
ith
▁pe
▁52
▁conductor
▁200
▁pan
▁Are
▁borders
▁bid
TER
iet
▁classifie
Al
▁hearing
▁meanings
▁conducted
▁sugars
▁fishing
iere
▁ordered
▁courts
▁marks
▁Roman
▁Programmes
▁tested
ational
▁Form
▁wor
▁Award
pped
▁tube
app
ene
▁routines
▁combinations
har
▁decimals
tto
▁Through
CC
▁reflected
▁celebrat
SA
▁contracts
right
▁dan
▁locations
▁del
▁estimates
ora
stitutional
▁So
pping
▁covers
even
rb
rig
▁imp
▁forum
▁app
itive
RE
▁restore
▁depends
▁deposit
▁5(1)
owned
▁reductions
lly
7/
bstract
▁defin
▁experiments
▁51
zo
mble
▁circuits
▁indirect
view
ootball
0000
▁elections
▁mein
▁Can
tations
▁CS
▁friend
▁festival
▁virtue
▁machine
▁strength
▁client
▁recipe
(1)(
▁artefact
▁explanation
▁hazard
▁intention
eph
▁triangle
▁conclusion
▁genre
▁fuel
▁planting
▁sell
▁channel
▁planet
▁emission
▁accident
▁contribut
wi
▁song
▁RE
▁39
▁employ
▁candidates
▁leg
▁%)
house
print
▁Uni
correct
group
business
Commission
bank
market
ATM
LN
▁edit
annual
activity
▁gluco
▁item
hold
▁breath
AND
▁warm
tell
▁hands
▁scales
▁36
tag
She
▁fulfil
ano
▁Cor
▁attach
▁expect
▁regulate
lections
xternal
▁peace
ough
▁believe
▁algebra
▁publish
/2004
▁spoke
▁Arab
▁corrupt
care
▁inspect
▁ethnic
exual
Develop
▁systematic
й
ċ
▁semana
Treatment
upgrade
▁Advocate
▁Charter
▁Consolidate
▁EUROPE
▁Euclid
▁Museum
▁Position
▁QUESTION
▁Scheme
▁bacterium
▁bracket
▁cloud
▁cuisine
▁default
▁dissolved
▁exclusion
▁fraud
▁gaskets
▁genuin
▁idiomatic
▁mirror
▁museum
▁ozone
▁photosynthesis
▁psychological
▁satisfy
▁shampoo
▁simulation
▁taught
▁unsatisfactory
▁Hotel
▁Performing
▁ambition
▁autonomous
▁cubic
▁frequent
▁typical
▁unlawful
▁boundaries
▁stain
Document
▁Ghajnsielem
▁harmony
▁Austria
▁orientation
aceae
▁commenc
▁slaughterhouse
mgħax
▁Ireland
Skola
▁tariff
▁Eko
▁beaches
▁scarc
▁vocal
▁Farm
▁smell
▁Oath
▁suppliers
▁reply
▁symptoms
▁fear
▁inauguration
▁History
rcem
▁Child
▁copper
▁unacceptable
▁portal
▁easy
▁Borg
▁copyright
alpha
▁Attard
▁calcium
▁rehabilitation
▁enrich
▁implie
CAM
▁rough
9/3
▁black
▁recruitment
▁decorative
▁scalp
▁propr
▁acceleration
▁strive
▁COMM
▁agri
▁preservation
▁oneself
▁argumentative
▁hope
▁pronounce
▁Jew
▁chron
▁hall
▁spot
▁colla
▁alteration
▁theories
▁formulation
▁comparable
▁pull
▁deployment
ancy
▁endorse
▁Cross
HIS
▁realities
▁FI
▁demonstration
▁button
▁excessive
più
▁subtract
▁theft
▁"""(
▁extraction
Final
▁importation
▁Infant
▁Midwife
▁Nutrition
▁RASFF
▁Technological
▁Enterobacter
▁Sicily
▁engagement
▁grain
cyst
▁rhythmic
▁EEA
▁demonstrated
▁Sport
▁Land
▁reuse
volta
▁cater
▁90/
pric
icular
▁graphically
▁sufficiently
▁prohibited
▁deter
▁faithful
▁assume
▁observations
▁Comp
▁herb
▁bound
eat
▁Cro
▁ob
▁align
▁°
▁mixed
▁printed
▁shocks
▁waves
▁offal
atch
▁occurr
▁Card
▁adequately
▁replacement
▁ESM
▁ferr
▁2001
▁allowances
▁feasts
▁tap
articles
▁intolerant
▁atten
▁organs
▁tend
ordinate
43
trop
▁Sie
▁electromagnet
▁bus
35
▁patients
▁warnings
▁singing
oats
▁born
▁bearing
▁friendly
vel
▁seed
▁recipes
▁1(
▁globally
▁Ju
▁dose
▁voters
▁profiles
ietary
▁à
ARD
▁newspapers
▁achievements
▁occurs
▁Most
▁border
▁pain
▁disciplines
▁councils
▁notions
eep
▁influenced
▁crops
▁SA
▁director
▁enhanced
▁log
▁42
▁multiples
▁exercises
▁64
▁kinds
▁bla
▁contributed
▁cas
▁Officers
▁arrive
▁enforce
▁Biolog
01/
characterisation
Eco
▁cards
▁hon
(2)(
▁liquids
iż
timescale
▁fl
▁preventing
tch
hr
▁sections
ously
applikazzjoni
▁evaluations
▁representations
89
▁Du
▁appreciat
▁coat
kin
heavy
▁Economics
▁wants
▁physiolog
▁da
meter
▁centres
▁dam
fo
ending
ev
can
▁eu
▁contr
ico
▁reli
0°
▁1.2
▁Organ
▁diets
▁jin
taining
▁Ol
under
You
▁Diploma
nior
SM
▁2010-2012.
▁cone
▁attain
‘
DING
37
EP
▁surfaces
▁ecosystem
▁intake
▁whe
▁pipe
▁AD
▁constituent
▁negotiation
▁organism
▁tree
state
▁div
▁egg
▁70
saturat
▁stem
▁trip
base
taking
Reference
known
Catholic
Z
Second
erre
seen
financed
Chapter
culture
organic
familiar
paper
mentioned
where
change
visual
room
wide
▁cloth
active
▁textile
referred
order
due
inary
▁Centr
▁ci
▁tackle
neration
▁suspend
▁container
▁integrat
▁impose
25
▁learner
scale
xpressive
▁Portug
▁witness
▁possess
▁road
▁Villa
▁situat
rivate
▁conserv
▁bull
▁Univers
ompetitiveness
Amendment
THER
omestic
▁split
▁għal
▁proceed
▁spirit
▁urban
legislat
.2004,
ü
‐
▁Partnership
▁möchte
RLAH
Ramallah
necessarily
ú
ħruġ
≤
▁Cyprus
▁Economy
▁HSBC
▁LIST
▁Language
▁Mallia
▁Muslim
▁PSCD
▁Philharmonic
▁Principal
▁Procurator
▁Registry
▁Rundle
▁Semester
▁Superi
▁Thursday
▁Training
▁absorption
▁advocate
▁announced
▁cabbage
▁church
▁combustion
▁empathis
▁entail
▁hybrid
▁improvisation
▁incentive
▁jurisdiction
▁laboratories
▁landfill
▁mistakes
▁opposite
▁portray
▁precaution
▁recourse
▁registration
▁repetition
▁revoke
▁soluble
▁transparent
▁violation
▁zones
phenyl
▁DNA
▁MEPA
▁Vella
▁club
▁derivatives
▁leaf
▁passenger
▁recite
▁reproduce
▁workshop
closure
▁boost
dispens
▁Club
▁dump
▁morning
▁Judge
▁decay
▁litres
▁traits
▁dispers
esteem
▁fluency
▁transparency
▁interior
▁false
▁elsewhere
surgical
▁migrants
▁2006/6
▁cumulative
▁multimedia
▁cheese
▁strip
▁READ
▁prayer
▁terminate
▁demographic
▁velocity
▁SERVICES
dairy
▁cooperate
▁Western
▁advertisements
▁questionnaire
▁alkali
▁Paper
residing
▁mandate
Option
▁capabilities
▁initiat
▁unemployed
▁expertise
▁expansion
▁bag
▁extra
▁coheren
▁citizenship
▁deviation
▁Trade
▁OTHER
berries
▁peel
▁taste
ellow
▁truth
▁props
▁hence
▁massage
▁Milk
▁Production
▁pace
▁airworthiness
▁leadership
▁syn
▁prohibition
ía
▁wage
▁tele
▁washing
▁Promot
▁LED
ieħ
▁cities
▁Tunisian
▁cancer
▁wine
▁payable
▁beans
▁25(2)
▁compasses
▁Specific
▁Seven
▁mobility
▁musician
▁XI
▁gap
MENTS
▁York
▁|___|___|
▁approximate
▁Clear
▁VIII
mium
▁Min
▁PART
▁Regu
▁350
▁trace
▁true
▁experimentation
▁aerobic
▁audiovisual
▁isometric
▁bien
▁pastry
▁Function
▁transactions
▁progressive
▁repeated
ondo
how
plus
▁regulated
▁substantial
▁assemble
▁collaboratively
▁afforestation
▁Ensur
▁thereto
phosphate
▁lessen
SF
496
▁correction
▁Ethics
▁approaches
Dimensional
orem
▁Marie
▁promotional
teen
▁COM
▁Did
▁difficulty
▁fulfill
▁Er
▁procur
▁TA
▁annually
centralised
▁flu
▁kilo
▁breast
▁examined
▁4(1)
▁warming
▁undergo
▁"‘
▁Colo
▁personality
▁2.1
▁pet
▁efficiently
▁pairs
▁crafts
▁consul
ini
Review
▁logical
▁feels
▁Air
vil
▁strengthened
offerti
▁dur
▁"22
▁customs
lock
▁meals
cosa
800
▁alert
▁accidents
▁clients
▁seeds
lay
▁das
▁individually
▁56
▁foundations
▁CO
▁cop
▁dangers
▁linked
PE
▁layers
............
stat
hereby
▁reviewed
ray
ock
ward
agna
▁institute
nniversary
▁paying
ANT
▁colon
▁brochure
▁constructed
▁phases
▁meal
▁exp
45
▁Go
▁heating
TH
etter
▁modernis
▁197
▁arrange
iff
GB
/2006
▁MA
lost
ME
▁crimes
▁packages
ency
etta
hour
▁freedoms
▁eliminate
ejn
▁partly
ista
▁devian
▁plate
rine
▁compositions
▁Yo
▁USE
post
X
▁educate
▁bin
▁facilitat
cher
ggi
▁Ment
▁fo
oman
mprovements
Give
▁voices
aking
▁YE
▁tang
Un
law
▁deduc
rija
▁bas
▁vest
cur
17
▁passe
▁bis
▁custom
hine
▁modification
▁stor
▁patient
▁warning
▁inspection
▁employee
▁guest
▁statistic
▁adjective
▁poem
▁acknowledg
exist
▁measurement
book
▁parliament
▁divide
▁reinforc
Louis
▁140
operation
solving
▁phrase
public
interest
press
which
compliance
visit
▁walk
▁spell
Act
▁cru
▁dat
place
3/
▁recommend
▁compose
door
▁Visit
▁repeat
graph
disciplin
▁threaten
crib
Date
▁specification
▁choreograph
▁goal
▁geographic
▁Learn
licit
80
č
▁molecul
▁Medicin
lood
riminal
nnovation
iversity
▁Communi
▁neutral
▁accus
▁conve
▁legitima
▁neighbour
tensive
Architect
ь
▁Ghawdex
▁NUMBER
Restriction
Strasbourg
hairperson
▁Appeal
▁Aquilina
▁Assessment
▁Authorities
▁Citizenship
▁DIRECTORATE
▁Düsseldorf
▁Eliquis
▁Exhibition
▁Gazette
▁Introduction
▁Kingdom
▁Mandarin
▁Mgarr
▁Practice
▁Saturday
▁Students
▁Transformation
▁arrest
▁cannabis
▁chloride
▁clarification
▁comfort
▁commission
▁curriculum
▁detained
▁digestion
▁endeavour
▁enquire
▁equilibrium
▁gradient
▁imagination
▁inequalities
▁injustice
▁insufficient
▁membrane
▁metaphor
▁methionine
▁morphem
▁nowadays
▁obesity
▁potassium
▁pronunciation
▁pumps
▁regulating
▁remember
▁rituals
▁secret
▁shelter
▁surcharge
▁survey
▁synthesis
▁uncertainty
▁variation
▁watercourse
hidden
virtu
▁Branch
▁DVD
▁Jesus
▁Licence
▁Waste
▁attack
▁borrow
▁commencement
▁insurance
▁leaflets
▁prevail
▁elasticity
▁motive
▁pilot
▁shoes
▁ASK
▁Identity
ferior
▁Cyber
▁dispose
▁exploring
Among
▁nurse
▁prospect
compliant
▁2006/1
▁entire
▁textbooks
▁weekend
▁Order
▁Meeting
▁dentist
▁celebrations
▁wait
▁acute
▁oversight
▁chairman
▁river
▁spouse
▁Carmel
▁Sign
▁timetable
LECTION
▁olive
▁charit
▁utilised
▁beauty
▁Secretari
▁renovat
▁identities
▁inequality
▁legitimacy
▁honour
▁persist
▁summer
▁employability
▁hardware
alogue
▁redemption
▁urbanisation
▁Revolution
▁misuse
Assist
▁Mission
▁harvesting
▁translation
▁lift
▁investors
▁travelled
▁streamlin
▁hunt
▁matri
▁breed
▁coatings
▁Planning
2+
▁auf
Start
▁cheap
▁catalyst
▁maturity
▁gift
▁assets
▁stereotypes
▁Violen
hexa
▁moment
▁ISP
▁jiġu
▁reliable
▁Vice
▁gravity
▁automatic
▁2032
▁sixty
▁assignment
▁offender
▁inaugurated
diesel
▁producers
▁Istanbul
▁Protocol
▁height
▁compil
▁Post
▁dependent
▁Beit
▁conditionality
▁molecules
▁worth
▁allokat
▁possibly
▁disagreement
▁USA
▁Pact
▁exit
Also
▁Under
▁cold
▁His
▁preside
▁metabolite
▁tip
▁geo
▁salu
▁rare
▁sought
▁14(3)
▁absen
▁subscriber
lean
▁Add
▁Commerce
▁People
▁certification
▁Type
▁Coordinat
▁donation
▁Lab
▁clip
▁138
(13)
▁BY
▁migrate
▁happy
▁players
II
▁older
▁Chemical
▁procurement
▁Wir
▁1999
▁Every
▁sand
▁GP
▁1000
▁cigarettes
ncome
▁liable
matic
▁hot
frozen
(12)
▁acquired
▁GIPSA
▁sti
▁(9)
▁ions
vol
▁fairer
truck
iġi
▁intervals
▁articulated
▁timeline
▁Tunis
▁issuing
arious
57
▁narrate
▁humanity
US
▁suit
▁Equipment
▁ISO
▁aerodromes
▁viewpoints
▁120
▁emp
▁spelling
▁speeches
▁maximis
▁driver
▁domains
▁sanctions
▁cents
▁sur
▁PC
bejn
▁powerful
rent
▁attributes
▁pillars
Not
▁fertilisers
▁handle
▁0,0
▁Mary
▁Easter
▁Ten
▁belonging
▁treating
▁5000
▁figur
▁simplifi
▁attractions
▁occupations
▁contaminat
/5
▁Din
ffordable
▁element
▁bur
▁mixing
alities
▁Station
wheat
▁pipes
▁negotiations
▁she
▁Plant
▁machines
▁planets
▁"27
▁Cont
▁vertic
▁courte
football
▁And
▁divergen
▁Entr
▁conditioner
▁supplies
▁forecasts
▁positively
▁though
vez
▁rooms
▁authors
ility
31
lateral
▁kn
position
illa
Art
anti
segu
▁Systems
lien
iate
▁phones
▁qui
capable
▁papers
1)
▁2003/
▁receipts
46
assi
aħ
▁Ver
code
▁magnet
100
▁gains
ficiency
▁DE
83
lementary
▁eliminat
duced
▁PR
▁simpl
▁pie
blocking
▁€0.0
kk
▁standardis
Tra
▁collaborat
favourable
uel
▁44
owel
quality
▁47
▁colonis
56
▁Au
▁prov
cluding
▁pol
▁tar
ordin
▁median
▁suite
▁PO
Additional
63
main
▁mp
fully
▁contextual
▁realise
powered
▁afford
▁conjunction
▁fis
▁occupation
▁variable
▁reservoir
▁lawyer
▁calculation
▁Organisation
▁device
▁instruction
case
41/
▁commit
▁characteristic
▁attraction
▁expense
▁66
▁minimis
▁Cl
¿
▁finish
viation
herein
breast
textile
Some
consistency
region
abilities
Scale
gluten
Provide
Work
efficient
&
limited
similar
Maltese
information
included
normal
shall
music
▁integr
some
ESM
9/
But
gue
plant
▁speaker
▁Str
harm
▁wave
See
Up
pray
▁jiġ
team
enera
▁metal
06
olu
▁deriv
▁consum
Use
▁leav
▁visitor
▁declare
duct
▁Goo
▁Music
ferr
▁cere
ù
cope
▁proc
national
▁stop
▁auto
▁delegate
▁pursue
▁Religio
▁discret
▁manipulat
▁milli
ensitive
raffic
mplementation
Material
▁numer
▁entrepreneur
ecommendation
elfare
rinthia
accord
я
populat
▁Advertis
▁furni
▁merchandis
▁sponsor
Għajn
Infrastructur
Original
Teżor
applikant
ceramic
harmaceutical
hemistry
Ċ
Ġ
ч
▁829/2007
▁ANSPs
▁ARTICLE
▁Agreement
▁BROADCAST
▁Cabinet
▁Disease
▁District
▁Europol
▁Excellenc
▁FORMTEXT
▁Juncker
▁Launch
▁Literature
▁MINERAL
▁Marzu
▁Mifsud
▁Palace
▁Physics
▁Reception
▁Risks
▁Settembru
▁Volunt
▁Warrant
▁abbreviation
▁absorb
▁alkanes
▁alkenes
▁apparatus
▁café
▁ceremony
▁chapel
▁clarity
▁coffee
▁collision
▁commemorat
▁compression
▁convicted
▁cosmetic
▁crises
▁cylinder
▁depict
▁doubt
▁entrance
▁evaporation
▁extreme
▁feasible
▁fermentation
▁firewall
▁folklore
▁friction
▁ignor
▁impossible
▁interference
▁journey
▁justifiabl
▁kitchen
▁mathematics
▁melody
▁microwave
▁monument
▁oblique
▁observing
▁penalties
▁pleasure
▁portfolio
▁prominent
▁prosecution
▁quarter
▁rainfall
▁remind
▁resolve
▁responsibly
▁sacred
▁sophisticat
▁starch
▁suffixes
▁synthetic
▁tertiary
▁tissue
▁unwell
▁venture
▁vessels
▁€2
Electric
REQUIRE
▁Grech
▁Payment
▁Sunday
▁VITAMIN
▁assembly
▁cognitive
▁courage
▁dossier
▁halogen
▁melodic
▁silent
▁ultimate
▁по
▁1991
▁John
▁Road
▁completing
▁degradation
▁detention
▁honesty
▁juice
▁pencil
▁computing
▁Profession
▁gradual
▁parcel
▁persuasive
LIA
prezz
▁SHO
▁garment
▁mejor
▁bread
▁overcome
▁FAB
▁Team
▁inventor
▁visible
▁Blue
▁Collect
▁Security
▁osmo
▁reveal
CODE
être
▁Time
ción
▁conform
▁Theatre
▁inadequate
▁SMEs
▁confront
▁nomina
Further
▁Curriculum
▁PRODUC
▁ballo
▁depriv
▁Carinthia
ndustrial
▁organising
▁microbiolog
▁cohesion
▁salon
▁85/
essere
▁spring
Drawing
▁deleting
▁exert
▁jewellery
▁traceability
▁cooperative
▁carcases
▁accusative
▁kits
Sannat
▁parameters
▁subsidiarity
▁fluid
ONMENT
▁circulation
▁enterprises
▁verification
▁undergone
▁machinery
▁telecom
archment
▁corps
▁middle
▁recognize
▁queries
▁está
▁minimal
▁minorities
▁crew
▁UK
▁día
▁salad
▁imagery
coding
▁PCB
▁criticism
▁porque
LIC
▁procurator
▁proportionality
▁ethnicity
Link
MIP
oxide
▁phonetic
▁acceptance
▁airport
▁Promotion
▁mother
▁subtraction
▁petrol
▁anger
▁teamwork
▁veter
▁GEN
▁sweeten
▁Quality
▁singers
▁minority
▁Ħ
▁ETS
▁boil
▁Individual
▁Luxembourg
▁lids
▁grave
▁privilege
OGE
▁eventual
▁32(1)
▁Hill
eux
▁healthcare
▁bacterial
▁rating
▁PAR
▁clothes
-3)
▁park
▁elderly
▁standardisation
▁bisector
▁inserted
▁recipients
▁Read
ators
▁ruler
▁classical
▁moon
▁personification
▁stopp
TED
00000)
▁prepara
▁dead
WC
▁Workers
▁Lot
hood
▁Cooperation
▁poor
▁shell
▁verse
Remov
▁bu
▁similarity
IAL
▁orthograph
▁affirmati
▁underpinn
▁foreigners
▁humanist
▁progression
▁guard
▁earthquakes
▁ACT
▁threatened
izzi
▁pH
▁Set
▁suspended
▁cur
real
▁tackl
oyal
▁artisanship
▁Institutions
sumptions
▁allot
mod
▁Table
▁muscles
▁infections
▁equi
▁reader
▁sure
▁preceding
▁(10)
five
▁flowering
▁arra
TP
▁conclude
tarde
IV
▁HT
▁flower
▁2000/
▁curves
▁Basi
▁breathing
▁pin
▁editing
▁Cathe
▁harmoni
▁outlets
▁firms
▁loops
▁cubes
▁owners
▁Educational
▁decided
▁"29
▁112
▁Wh
▁equally
unsaturat
▁tru
▁returned
▁entered
▁sit
▁stored
▁conjunctions
toxic
▁late
pati
▁parliaments
▁cleaned
▁inspections
▁modifications
▁printing
▁gathering
▁sealing
ular
plication
▁fare
▁д
▁architecture
▁intakes
▁stems
▁ecosystems
▁tea
▁Follow
▁sar
Customer
▁festivals
▁virtues
▁seeking
99
▁errors
▁constitution
poli
▁"30
▁Protect
▁losing
▁ich
▁exceeded
▁avoided
TAL
▁committees
▁menus
▁Regions
...';
79
rack
▁GO
▁fid
▁notary
▁experienced
▁tangent
▁tun
▁cat
▁infi
ó
CID
▁Pi
▁securiti
rich
▁restor
arrival
cial
▁matur
▁provisional
Bas
▁bil
dience
idy
STIC
1.4
omm
36
IR
versa
▁consolidate
60°
▁hit
ionic
isers
00,000
vii
2006
-25
▁Evaluati
▁pursu
ilateral
eco
▁optim
▁atom
29
mission
RO
spiration
▁rang
UL
▁48
last
mation
▁ko
hom
euro
▁95
current
▁Legislati
amount
▁driv
una
▁mutualis
RY
▁analys
______________
°
hydrate
mien
jections
aximum
▁organ
tella
▁opera
▁electro
RES
name
nce
▁allocat
▁East
iness
rganization
___________
▁firm
▁attribute
▁fertiliser
▁pillar
▁cube
▁loop
▁craft
▁chart
▁minute
▁picture
▁pair
▁arrangement
▁NGO
▁accelerate
own
power
nalytical
iterate
▁issu
▁bond
cia
▁outlet
▁infrastructur
▁bon
▁sheet
▁Mart
itude
▁noun
900
hay
Equipment
ISO
COM
systems
shopping
15)
pocket
paragraph
condition
neck
saving
Environment
length
School
regulation
nutrition
Information
payment
secondary
align
example
relationship
General
period
export
design
perform
States
social
efficiency
website
both
fix
sharing
▁121
How
UM
either
head
New
lack
flow
▁flood
made
▁influenc
▁engineer
four
cular
▁random
saw
election
down
stone
▁solder
ogy
▁Bac
▁Pow
▁renew
▁climat
▁magn
▁Cam
▁ALL
Select
Any
▁reject
003
volution
mplementing
mergency
▁societ
▁simultaneous
▁recover
▁fluent
OUN
▁automat
▁capita
rivacy
▁lesson
▁pollut
▁recruit
▁necessit
apacity
ncomplete
enterprise
iddle
nternal
▁preced
▁judicia
л
ompanies
▁digni
▁flour
▁manifest
ī
б
▁Quarte
Citizens
|
▁encompass
▁gastronom
▁oligo
▁prompt
Construction
Failure
Pesticide
TSCG
Westphalia
certified
percussion
whisk
È
▁2023/2006
▁30.4.2004
▁APPLICABLE
▁APPLICATION
▁Algebra
▁Appointment
▁Assault
▁Authorisation
▁Bangladesh
▁Belgium
▁Bishop
▁Bonnici
▁Camilleri
▁Computer
▁Conservation
▁Effective
▁Electronic
▁Ewrope
▁Gospel
▁Grima
▁Headquarters
▁Industry
▁Instrument
▁Netherlands
▁Record
▁Respons
▁Riyadh
▁SIMBIOTIC
▁Speech
▁UNDERSTAN
▁absolute
▁abusive
▁accomplish
▁alliteration
▁alternate
▁anecdotes
▁broken
▁cadmium
▁calculating
▁cardiovascular
▁commensurate
▁conscience
▁consensus
▁decoder
▁depression
▁destruction
▁diagnos
▁discour
▁dispatch
▁embedd
▁endanger
▁hypothe
▁intrinsic
▁library
▁lungs
▁maquettes
▁onomatopoeia
▁oppose
▁overhaul
▁perception
▁pregnant
▁protocol
▁reflex
▁refrain
▁regime
▁retirement
▁sakazakii
▁similes
▁syntactic
▁syntax
▁sħiħ
▁tagħhom
▁telescope
▁tribunal
▁tyrosine
▁unfair
▁universe
▁unnecessary
▁ventilation
▁voudrais
▁не
▁€50
Advertisements
Alternatively
therapist
unicipal
ž
▁DATA
▁Major
▁Request
▁brush
▁fixtures
▁nuance
▁politics
▁proverbs
▁proviso
▁qualitative
▁seminar
▁wieħed
Profess
ý
▁Propos
▁addiction
▁aquifer
▁barley
▁bħal
▁cinema
▁costumes
▁ethics
▁hacking
▁hamper
▁portability
▁redeem
▁Nadur
▁Reason
▁Summit
▁documentaries
▁gusta
▁unhealthy
ewwel
▁Karm
▁African
▁compliment
▁inflation
▁lavor
▁pasteuris
▁Spain
▁journalists
▁linoleic
▁Aqua
▁Islam
▁compost
phonic
▁wild
ecogozo
▁sharp
▁suffering
tergovernmental
dritt
sensory
MCCF
▁Copy
▁hurt
▁injuries
▁portable
quilibr
▁Saint
▁cutters
▁surname
▁annex
▁niche
▁rectifi
/2009
▁participles
▁Tower
Stonework
▁XIII
▁benchmark
▁freezing
TERIAL
▁altar
▁moderate
▁phenomen
▁nurtur
▁volcan
▁cellular
▁expectancy
▁facility
▁Spring
USDA
rmity
▁photograph
▁65(2).
LEGAL
▁76/
▁racial
▁denominators
▁masonry
▁Address
▁scanning
▁strik
▁stance
▁infliximab
▁Flag
▁tension
▁shortcomings
gozo
Ultimate
▁childhood
▁Agenda
▁lettuce
▁multiplication
▁Rule
llergic
entrepreneurship
▁NOTICE
TELE
▁competencies
▁injury
▁equity
▁window
quiry
▁childcare
NCF
▁elevation
▁signator
▁systematically
▁Ltd
▁citrate
▁equitabl
▁Refus
▁modul
▁paints
▁advise
▁cycling
Moder
▁ONL
▁passport
▁exemption
▁crude
▁momentum
▁justification
▁Poland
▁polymerisation
▁vector
therapy
▁judgment
▁hazardous
▁mort
ERAL
▁Carry
▁continent
▁rye
ġġ
▁therefor
▁49
Open
▁Life
▁suff
curricula
▁lending
▁freehand
▁swi
▁divert
▁manipulation
▁headings
▁Honour
49)
▁respectful
▁hardness
▁Political
▁lenses
▁"48
virus
▁empathy
▁Using
▁loan
limestone
▁isolate
▁passage
CK
▁resume
▁Specification
▁reserves
▁relay
▁friendship
▁corruption
auction
▁respiration
▁attendance
▁scan
▁porting
8:00
más
opher
▁Things
▁concentrated
▁Pharmacist
▁Switzerland
▁capacities
▁INTEREST
cement
▁neighbourhood
▁alone
▁Kol
▁1990
▁remainder
RSS
▁assent
▁IENs
▁trail
▁wholesale
▁explicitly
▁Vac
▁adolescents
▁simultaneously
TIP
UB
▁span
▁passive
▁meters
▁Forum
▁whatever
▁race
▁Understand
illus
▁pour
▁taxation
▁jit
▁Meat
▁logo
(11)
▁(2015)
▁Applicant
▁Labelling
▁decent
▁losses
▁Bible
▁renewed
▁dire
▁Baro
▁ingest
itrat
▁peaceful
▁End
▁Common
▁superlatives
▁coil
▁personalities
▁rapidly
▁taxes
▁speciality
▁Test
▁cre
arja
▁congruenc
▁OB
▁underline
▁с
nator
▁4(1)(
▁comprehensi
historic
▁cooling
▁slip
urface
▁seiz
▁gent
▁MB
▁fix
raft
▁complexity
▁enzymes
▁inferences
Particular
▁pursued
▁FORM
▁soldering
▁flooding
▁91/
▁Check
▁accession
▁ease
resistant
Currently
▁tener
zija
role
▁perceived
rape
STO
700
▁bak
mezz
▁doj
▁flat
▁Agen
▁wired
▁neck
▁placement
:30
▁TH
constituted
▁walking
animate
interdependence
▁warranted
alter
riq
▁mere
▁seller
▁Vb
▁vol
AIN
▁proportional
▁3.2
dential
hing
▁Louis
may
abu
▁Up
▁mentally
▁Sub
▁Packag
250
▁Pet
▁But
▁Reference
▁restructur
▁originate
▁Site
AY
▁buen
centr
▁greatly
refer
▁Factor
▁acknowledged
▁stimulat
▁swea
▁curio
▁LN
PRI
iku
ealing
▁exceptional
eton
onometric
▁Party
39
▁Ga
professions
▁Note
▁characterise
cious
kien
ody
▁bitte
seekers
▁Wi
▁Patr
lite
ottery
var
▁Wan
▁auditor
!"
berg
iplomacy
▁SM
implicit
OX
▁€0.
venues
ndefini
oma
Non
▁Tu
tick
CIL
rod
mel
▁compete
400
install
▁enabl
▁Pol
ogni
valuation
Ref
two
▁plat
▁modell
1.3
▁dress
▁consolidat
▁deficienc
tiva
▁PLA
▁lime
hoo
▁_______________
enz
▁adj
rka
25)
Rice
ppa
haben
ization
▁Her
boundar
▁tape
▁circula
▁mobilise
mastery
óm
▁HE
entertaining
▁teng
▁ki
▁caus
avoir
▁judg
▁NE
bone
mul
mple
eria
structive
▁Sea
SES
emporary
uck
uttin
▁Circula
▁preserv
friends
waq
▁Count
ronic
UT
▁cent
▁rail
▁undermin
▁Mos
Geo
mounted
calci
▁Dri
▁Out
▁______
▁prin
Learn
tolerant
▁threat
▁curve
▁feast
▁sanction
ographic
▁command
▁adult
▁trend
▁domain
plan
▁allowance
▁sulf
▁resist
dditives
odu
▁multicultural
2(1)
imo
frame
ange
ounted
Check
▁decid
atia
▁cardin
+
Tunis
phrase
Dimension
replacement
Vienna
graduate
м
INTERVIEWER
valuable
Berlin
spread
regular
Brussels
Europe
Lisbon
profit
village
organisms
disadvantages
Report
plot
carbon
fresh
[
voluntar
Services
voice
video
English
Legal
EMU
informed
chemical
job
government
equal
class
Ambassador
▁begin
natural
Community
general
learning
different
third
legal
▁landscap
high
fatt
(10)
▁comprehen
mposition
▁greet
data
▁pot
▁requir
reach
functioning
▁brows
month
▁cool
cient
affirm
▁migra
Site
▁administer
fts
▁59
▁vacanc
page
▁explicit
▁Ministr
▁weigh
alloka
ffenders
ompliance
▁Visi
▁reserv
▁Rep
▁ensu
▁hydro
llum
ignificant
▁Secret
▁adequa
umerical
▁opin
rogation
ommercial
TAIN
ugar
mportance
advertisement
voca
edemption
ehabilitation
ikku
▁Nurse
▁€6
▁Christ
ccupation
▁pheno
▁slaughter
▁NO
jnsielem
▁Folk
methyl
▁RESPONS
▁embark
▁mañana
MINISTR
lacquer
territori
▁Facility
▁mislead
▁quarry
▁thirty
Important
MHAG
Valentin
Xlendi
acquaint
demasiado
devoir
isqualification
vangeli
yridoxine
·
š
Ż
ε
ρ
ж
ить
▁1925/2006
▁21337333
▁Activities
▁Agencies
▁Appropriat
▁Citadel
▁Complex
▁Democracy
▁Esslingen
▁FOODS
▁Floriana
▁Fontana
▁Gauci
▁Governance
▁Governor
▁Greece
▁Inspection
▁Literacy
▁MEDIA
▁Micallef
▁Munxar
▁Paragraph
▁SUBSTANCES
▁Sacraments
▁Teacher
▁Tradition
▁Travel
▁Wellbeing
▁Xagħra
▁Xewkija
▁adjudicati
▁admitted
▁aflatoxin
▁aggressive
▁ammonium
▁announcement
▁artificial
▁authentic
▁batteries
▁blocs
▁bronchi
▁catchment
▁cemetery
▁circumference
▁clause
▁cleanliness
▁colleagues
▁contradiction
▁corporate
▁correlation
▁diameter
▁disclosed
▁disrupti
▁excerpt
▁experiencing
▁exploration
▁extinction
▁feasibility
▁fumigant
▁hierarchy
▁homopho
▁housekeeping
▁impulse
▁indigenous
▁intermediaries
▁iodine
▁jistgħu
▁motorcycle
▁murder
▁obstacle
▁pepper
▁pharmacist
▁pharmacy
▁poisoning
▁prevalence
▁quadrilateral
▁reconcile
▁rectangle
▁redistribut
▁repertoire
▁resilience
▁retrieve
▁robot
▁sapote
▁schematic
▁skilful
▁socket
▁solubility
▁spontaneous
▁stanzas
▁stroke
▁styling
▁succeed
▁survival
▁synergi
▁testimonials
▁transpiration
▁trousers
▁turbines
▁vicinity
▁Łódź
▁€7
CBL
Dublin
anthrop
enewable
▁Degree
▁EDUCATION
▁Galea
▁Imbalance
▁Imperativ
▁Laborator
▁Macro
▁Psalm
▁SUBS
▁Support
▁Telephone
▁Transition
▁float
▁genitive
▁impartial
▁imposing
▁infinitivo
▁mollusc
▁nominative
▁productivity
▁quantitative
▁settimana
▁sucrose
▁syllab
▁troppo
(2012)
ċipa
г
▁CBF
▁Level
▁Opinion
▁academia
▁combat
▁promise
▁undesir
liema
▁Space
▁Turkey
▁gibt
▁insulation
▁license
▁worship
▁Limit
▁dwar
▁ponder
bridge
▁FRF
▁LOD
▁Price
▁branch
▁focal
▁overseas
new
▁Delegat
▁accessories
▁immun
▁landforms
▁literal
▁loads
KAK
▁amenities
▁cooked
▁defend
▁radius
▁utilisation
▁Balance
▁sphere
▁fingerprint
▁About
▁harmonisation
▁novels
▁reactants
intercept
▁modifika
▁partially
▁disabled
▁Liais
▁debit
ICAL
▁animation
▁electrons
▁CHA
▁hacer
▁Great
▁router
cratic
▁quotations
▁terminal
▁Self
/2013
▁irresp
▁Dalli
▁guess
morphological
▁Charg
▁exothermic
urobills
▁Repeal
▁trigger
▁vacate
linole
▁plc
▁pension
▁sky
▁trafficking
epoxy
Delhi
▁lakes
▁flora
uben
Fruit
▁simplification
▁Goals
▁stylistic
▁magnesium
▁Acknowledg
▁fertilisation
▁monoxide
▁mask
▁reciprocal
arthro
Cuánt
▁fauna
▁bottom
▁omission
▁fireworks
▁discharge
▁lexic
Course
▁Nursery
Tiene
▁reliability
▁burial
▁confidential
▁twice
▁Archipelago
▁stimulant
▁counterpart
▁capture
▁yrs
▁emergencies
▁aqua
▁sehr
▁gala
MFF
vocation
ти
▁breach
▁president
▁INTER
▁Developing
▁disposition
▁bottle
▁dividend
ronaut
▁Kind
CAP
▁rib
▁diplomacy
▁SESAR
▁flash
illustrations
▁ident
▁password
▁watch
According
▁Eligibility
▁incomplete
▁retransmitt
▁advertised
▁pregnancy
▁substantiation
▁summon
▁intent
▁necessitate
▁loose
19/
▁upgrading
▁stressful
LAS
EASE
▁601”
.7.200
▁freshwater
964
▁probabl
▁Leaf
donic
▁1989
▁voluntarily
lothing
▁richness
thag
▁Reform
▁blockwork
▁1994
naire
▁Bond
▁REF
▁discretion
Coast
arrow
KING
▁racis
▁Alter
cadem
▁Futur
abri
▁faut
▁vulnerability
▁keyboard
raw
▁eviden
▁Hair
▁considerably
▁Web
▁electronically
▁timeframe
▁Summar
carers
▁scho
▁bulk
▁meantime
oadmap
▁għall
▁Consumption
▁detectable
▁Portal
ASI
▁bought
▁fight
▁Salmonella
▁Que
▁neat
▁fait
▁Federa
Nevertheless
eterin
key
▁arc
▁utili
▁Christianity
▁countryside
▁Gene
▁exhibited
▁brine
▁accompaniment
▁icon
balanc
54
▁quanti
▁MAN
▁hundredth
▁dative
▁broaden
▁6(1)
ML
bert
▁passion
▁certainty
▁Free
▁illnesses
▁Musical
isheries
▁respectfully
▁whenever
(14)
▁shirt
▁150
▁4.0
▁13(3)
▁choreography
▁upper
▁Principles
▁Substance
tract
awk
▁Cost
▁stabilise
▁gut
transplant
▁soft
▁documentary
▁oxid
▁YOU
▁Bul
▁motivation
▁Cities
acco
29/
▁Manufactur
▁CV
▁Natural
▁Fran
▁fift
▁sew
▁conduction
▁negati
▁generat
▁handled
▁nine
▁controll
▁30%
rassica
▁gist
▁Job
▁136
riż
azzjoni
▁CN
actic
▁(17
▁trig
▁server
odd
▁mio
Earl
▁divid
Integrat
▁setup
03
▁Respi
ubmission
▁emotionally
▁audited
▁signifi
▁pest
▁configur
▁HS
LOW
▁explosive
Belt
▁cra
▁decreased
kali
arts
▁quest
▁tender
▁lov
▁MP
▁authorize
Prepare
▁accelerat
▁committ
DG
▁mutati
jan
▁Lap
▁meta
895
/2007
interess
cade
▁quit
Will
▁supervisor
użi
▁Ven
unfavourable
student
mount
▁rebuild
Fond
ometric
glossary
mouth
atelli
CTIONS
▁Clau
▁mitigati
portion
▁str
ailway
ija
ador
▁kee
ountries
Mediation
Milli
55
net
umb
ACH
meno
3.2
Kap
Tak
UR
ropical
4.1
Equality
▁adhesi
raction
conduct
▁hydr
ppearance
▁poll
erais
▁temporar
▁savo
hace
thern
biographies
▁verifi
Summ
crewdrivers
mula
69
▁capabilit
▁secur
▁entertain
bound
▁Ent
juri
kka
curb
ħla
05
▁optimis
▁disk
▁1,2
▁congratulate
Enter
neous
▁reassess
ħu
▁diverg
▁għand
ät
▁fle
▁induce
dressing
▁admissi
▁għandh
pru
erina
Serv
aż
PH
▁arrang
▁Standard
nach
stituted
symmetric
conscious
irculatory
▁refrigera
varnishe
Che
metre
▁Mak
Sever
ecal
burg
Han
Com
▁exercis
lactos
▁fri
95
long
actors
070
financing
▁thin
structure
▁contamina
DES
▁stimul
▁supervis
▁koll
5(6)
▁Contin
▁Qualification
▁Install
source
Kla
▁interdependen
edukat
carbonate
▁aerodrome
▁shock
▁script
▁barrier
▁viewpoint
▁implication
ceived
▁remov
▁subsid
▁thought
chiev
▁Sav
bsence
с
FORM
▁wir
GIPSA
Ensur
Under
effect
Children
author
programming
Account
tolerance
Process
expression
Kuwait
cultural
residue
More
drink
defined
appointment
young
study
amended
President
Gozitan
whether
Public
Health
positive
Parliament
ethical
good
when
inclusion
listen
containing
mobil
weather
construction
91/
▁2300
TV
▁teach
performance
▁brass
SML
office
▁hydra
▁surround
▁locat
(9)
more
will
mix
stories
▁distribut
▁scal
▁happ
▁identifi
▁dedicat
▁prescribe
▁XX
▁investigat
▁Bibl
sult
lderly
▁bisect
ligible
lky
xplain
▁Strateg
▁satisfactor
voy
▁klein
7%
▁engine
▁wax
erformance
scription
▁carbo
▁disseminat
▁Viol
▁cataly
▁respirat
rohibition
▁accommodat
▁Educat
▁decorat
▁Communicat
ам
nonym
▁disagree
▁summari
▁Invest
▁vegeta
omplaints
▁cultiva
Audio
igestive
ilitary
ifferences
etween
ecause
ewellery
ubble
▁fertil
▁destin
▁influ
▁contemp
▁Regulat
joni
ntegration
▁хо
Africa
$
għaddih
pulizija
▁colleg
arthritis
pouvoir
valent
vouloir
|___|___|___|
▁ADVERTIS
▁EDITOR
▁Slovenia
▁accru
▁attempt
▁behavior
▁chicken
▁controvers
▁multicellular
▁pathogen
▁rhetoric
▁suspect
▁¬2
AZZJONI
Affaires
BADGE
Besides
CHOGM
Competition
Components
Definition
Entschuldig
Interpol
MSDC
Modification
QMA
Quiero
Renaissance
Strengthen
antothen
aspx
beadwork
deliberate
ebbu
iskola
mutagen
niżmu
ontraindications
pagament
pueblo
ropylenethiourea
saccharides
tabbilit
|__|
ç
ì
ă
ą
Ħasselin
ő
акой
▁182/2011
▁853/2004
▁86/36
▁ACTIVITIES
▁Abroad
▁Analysis
▁Australia
▁Basilica
▁Birkirkara
▁CONSULTATION
▁CRITERIA
▁Carthage
▁Chairman
▁Chambray
▁Cloud
▁Cosmetic
▁Deutsch
▁Distribut
▁Division
▁ERRC
▁Gaudium
▁Guide
▁Harbour
▁Hungarian
▁Judaism
▁LEGISLATI
▁Limestone
▁MANUFACTUR
▁MEMBER
▁Ontario
▁Orchestra
▁Perfecto
▁Philatel
▁Prosecution
▁Questions
▁Recruit
▁Refalo
▁Return
▁Revenue
▁STATEMENT
▁Sampling
▁Stadium
▁Target
▁Tuesday
▁Vatican
▁Vittorio
▁Wednesday
▁accent
▁accumulat
▁ancestors
▁anticipate
▁anxiety
▁apologise
▁appropriation
▁archaeological
▁astronom
▁autonomy
▁bankrupt
▁catalogues
▁centimetre
▁chlorine
▁cholesterol
▁clusters
▁commodities
▁compatibility
▁competitors
▁congestion
▁cuboid
▁culinary
▁departure
▁depreciation
▁diffusion
▁dilemmas
▁discursive
▁distillation
▁district
▁disturb
▁dreams
▁embassy
▁encyclopedia
▁entitlement
▁fallacies
▁feminine
▁flavouring
▁forgiveness
▁furnishing
▁grinder
▁gustaría
▁imaginary
▁impression
▁imsejħa
▁inception
▁inhabitants
▁interrogative
▁kidney
▁kūdikiams
▁legacy
▁lipids
▁livestock
▁maitinim
▁mammography
▁married
▁milestone
▁morphology
▁orthodontist
▁papildom
▁pellets
▁permissible
▁philately
▁pledge
▁plumb
▁pornography
▁prosperity
▁protractor
▁qualifiers
▁radicals
▁rectify
▁remuneration
▁sarcastic
▁sensors
▁stolen
▁stretch
▁struggl
▁sulph
▁suspicio
▁tectonic
▁treasure
▁vacuum
▁vandalism
▁vapour
▁variability
▁vibration
▁įved
▁́E
Movement
conciliation
ipparkja
maternal
variabl
voglio
▁Avoid
▁Interest
▁Oratory
▁Respect
▁Retail
▁Surname
▁bleach
▁ceiling
▁depilat
▁desirable
▁destroy
▁dictate
▁heterogene
▁infinitive
▁macromolecul
▁opinión
▁petition
▁philosophical
▁repair
▁retention
▁silence
▁sponsorship
▁thesauri
▁trouve
▁upload
▁winner
RESTRI
furkett
÷
▁Czech
▁Francis
▁STIs
▁bundle
▁fifteen
▁gehen
▁immigrants
▁intensity
▁liberty
▁microscope
▁obligatory
▁perimeter
▁seamless
▁stringent
▁withheld
▁yoga
Short
Saliba
ropineb
▁6(3)(
▁arbeiten
▁clues
▁goodbye
▁insulin
▁médi
▁pulse
▁weapon
▁Millen
▁fusion
▁jump
▁phonemes
▁pollutants
▁sadness
▁solemn
▁teenage
▁vacation
▁Sejm
▁alleged
▁disorders
▁leak
ransfusion
▁Cereal
▁EMPLOYMENT
▁Fungibil
▁Sahour
▁Week
▁cheques
▁condom
▁Automat
▁extradit
▁refine
centuries
rithm
▁LCP
▁harness
▁probation
▁cookie
IAEA
▁NSAs
▁credibility
▁resort
▁picto
ся
▁camera
▁manifestations
elwa
ый
▁integer
karyot
nterface
▁Listening
idwives
▁ecology
▁sauce
IGI
▁adulthood
▁carving
▁vertebrates
▁Buon
▁creators
aurus
▁nineteen
RST
giorno
▁alike
▁tolerate
▁Vince
gauge
Estoy
▁dense
▁prioritise
▁phil
▁prossim
▁strain
▁EDP
▁glands
▁haloxyfop
▁bait
▁Collaborati
▁surplus
▁impracticable
▁habitual
▁merit
▁sensibl
▁transpos
▁Qor
Octob
▁ADDED
Video
▁calm
▁disrespect
▁gaming
▁scrap
LITY
Copies
▁felt
Broad
CHECK
▁Fair
▁wastage
1996
▁Description
▁ICER
sanit
Ramla
vivir
▁Forests
Lei
ес
1998
▁anchor
ronze
▁Guz
787
▁bigge
posso
ий
AGE
▁bench
nfluenza
▁rescue
▁ANSWER
recast
ло
▁terbufos
▁oven
▁strangers
strial
kauf
▁sulfone
▁Export
DRF
▁veux
▁flourish
▁ITB
▁Muscat
▁aerial
▁judiciary
▁silt
▁pick
Angles
▁digestive
ould
▁vegetation
▁narration
Winter
▁vaccination
▁Preparation
▁enquiry
▁Lago
▁stable
▁neatness
▁towers
▁managerial
ANCE
multa
▁diphosphate
▁terrorism
▁lossless
▁sustainably
▁buck
▁2294
▁Jean
▁cohabitation
MoU
▁magħ
onyms
▁federa
▁confidentiality
▁decade
▁sħa
▁Newton
anyatej
▁dissemination
▁manoeuvre
▁pollen
▁Brassica
▁Durability
LEG
ROM
▁urge
▁1:20
▁voicemail
▁stead
ulju
▁arche
▁rays
▁hydrolys
▁aggr
▁adaptability
▁determinant
ivores
THE
▁indoors
▁blow
▁remedie
▁45(4).
▁CONT
▁worldwide
unmarked
▁automation
Foot
▁ikun
▁disqualified
timate
▁staphylococci
▁enact
mote
FFIC
fication
▁rubber
▁apple
▁ADD
Securit
▁exhaust
▁waxes
▁GPE
▁Devi
▁detri
▁manure
BAR
▁professionalism
PEA
▁weld
CTION
▁Jane
▁LVI
▁generator
FOI
čn
Source
▁steam
▁codifie
▁cyclic
▁lens
▁amplifi
quisition
▁explo
▁‘¿
▁29(1)
▁tight
ulletin
Value
▁denn
▁POS
▁posture
▁therewith
▁analog
▁undertaking
hould
▁"42
▁bones
▁Jul
▁2050
neuron
▁cerv
▁gern
▁annul
▁fuse
▁melt
▁HR
triq
▁Xu
▁believer
▁inci
▁vacancy
▁editor
▁Dental
pdf
▁impede
▁denot
▁pub
▁prediction
▁9000
▁pitches
IFO
arju
▁Ya
Dov
OJL
flat
▁KE
venir
▁Nap
▁crust
▁reproducti
▁kar
▁2007-20
▁deni
▁Efficien
▁skim
▁outgoing
ería
▁chromosome
speed
▁dust
Text
Certificat
▁Pain
▁deleti
▁Ecolog
▁weaken
escribe
affin
oogle
▁contributor
Unemploy
▁Case
salt
pods
ROW
facebook
shore
NIC
▁drop
Equal
estern
apporte
ULT
lene
Visitors
▁ħa
▁(2,2
xyl
▁Tritic
Ray
▁Back
avere
ecesit
▁0,1
▁physic
nzja
RACT
PRES
ssage
nada
literate
THEN
Setting
▁Lea
practicable
Along
Keep
Fees
▁Gha
SAC
▁adventure
▁showcas
Well
alcium
▁refinanc
▁Defe
belli
terns
▁sail
mik
toge
▁contextualis
▁€0.1
serva
▁Ul
dag
GW
uropa
▁Maxim
Page
ailing
▁discriminat
Para
oskelet
▁estimat
assemble
▁MEN
recurrent
▁obstructi
INT
▁citr
Just
▁arriv
Legislation
OW
impa
▁charg
educated
initi
▁refrigerat
row
EED
▁featur
transmitte
30000
▁aspir
astric
LIN
nsic
penta
▁heav
120
tructural
markers
▁pluralist
▁Marin
▁guid
omolog
Indian
▁celebr
▁coincid
aqgħu
▁Soft
nmark
▁Tele
_____
▁cit
eresa
perme
Arti
usages
rmed
intéresse
ompat
,000,000
▁lev
mological
disputed
▁emergenc
▁communicat
hesive
▁finalise
degrad
▁easi
discriminate
▁interconnect
/2008
consultations
regularity
figure
▁exac
building
tigation
Submi
▁DIRECT
33.
00-1
▁practic
▁biome
xaminations
ACT
annu
polymer
Marc
▁Pack
nitiatives
location
▁substanti
▁empower
iji
▁propos
▁(19
▁apprecia
aime
▁EFS
preceden
▁enzyme
▁inference
sumption
▁infection
▁muscle
▁pronoun
▁interval
▁observation
▁polygon
Rol
▁gesture
▁preference
▁preposition
self
rtisanship
rozen
fforestation
ttractive
employed
▁Ethic
▁circ
Stock
guard
sheet
Common
Chemical
procurement
Function
construct
publish
EEA
defence
MCA
reflective
Example
declared
Hague
Measures
justified
mechanical
Green
operate
Science
EASA
metals
High
harmonised
double
EIA
brand
aesthetic
compar
excellent
favour
Design
discrimination
informal
nutrient
green
Water
scenes
plural
geographical
declaration
ICT
alcohol
determined
Digital
pesticide
Home
generate
volume
copy
addition
history
Treaty
achieved
register
objects
controlled
establish
recycling
waste
substance
environmental
decision
aspects
intended
material
Part
country
safety
financial
research
Ministry
school
energy
short
cards
support
4(1)(
simple
drive
dried
▁underpin
small
▁speci
weight
write
would
1999
foresee
hereafter
20,000
ooking
orrei
▁exhibit
▁wav
▁instruct
OUR
▁scop
▁insert
▁incurr
▁expens
▁inspire
▁envisage
▁approve
▁PROTE
evertheless
▁Agricultur
▁Palestin
▁atmospher
▁hygien
xcessive
xercise
diver
▁frequenc
▁regulator
▁impro
▁Port
▁rubb
▁excellen
▁staphylococc
zzjon
▁stereotyp
▁categori
dehyd
▁Mediterranea
▁criticis
990
▁fragment
▁exempt
ligibility
equence
uccessful
â
▁communi
roperty
▁triang
▁clot
▁Employ
▁nutri
▁consign
▁diction
oncepts
▁Musc
laboration
▁Multi
▁preposi
njury
ncreased
ischarge
▁Competen
▁authorisa
stranger
stakeholder
WERS
riefly
▁interven
з
▁Entrepreneur
▁subsidiar
ê
8-1
▁Safe
▁INTERVIEW
▁chair
delete
morph
ы
▁549
nterpretation
рав
ß
sacchar
phosphor
Ordinan
determinat
entrali
ā
▁fipronil
▁persua
▁Accelerati
▁Celebrati
▁cafeter
Slovak
petitive
ё
†
▁Fishery
▁Lithuania
▁semplic
▁ник
2014-2020
BFDGE
Characteristics
ESBO
ETAIL
Euratom
Eurosystem
Experience
Hungary
LEAF
Loġoġ
MATE
Mechanical
ONOM
Reġistra
TREATMENT
Textiles
VISION
`
buprofen
carnitine
denomination
engraving
eptachlor
fútbol
gimnasio
glycerides
għeluq
irefox
llamarse
lywood
marijuana
midwife
misappropriation
mjölk
negozju
osphere
platz
reasury
releases
souvenirs
substitution
tarianism
±
η
ς
ехать
▁(20:4
▁1108/2009
▁1882/2003
▁1:100,
▁ACCESS
▁ACCORD
▁ANIMAL
▁APPLICANT
▁Afirmativo
▁Alimentarius
▁Aspects
▁Belief
▁Benedict
▁CEREAL
▁CIDIC
▁COMPLIANCE
▁Calculat
▁Campaign
▁Carnival
▁Cheeses
▁Classes
▁Command
▁Congress
▁DECISION
▁DISTRIBUTI
▁Edition
▁GASART
▁Galileo
▁Girgor
▁Greek
▁HOUSE
▁HOUSEHOLD
▁Holidays
▁INVOL
▁ISSUE
▁Indicate
▁Lambert
▁Luċija
▁Lützowplatz
▁MAXIM
▁MEDICIN
▁MODULE
▁Mellieha
▁Ombudsm
▁PROFESSION
▁PROGRAMM
▁PROVISIONS
▁Patterns
▁Population
▁Portelli
▁Precision
▁Prezz
▁Probability
▁Psycholog
▁Quisiera
▁RELAT
▁REQUEST
▁Rabat
▁Registrar
▁Robotics
▁SCHEDULE
▁Sergeant
▁Spirit
▁Study
▁Temperature
▁Terminal
▁Transactions
▁Wettke
▁Zahra
▁abortion
▁abundance
▁acetate
▁acoustic
▁algorithm
▁allegiance
▁alveoli
▁ambassador
▁approx
▁azoxystrobin
▁biotechnology
▁blindness
▁blueprint
▁brainstorm
▁cameriere
▁chapters
▁chloro
▁chromatography
▁climbing
▁comida
▁communitarian
▁compaction
▁competiveness
▁contraceptive
▁coordinator
▁corrida
▁craftspeople
▁currencies
▁custody
▁daughter
▁decomposition
▁decreasing
▁deforestation
▁democracies
▁discrepanc
▁domenica
▁drift
▁dwelling
▁elaborate
▁electrolysis
▁emphysema
▁endoskeleton
▁enterotoxins
▁erasure
▁escort
▁etiquette
▁etymology
▁everybody
▁excavat
▁excitement
▁extinguish
▁eżistenti
▁festivities
▁follicle
▁fragile
▁glazing
▁größer
▁hansa
▁hexadecimal
▁horror
▁humidity
▁humour
▁hätte
▁incapacitat
▁incentivis
▁incumbent
▁interlocutor
▁jacket
▁kiosks
▁kollox
▁margin
▁masculine
▁melodies
▁messenger
▁misbehaviour
▁mismatch
▁mosaic
▁mosiac
▁mutandis
▁narcissistic
▁nomenclature
▁obtuse
▁oscilloscope
▁patrimony
▁patrol
▁phrasing
▁popstars
▁precincts
▁precision
▁prize
▁prominence
▁protoctist
▁pupils
▁purslane
▁quaternary
▁registry
▁reorganis
▁reputation
▁resign
▁resilient
▁rhizome
▁salaries
▁sarcasm
▁scusi
▁sequencing
▁shadow
▁shipping
▁shrubs
▁sibling
▁spillover
▁spoilage
▁suburbanisation
▁temples
▁tessellati
▁thicknesses
▁tickets
▁transceivers
▁trouble
▁unclear
▁unsafe
▁upbringing
▁vexatious
▁weaving
▁windpump
▁würde
▁xenophobia
▁Добр
▁брат
▁это
Aesthetic
Constituent
Nutrient
agħmlu
ensulfothion
▁Chapel
▁Charles
▁Chrome
▁Corporat
▁Discuss
▁Expert
▁ORIGIN
▁TIMSS
▁Woche
▁cabinet
▁comunica
▁conductivity
▁conjugat
▁decisive
▁fortifications
▁immigra
▁irreversib
▁redress
▁sequential
▁splend
▁thorough
▁unexpected
▁unlike
(2016)
Mandatory
histidine
irkant
nflammat
ortellini
residual
waħda
отеть
▁89/10
▁Cassar
▁Cremona
▁Liberty
▁Produce
▁Slovakia
▁Spiteri
▁Voice
▁Weekend
▁bromine
▁cherries
▁chopping
▁consequent
▁convection
▁embryo
▁intelligibl
▁lodging
▁mortgage
▁predominant
▁rectification
▁toxicological
▁trachea
▁truncat
FEE
IGH
Wood
guardians
▁Women
▁approp
▁bleeding
▁census
▁digging
▁dinner
▁flank
▁gymnastics
▁hyperlink
▁phosphorus
▁piacere
▁placeholder
▁rinsing
▁swift
▁teeth
▁unborn
▁unpublished
Apply
propyl
▁Caritas
▁Consultant
▁Gender
▁LOCA
▁Twent
▁concise
▁expedien
▁jirri
.11.200
Again
Italie
Vanilla
emiconductors
▁Estonia
▁Hamad
▁STAT
▁rank
▁shrink
▁unanim

▁Drink
▁Flower
▁Points
▁chilling
▁latents
▁menstrua
Digitis
buż
groß
▁Appo
▁NUTRIENT
▁Print
▁SPECIFIC
▁futuro
▁intuitive
▁kann
▁plausib
potere
▁aftermath
▁asylum
▁blend
▁dark
▁halve
▁pliers
▁grove
▁injured
▁radish
▁ripar
chamber
roblem
▁CRI
▁backstop
▁galler
▁inpatient
▁intestin
▁legend
▁workspace
ICAO
POSITI
▁domani
▁interdict
▁loud
▁pride
puedo
▁MTA
▁Solve
▁confuse
▁BIO
▁REPORT
▁Books
▁decorations
▁Folklor
▁sentiment
▁spacing
ECHR
▁eradicat
EATMN
▁Bosco
▁clarifi
▁immed
▁Amano
▁ethano
CAC
CIP
diox
invalid
▁12:00
▁Heath
▁indices
▁tardi
▁tank
▁agenda
▁captions
▁meilleure
▁playground
▁Ħelwa
▁549/2004
▁epide
Artisan
▁Operation
▁jury
għalliem
▁Leone
▁Ħaż
▁inflict
▁APP
▁husk
fête
Beverage
▁1999/3
▁Emp
ICTGM
Zaka
▁brain
▁fishery
▁festa
▁forestry
▁persever
▁ledger
▁Khal
▁sizing
▁1999/2
▁Think
sculp
▁tiles
CLAR
▁keine
▁POLIC
▁beneficiaries
▁burns
▁stamp
Frequen
Sweet
▁frying
▁subtle
▁Xag
▁waive
Stefan
Patient
▁activate
▁roast
▁coerc
▁cybersecurity
▁jidh
▁isolation
▁prophet
▁Brown
▁coagulase
▁organelle
icroclimat
▁airlines
▁ministr
▁Horse
▁2004#1
▁hetero
pronomi
ière
▁0,7
2013-201
▁grey
excuse
▁WORK
▁lifecycle
▁Severe
▁tonality
▁Dialogue
ез
ountain
VRT
▁65(3).
fiesta
ittà
soever
▁hydrogen
OSCE
▁Exchange
▁Clinic
▁sme
escue
▁communiqu
▁Helen
777
▁stall
▁ripe
fructos
ENTATI
▁displacement
▁motto
▁implant
▁recontamination
GMO
▁kick
ermaculture
▁ILO
▁factorization
▁2009/3
▁Introduce
▁pasado
▁agency
▁aboli
▁irresponsibl
▁Labour
▁sunlight
STAND
▁auxi
erennial
▁intercultural
▁abide
▁postpon
▁€660,
▁fahren
▁Brother
▁multinational
poč
▁Qur
▁actuat
vascular
▁expedit
Simple
▁instill
▁tenths
inerals
▁earmark
▁logistic
▁connectivity
▁disapprov
▁march
▁metalwork
▁Crem
▁shelve
▁mason
▁stomach
▁bronze
LCM
▁neutralisation
valve
mallets
aħħa
▁cultivation
▁federation
emographic
▁mould
▁Correction
▁gates
▁Initia
shrin
▁withdrawals
▁aċċettat
▁corner
▁ADDITI
LDR
volere
▁occurrence
Finland
âte
▁boys
▁Corps
▁spiritual
ERRE
chiama
▁Sacr
nectars
3+
YRE
▁mild
▁Asia
piace
▁forbid
▁worry
▁timing
minant
ceptive
educativ
točn
▁font
▁trova
▁thro
▁finger
▁Weight
untrue
▁45(5)
▁splitting
▁multilingual
сам
Styles
gile
▁avec
▁Amendments
▁diversification
▁orbit
oundtrack
EIP
lveder
furma
sius
spoon
chenge
▁"49
▁haces
▁lactat
Barri
ervata
▁intersecti
EXE
▁Marsa
▁Genetic
querer
▁dashe
▁Qualit
oliticians
ottom
▁lapse
▁latt
frut
▁Lino
calliper
▁credib
Village
phora
▁Encourage
▁Enhance
hicory
ssimu
ugee
▁ficti
arcases
▁BAC
shoot
▁gioc
Combi
racias
ceans
oxy
ogether
XXV
▁Undertak
Consider
hirteen
Vorrei
988.
ecycled
Wild
Sustain
77-
▁autobiographi
holine
anqas
scienti
multipli
COND
distan
ebsite
appell
▁conclud
rgent
▁innoc
▁substantiate
ALLO
82.
randomised
malsa
logger
benefit
conceptions
folia
REG
▁Receiv
▁purp
EFSF
occup
empowerment
subsidies
eko
1976
maleduka
▁cohabit
agli
▁Initiative
habite
LINE
▁pyr
▁gluc
ħaż
horiz
Qualifications
eduk
sabi
kollu
rends
▁Outlin
ission
▁Zim
flies
rmat
IoT
▁separat
▁Paol
operative
▁admi
▁ogg
aqqa
▁jueg
pecifically
▁laund
▁Becom
riendship
82/200
onnectivity
▁negotiat
0,8
grass
ctose
Challeng
2,5
grading
entru
▁physi
Pace
angle
arnishes
ritten
▁symmetr
tylists
metric
▁Institution
Resource
Idea
pooling
▁laqgħ
assessment
tainment
▁translat
▁Resourc
▁Structur
▁stylis
▁enforc
▁entrust
▁Writ
nstallation
LIT
Mou
2003/8
▁avenue
▁anniversar
notifi
▁Establish
aille
▁Romania
Normal
▁diversifi
▁potter
Specific
.2.200
1972
who
uego
▁habit
cilia
▁pollinati
▁Custom
▁perpet
▁glossar
transmit
▁illustrat
▁maxim
mproving
▁Prepar
enefits
▁Norma
▁Friends
agrees
▁occu
▁Current
ntegrated
ficial
direct
cluded
istorical
▁narrat
▁congruen
hydrox
nteroperability
Argen
connected
function
▁emotion
▁superlative
▁earthquake
arlier
▁cigarette
▁transaction
▁architect
▁Condition
▁Mathematic
▁disadvantage
▁circumstance
Franc
erobic
ccident
irspace
udiovisual
pplicable
ctivity
special
mplemented
Principles
Substance
motivation
preparat
(2015)
Applicant
Labelling
decent
delegate
Cooperation
words
narrate
Commerce
People
certification
happy
Type
approximate
|___|___|
PART
York
Clear
Officers
RASFF
Enterobacter
Midwife
Nutrition
Technological
subtract
channel
Infant
Sicily
Programmes
Power
Present
accommodation
newspaper
Place
Building
Fourth
Restor
street
economies
Name
Consultation
output
screen
Foodstuffs
permanent
GDP
victim
binding
knowledge
imperative
Business
front
respect
undertaken
Euro
division
electric
Official
Coordinat
emotions
Application
occasions
couple
MRL
April
parents
June
circumstances
week
Management
Secretary
professional
confidence
detailed
circuit
Section
piece
agricultural
Education
response
regarding
colour
electronic
Internet
quantity
software
developed
Decision
adapt
organisations
increase
Chinese
transport
choices
management
Protecti
practice
literary
interpret
technical
available
processing
follow
society
community
Authority
development
resources
physical
project
measures
hirts
Constitution
capitalise
▁particip
etabolites
loaded
(*)
ermitte
▁Politic
▁concentrat
Encourag
Enhanc
▁modifi
▁inaugurate
▁satisfie
▁argu
▁candidat
requisit
mpathy
proportiona
xposure
nabl
▁(**
▁vulnerabilit
▁gravit
▁guilt
ò
õ
ł
‡
√
κ
^
©
Ä
×
å
î
Π
φ
′
ņ
Ħ
→

П
Н
К
β
ń
ô
⁄
ύ
¡
□
−
σ
ū
į
ш
Д
ź
Ł
¦
э
х
ñ
п
в
́
¬
к
ö
р
н
€
З
ē
δ
И
ι
Ч
Ç
Ö
û
̊
έ
ή
ί
γ
λ
τ
М
Х
ю
ض
ظ
ه

Ê
É
ş
{
“
