<pad>
<unk>
<s>
</s>
▁the
▁and
,
▁of
.
▁to
▁I
▁in
▁can
▁a
."
▁
▁"
s
]
▁for
ing
-
▁or
▁be
▁that
▁as
▁is
▁with
▁by
▁on
)
▁(
;
'
ed
:
/
▁use
▁from
▁are
▁this
▁which
▁my
▁an
▁such
"
▁The
▁shall
▁about
d
g
▁how
▁e
▁not
▁different
▁at
e
▁other
▁have
▁their
▁2
▁any
▁will
▁using
ly
▁Malta
y
▁it
▁Gozo
▁understand
▁may
▁explain
▁others
The
▁between
a
al
▁also
▁identify
▁'
▁information
1]
▁has
▁describe
▁European
▁more
▁work
▁when
▁1
▁its
▁S
▁was
▁what
▁Commission
▁Article
▁all
▁should
▁Regulation
▁Member
▁including
▁am
▁time
▁through
▁one
▁5
▁out
4]
▁"1]
▁3]
▁these
▁discuss
▁‘
▁they
▁A
▁where
▁-
▁used
▁"2
▁food
EC
▁social
▁States
▁into
▁EU
▁been
▁appropriate
▁data
▁people
▁make
▁health
▁simple
t
3]
▁public
▁No
▁products
▁within
related
▁life
▁than
▁6
▁under
▁know
▁Maltese
▁if
▁number
▁well
or
▁you
▁order
▁7
▁person
▁project
▁some
In
▁being
▁particular
>
▁up
▁accordance
on
▁present
▁referred
▁write
▁following
▁them
▁language
i
▁area
▁8
▁apply
▁do
▁texts
▁new
▁"(
▁who
▁water
▁own
▁Annex
▁environment
▁show
▁those
▁national
▁level
▁made
b
▁energy
es
▁measures
▁recognise
▁demonstrate
▁set
▁help
▁personal
▁local
▁provided
▁article
n
;"
▁so
▁two
th
▁part
▁Directive
▁3
▁Thi
▁various
▁ask
▁"4]
▁10
▁short
▁9
▁give
▁would
o
l
▁range
I
▁•
▁process
▁importance
r
S
▁school
were
▁activities
▁research
▁"5
▁services
▁market
▁development
▁read
▁his
c
▁both
▁during
Gozo
▁years
▁Minister
▁able
▁understanding
ubject
?
▁me
▁main
▁specific
▁past
▁talk
▁Council
▁form
▁C
▁only
▁case
▁Ministry
▁F
▁product
▁economic
er
▁support
▁service
▁ways
ic
▁year
▁provisions
▁necessary
▁but
▁rules
▁types
▁eco
▁place
▁paragraph
▁performance
▁text
▁given
▁take
▁learning
▁"6
),
▁physical
▁need
▁quality
▁words
▁law
▁design
▁issues
▁Authority
▁countries
▁materials
▁system
▁un
▁conditions
▁ensure
▁Parliament
▁list
▁after
▁role
▁music
▁first
▁respect
▁like
se
▁subject
▁each
▁our
""
:"
▁impact
▁your
▁way
▁4
▁application
▁basic
▁change
▁skills
▁non
▁evaluate
▁create
▁human
▁writing
▁over
▁no
▁E
▁provide
▁Fo
▁compare
▁12
▁"7
▁control
▁euro
▁financial
▁terms
▁context
▁material
▁cultural
▁same
▁required
▁D
▁future
▁down
▁ideas
▁re
▁plan
▁examples
▁House
▁find
▁follow
▁requirements
▁community
▁means
st
▁events
▁procedure
▁why
▁effects
A
▁include
cus
▁important
▁environmental
▁projects
▁Health
▁while
▁without
▁(1)
▁legal
m
▁foods
▁relevant
▁taken
▁value
▁there
▁L
▁sources
in
▁report
▁express
▁Europe
▁knowledge
▁safety
▁account
▁content
▁M
▁B
▁questions
▁p
▁country
▁action
▁P
▁society
▁complex
▁Community
▁we
▁current
▁business
▁group
▁activity
▁good
▁purposes
▁expressions
▁substances
▁opinion
▁certain
',
▁systems
▁most
▁world
▁result
▁office
▁values
▁analyse
▁before
▁purpose
▁claim
▁animal
▁In
▁vocabulary
▁de
▁effect
▁Act
▁children
wards
▁resources
▁members
▁produce
▁media
▁historical
▁he
▁authority
▁"8
▁situations
▁international
▁scheme
▁aware
▁name
▁production
▁another
▁meaning
▁per
▁O
▁forms
▁scientific
▁technology
▁three
Thi
▁sustainable
▁t
D
▁contact
▁period
▁digital
▁care
▁key
▁problems
▁numbers
ive
▁family
▁further
▁Union
▁intended
▁months
ion
▁areas
▁distinguish
▁common
▁point
▁possible
▁total
▁processes
ation
▁general
▁line
▁state
▁articles
▁"1
▁myself
▁protection
▁State
▁rights
▁positive
▁needs
▁force
ve
▁Area
▁taking
able
▁date
▁cases
▁available
▁concern
▁T
▁must
▁together
▁students
▁sub
▁develop
▁written
▁based
▁elements
▁tools
▁aspects
▁reflect
▁risk
▁could
▁functions
▁policy
▁"9
▁draw
▁reference
▁natural
▁high
▁points
is
▁investigate
▁consumer
▁addition
▁works
▁held
▁member
▁art
▁interest
▁R
▁added
▁relationship
▁right
▁consider
▁""
▁15
▁exist
▁across
▁Public
▁formulae
▁decision
▁island
▁"-
▁explore
▁better
▁whether
▁address
▁access
▁day
▁relate
▁interpret
▁online
▁free
ar
▁perform
round
ocus
▁phrases
▁learn
▁method
ity
▁body
▁technical
▁levels
▁groups
▁adopted
▁familiar
▁election
▁reasons
▁ta
▁c
▁General
▁Outcome
▁plastic
▁variet
▁i
▁power
▁s
▁migration
to
▁Gozitan
▁processing
▁It
▁(2)
▁making
▁least
▁contain
▁l
▁President
▁11
▁inform
▁contexts
▁changes
▁OF
▁communicate
If
▁Police
▁techniques
▁amended
▁established
▁moral
▁co
▁correct
)."
▁MRLs
▁practice
▁g
▁regard
f
▁implementation
▁growth
(
▁factors
▁plant
▁20
▁la
▁according
ary
▁carry
▁found
As
▁opinions
▁long
▁Government
▁involved
▁special
▁participate
▁methods
▁equipment
▁carried
▁claims
▁procedures
▁less
▁substance
▁programme
▁lead
▁relat
▁working
For
▁listen
▁16
▁negative
▁does
▁example
▁sector
▁structures
▁four
▁direct
▁laid
_
▁n
▁practices
▁literary
▁home
▁wide
▁persons
▁schools
▁consumers
▁Debono
▁III
▁air
▁improve
▁open
▁global
▁differences
▁benefits
▁since
▁having
▁Representatives
▁last
▁framework
▁presentation
▁respond
▁legislation
▁principles
▁Commissioner
▁government
▁listed
▁tal
▁economy
▁everyday
▁basis
▁effective
▁individual
▁outline
▁Food
▁live
▁relation
ii
▁processed
ies
▁potential
▁management
▁foodstuffs
▁effectively
us
▁structure
▁question
re
▁Constitution
▁contribute
▁characteristics
EEC
en
the
▁movement
▁places
▁construct
▁end
▁19
▁properties
▁m
▁competent
▁said
▁friends
▁experience
▁visit
▁active
▁details
▁Schedule
▁difference
▁audience
▁assessment
▁relationships
▁self
▁Ambassador
▁done
▁sites
▁setting
?"
▁clear
▁II
▁building
▁nature
▁say
▁limit
▁b
▁specified
▁applicable
▁transport
▁third
▁organise
▁organisation
▁benefit
at
▁THE
▁evidence
▁against
▁thereof
▁had
▁vision
▁light
▁request
▁"3
▁upon
▁consultation
▁second
▁call
▁decisions
▁appreciate
C
▁contract
▁applicant
▁age
▁trade
▁affect
▁industry
▁reduce
▁speech
▁policies
▁might
▁results
▁capacity
▁verbs
▁Th
▁manner
▁Directorate
▁amount
▁“
▁political
▁animals
▁foreign
▁Chinese
▁due
▁promote
▁AND
▁view
le
▁For
te
▁prepare
▁exercise
▁risks
x
▁etc
▁waste
▁act
▁components
▁instruments
What
▁court
▁Court
▁healthy
ce
ch
▁13
It
▁"10
▁aid
▁consumption
▁large
▁living
▁appointed
▁whole
2
▁remain
▁il
ness
▁identity
▁studies
▁responsible
▁small
▁ethical
▁weather
ers
▁reading
▁mentioned
▁treatment
▁TO
▁culture
▁visual
▁focus
▁things
▁already
▁features
▁actions
▁subjects
▁expressed
▁protein
▁needed
▁event
•
▁type
▁included
▁aim
▁programmes
▁select
▁opportunities
OJ
▁single
▁issued
▁test
▁considered
▁applications
▁Social
▁document
▁St
▁situation
▁solve
article
▁parties
▁devices
▁come
many
▁objectives
▁keep
▁initiative
▁infant
▁cause
▁Eco
▁term
▁experiences
▁plants
▁li
▁significant
▁sexual
▁criteria
▁maximum
▁18
▁Main
▁challenges
▁sports
▁increase
▁dance
▁tense
▁discussion
▁1.
▁30
▁f
▁establish
▁similar
▁overall
▁play
▁sentences
▁class
▁17
Learning
▁meet
▁look
▁safe
▁internet
▁14
▁choices
▁characters
▁acid
ate
▁German
▁authorities
▁therefore
▁Decision
▁recycling
▁feel
▁regulations
▁Learning
▁space
▁function
▁full
ment
▁Hon
▁analysis
▁traditional
w
▁problem
▁tasks
ous
▁essential
ingle
However
▁assess
▁low
▁engage
▁major
▁recycled
▁National
▁adjectives
▁critically
▁"12
▁become
▁require
(2)
▁field
as
▁replace
”
▁review
an
very
▁education
▁Part
▁employment
▁cost
▁real
▁answer
▁Re
▁protect
▁authorised
▁soil
▁organisations
▁site
▁rate
E
▁mg
▁provision
▁define
▁climate
▁July
▁1774/2002
▁either
and
▁enhance
▁record
bathing
▁developed
▁targets
▁continue
▁investment
▁description
▁initiatives
▁100
▁register
▁original
▁regards
▁%
▁among
▁parts
▁instructions
▁secondary
▁young
▁final
P
▁progress
▁d
▁chemical
▁study
products
▁share
▁allow
▁Embassies
▁provid
▁responsibility
▁minimum
▁proposed
▁standard
B
▁efficiency
▁implemented
▁includes
▁limited
▁reason
▁standards
▁documents
▁price
▁"""
▁achieve
▁giv
▁Giovann
▁October
▁assistance
▁determine
▁security
▁patterns
▁Mr
▁objects
▁sound
▁explained
▁website
term
▁acts
▁adopt
▁labour
▁effort
▁pre
▁comply
▁best
▁G
▁W
T
▁influence
▁Committee
▁Pillar
▁debt
▁until
▁Development
▁primary
▁table
▁five
▁concept
▁appropriately
▁costs
▁post
▁Regulations
▁authorisation
▁population
▁official
▁team
▁25
▁size
▁presented
▁days
economic
▁avoid
▁meeting
ical
▁Safety
▁still
▁International
▁Treaty
fiscal
▁vitamins
▁cross
▁drawing
▁object
▁(3)
▁prevent
▁provides
▁six
▁fact
▁measure
▁laws
▁link
▁exceed
▁put
▁construction
▁scale
...'
▁start
▁equal
▁Rights
▁throughout
▁increasing
ING
▁minerals
▁assist
▁tourism
)"
▁produced
▁times
▁2016
▁designed
▁developing
▁sectors
▁obtain
k
▁conduct
▁traffic
▁unless
▁consignment
▁approach
▁software
▁quantity
▁Internet
▁story
▁educational
▁nutritional
▁compliance
▁did
▁land
▁temperature
▁3.
▁candidate
▁job
uch
▁publication
▁even
▁2.
▁hand
▁whil
▁creative
▁families
▁feedback
▁pressure
▁extent
▁above
▁milk
▁facilities
▁medical
▁see
▁every
▁shapes
▁sample
▁issue
▁contribution
▁communication
▁model
▁response
▁sentence
▁speak
are
h
tic
▁communities
▁daily
▁coordination
▁Director
▁Arabic
▁electronic
▁published
▁received
▁institutions
▁now
▁arguments
▁stated
▁V
▁informed
▁Office
▁=
▁en
▁agreement
▁cultures
ext
▁Fund
...
▁recall
▁con
▁feed
▁H
▁fat
▁(4)
';
▁retail
▁musical
▁Education
▁supply
likely
▁accurately
▁money
▁history
).
▁&
▁businesses
▁enable
▁Any
▁involv
▁regarding
▁proposal
▁views
▁surface
▁think
▁internal
▁u
▁+
of
▁suggest
▁diversity
▁otherwise
▁refer
▁scope
▁stories
▁clearly
▁Unit
▁EMU
▁Legal
▁reach
▁origin
(3)
▁Board
▁limits
▁contrast
ect
▁matter
▁check
▁formal
▁Where
▁payment
On
▁regulatory
▁property
▁especial
▁creation
▁crisis
▁religious
based
u
▁rice
▁launched
▁efficient
▁English
▁covered
kg
▁drama
▁consequences
▁feelings
▁colour
▁shape
▁character
▁mean
▁today
▁consist
▁N
▁cannot
▁behaviour
▁agent
▁w
▁carbon
▁interests
▁di
▁Executive
▁presence
▁summarise
▁technologies
▁Other
▁suitable
▁practical
▁agricultural
▁22
▁implementing
▁fully
▁civil
▁jobs
▁go
up
▁aims
▁target
▁computer
▁consideration
▁2014
▁valid
▁promot
M
▁consult
▁Me
▁private
▁Agency
▁September
▁restoration
▁Prime
▁calculate
/100
▁reactions
▁All
▁concerned
il
ted
▁facilitate
▁relative
▁circuit
▁Service
▁Dr
est
▁January
▁blood
▁uses
▁March
▁participation
▁ensuring
▁nutrition
▁hair
▁amongst
▁Studies
▁awareness
▁NGOs
▁encourage
▁obtained
▁Information
▁"1.
▁steps
▁particularly
▁mobil
▁samples
▁al
To
▁inter
▁Articles
▁21
▁piece
▁objective
▁career
▁get
▁angle
▁modern
▁critical
▁prejudice
▁Foundation
▁dialogue
▁companies
▁sustainability
▁sampling
▁illegal
▁strategies
▁because
▁University
▁confidently
▁absence
▁citizens
▁represent
▁performed
▁angles
▁listening
▁implement
▁comment
▁/
ry
▁balance
▁opportunit
▁submitted
▁MSA
▁labelling
▁someone
▁implications
▁traditions
▁him
▁"15
▁genres
▁indicate
▁detailed
(1)
▁When
▁build
▁causes
▁Centre
▁individuals
▁her
▁installation
▁voice
▁diet
▁statement
▁drink
▁charge
▁word
▁powers
▁How
Th
▁experiment
▁heritage
▁contravention
▁species
▁however
▁conference
ng
▁confidence
▁volume
▁appointment
▁26
▁back
▁increased
time
▁mental
▁paid
▁grow
▁residues
budgetary
▁An
▁28
for
3
▁involve
▁performances
▁requires
▁position
▁demand
▁email
▁weight
▁reduction
la
▁sport
▁Embassy
▁attention
directly
▁December
▁advice
▁analytical
▁arts
▁selection
▁FOR
▁distribution
▁goods
Through
▁restrictions
0]
▁meat
▁heat
▁defined
▁divers
);
▁medicines
▁pieces
▁offer
▁You
▁Protecti
▁known
▁sequence
▁gender
▁"2.
▁developments
▁pesticide
▁Work
▁grade
▁amend
▁source
▁regulation
▁2012
▁professional
▁leisure
▁behalf
▁technological
▁introduction
▁hygiene
▁controller
▁que
▁identified
▁expected
▁Section
▁establishment
responsibilities
▁beliefs
F
▁solutions
▁connected
▁"3.
▁th
▁directions
▁weeks
tion
▁matters
▁users
%
▁enjoy
▁performing
▁containing
▁join
▁detail
▁themes
▁lives
▁2008
▁task
▁markets
▁film
▁teacher
▁course
▁forward
▁submit
um
▁travel
▁strong
▁29
▁guidance
▁modified
▁possession
▁mathematical
▁Day
▁Mediterranean
▁million
▁God
▁Secretary
▁Digital
▁lack
▁drugs
▁generally
▁monitoring
▁electrical
▁turn
▁close
▁styles
G
▁ten
▁normal
▁far
▁Subj
▁party
▁Services
▁concepts
dditional
▁instrument
▁customer
▁4.
▁video
▁Co
▁medicine
EU
▁fair
▁depend
▁notation
▁recent
▁themselves
▁possibility
▁2002
▁Data
United
▁Ordinance
▁Market
▁sea
é
▁exchange
▁medium
▁Management
▁appear
▁attend
▁conclusions
▁fractions
▁pets
▁attended
▁2006
ally
▁advantages
▁recommendations
▁namely
▁generate
▁units
life
▁officers
▁currently
p
▁languages
▁determined
speaking
▁teachers
▁proposals
border
▁fundamental
▁acting
▁To
H
▁acids
▁If
'.
▁Loca
▁Provide
▁expenditure
1
▁sense
▁lifestyle
▁operator
▁offence
▁Home
▁Stock
▁manufacture
▁income
ten
▁r
▁adapt
▁manage
▁via
▁complete
▁approved
▁electricity
▁manufacturing
▁dietary
▁proceedings
▁applied
▁skin
L
▁operational
▁June
▁trees
▁rain
▁learners
▁speed
▁reports
▁Chapter
▁introduce
▁achieved
▁letters
ine
▁models
Whil
mt
.'
ting
▁infants
▁network
▁capital
▁Councils
▁pursuan
▁commitment
▁classroom
▁principle
▁add
▁collaborati
▁us
▁centre
▁o
out
▁deem
▁adequate
▁May
▁competition
▁socio
▁much
▁criminal
▁adoption
▁arrangements
▁circumstances
▁extended
▁voluntar
▁items
▁manufactured
▁ecoGozo
▁topics
▁2015
▁cleaning
▁contained
▁addressed
▁roles
if
▁fund
▁regular
▁Economic
▁choice
▁clean
▁want
▁27
ty
▁composition
▁ground
▁accompani
▁World
▁Italy
▁entitled
▁consolidation
▁frequency
▁removal
▁duties
▁prescribed
▁longer
▁integration
▁democratic
▁changing
▁commercial
▁messages
▁reforms
▁ATM
▁investigations
▁visited
▁follows
▁face
▁She
▁ability
▁discussions
▁5.
▁equivalent
▁letter
▁2013
▁week
▁Affairs
▁maintenance
▁previous
▁staff
▁pollution
▁applies
▁permitted
▁lines
▁outside
▁emergency
▁j
▁Human
▁fixed
▁contemporary
▁supporting
▁[
▁specifications
▁separate
▁higher
▁geographical
▁emissions
▁peers
▁2002/
▁later
▁diagrams
▁gluten
▁Mon
▁multi
▁Environmental
▁annual
▁nutrients
▁networks
making
Where
▁Consul
▁facts
▁tests
▁requests
▁2020
▁Environment
▁serve
▁maintain
▁representation
▁School
▁bring
▁residue
▁evaluation
▁There
▁operation
ir
▁mind
▁LEVEL
▁storage
▁terminology
▁innovative
▁Republic
▁itself
▁reducing
▁entry
▁speaking
▁Italian
▁November
▁just
▁collaborate
▁central
▁23
▁front
▁regional
▁organic
▁except
▁below
▁ICT
With
N
▁equations
ance
6
▁operations
▁Code
▁operators
72
▁associate
▁move
▁sounds
ant
▁participat
"""
▁deal
▁debate
▁fruit
▁strengthen
▁occasion
▁proportion
▁interpretation
▁instance
de
▁ma
U
▁relevance
▁Speaker
▁welfare
▁child
▁exhibition
▁abroad
▁committed
▁mediator
▁conventions
▁doctor
▁sustain
▁describing
▁derived
First
▁stock
▁don
▁completed
▁vehicles
▁perfect
▁financing
▁introduced
▁Civi
▁balanced
▁tax
▁affected
▁VI
▁funds
▁budget
▁tell
▁IN
ory
line
▁testing
▁Do
gov
▁lighting
▁referr
▁preparation
▁certificate
work
Dur
▁challenge
▁direction
▁alcohol
▁alternative
▁bi
▁man
▁mediation
Article
▁advertising
▁agreed
▁April
▁reasonable
▁transition
▁Broadcast
▁fresh
▁"17
▁along
▁innovation
▁vegetables
▁"13
▁symbols
ta
▁ingredients
▁artist
▁marketing
▁sent
▁artists
▁ones
▁funding
coming
▁thinking
temporary
including
▁pesticides
▁receive
▁represents
0%
▁convey
▁classif
Y
ised
▁Plan
▁movements
▁Department
▁column
▁Action
▁simulant
▁holiday
▁conversation
▁freedom
▁style
▁declaration
5
ur
ww
▁Euro
▁Dep
▁ratio
▁estimate
que
▁2003
▁return
▁provider
▁difficult
▁enter
▁names
▁prior
▁geometry
▁Technology
▁fashion
▁categories
▁factual
▁consent
▁pronouns
▁acceptable
▁Vitamin
▁creating
▁training
▁effectiveness
▁specifically
▁"4.
▁expenses
▁elected
▁copy
▁el
▁SES
▁br
(4)
▁length
▁selected
v
▁exceeding
▁charges
▁computers
▁fields
Different
▁cover
▁vote
▁Non
▁industrial
▁plural
▁pay
▁2011
▁iron
▁program
▁notice
▁flow
▁science
▁unit
▁crime
▁investigation
▁MRL
▁package
8
▁2005
▁union
ra
▁2007
▁square
▁location
▁draft
▁dates
▁2004
▁plaster
▁periods
▁confident
▁grant
5%
ism
▁mass
▁status
▁Commonwealth
▁beyond
▁concentration
▁unique
▁similarities
▁cooperation
▁competitiveness
▁Kikku
▁French
▁rural
▁Communication
▁treated
▁structural
▁hours
▁delegated
▁formula
R
▁Islands
▁"16
▁Application
▁New
▁pro
▁aimed
▁improvise
ose
ought
▁amending
▁plans
▁occasions
▁differentiate
▁broad
▁severa
▁near
▁orally
▁fall
iv
nd
▁With
▁du
▁coming
el
▁artisan
▁citizen
▁accept
▁fish
▁representative
▁nutrient
▁stage
ish
▁renewable
▁greate
be
▁web
▁deliver
her
▁lower
▁saving
▁translate
▁states
▁proper
▁external
▁scrutiny
▁Justice
▁literature
▁packaging
▁death
▁genetically
▁challenging
▁telephone
▁fluently
▁strategy
▁wishes
▁satisfaction
▁domestic
▁contamination
▁subarticle
▁Dur
▁block
▁heard
▁promotion
▁confirm
▁collected
▁emotions
▁2009
▁strengths
▁inclusion
▁obligations
▁parents
▁meant
▁plot
ities
▁Scale
▁dynamics
▁books
▁laying
▁connections
▁car
▁graphs
▁alternatives
▁providers
etary
▁shown
▁50
it
▁offers
=
▁launch
j
other
▁changed
essential
ite
................
▁dis
▁tenses
▁paragraphs
ological
▁radio
At
▁once
un
▁(5)
ist
Hav
▁favour
▁argument
▁notification
▁liquid
▁household
▁message
uty
?'
▁input
▁complement
▁cycle
▁met
ful
▁extend
▁immediate
▁violence
▁Earth
▁harmful
▁conservation
▁series
▁gain
▁parallel
▁difficulties
▁title
▁He
▁ecological
▁improving
▁Group
▁generic
▁justice
▁appeal
▁immediately
▁Official
▁sodium
▁George
▁locality
▁nouns
▁integrated
▁poems
▁Water
▁findings
▁goals
▁placing
▁inclusive
▁partners
▁dislikes
▁valleys
▁lot
▁disadvantages
▁workers
▁import
▁differ
O
▁please
▁prepared
▁representatives
▁certificates
▁reduced
▁likes
▁celebrate
▁observe
▁love
▁supported
▁amounts
ual
▁section
▁dialect
▁label
▁improvement
▁division
▁broadcast
▁Jo
▁monitor
going
▁sum
▁graph
▁predict
▁ca
▁schemes
▁bodies
▁quantities
▁television
▁governance
▁kJ
▁legislative
ts
▁always
▁yet
▁something
▁spoken
▁slow
▁qualities
▁roaming
▁Victoria
▁distributed
▁engineering
▁Aid
▁mi
▁granted
▁Force
▁duty
▁accounts
▁accordingly
▁finances
he
▁electric
ew
▁former
▁deep
▁savings
▁Administrati
▁grounds
ily
▁factor
▁Loc
▁fit
▁v
...,
▁wall
isation
ent
▁great
▁drawings
V
▁registers
When
▁invite
▁visits
though
▁extract
▁derogation
▁Christian
▁happen
▁restaurant
▁receipt
▁lay
▁reform
▁On
▁connection
▁wear
▁31
▁month
not
▁Directives
▁stand
▁medicin
▁ex
▁6.
▁se
▁brief
▁emotional
▁decide
▁independent
▁Spanish
▁Conference
▁grammar
▁societies
▁supervision
▁category
▁disposal
▁resolution
▁justify
▁concluded
ental
▁Society
▁poetry
▁wind
▁prepositions
▁¿
▁delay
▁distance
▁pictures
▁calculations
▁"18
▁undertaken
▁observed
na
▁early
▁discussed
▁filled
▁banking
▁offices
▁options
▁choose
▁correctly
▁led
▁verb
▁highlight
▁restrict
hrs
▁banks
▁drawn
▁gas
▁organisms
(7)
▁transform
▁send
▁substitute
▁coordinate
▁starting
▁idea
▁ml
▁mandator
▁sole
▁spaces
one
▁settings
▁formed
▁then
li
▁campaign
▁Bank
▁decimal
▁mechanism
▁compound
▁component
▁Law
▁cut
qualified
▁leave
▁off
▁informal
▁round
▁San
▁24
▁Journal
▁Mechanism
▁Treaties
▁vulnerable
▁recreation
▁subsequent
▁rubble
▁kcal
▁accurate
▁weaknesses
▁subparagraph
▁stakeholders
▁VII
▁envisaged
▁half
▁stability
▁wellbeing
▁91/414/
▁built
▁composed
▁theatre
▁constitute
▁corresponding
▁safely
▁accepted
▁los
________________
ure
▁raw
▁meaningful
▁sharing
▁youths
▁news
do
▁theme
▁walls
▁Date
▁requested
▁house
▁joint
lease
▁personally
▁mov
orary
▁oil
mg
▁hold
▁relations
▁here
▁Al
▁useful
GO
▁transfer
▁card
▁2010
▁CAS
▁interview
▁perspective
▁resource
▁destination
▁IV
▁root
▁X
▁solution
▁officer
▁straight
Â
▁Employment
▁College
▁Association
▁surveillance
▁bullying
▁duration
▁priorities
Therefore
▁eligible
▁guilty
ANS
q
▁popular
▁board
After
▁varieties
▁paper
▁guidelines
▁2030
▁airspace
▁company
▁trends
#
VAT
▁respective
▁sever
▁discrimination
▁speakers
▁adaptation
▁Art
▁hazards
▁fuels
▁marked
mperfect
▁songs
▁illustrate
▁match
▁ever
▁indicated
▁sessions
▁salts
▁administrati
▁regions
id
▁financed
4
▁controls
▁judgement
▁customers
AL
▁described
▁One
▁statements
by
▁reported
▁responses
▁2000
▁nor
▁links
▁websites
water
Qu
(5)
▁rhythm
▁attract
▁bill
after
▁adjustment
▁determination
▁percentage
▁book
▁specialist
▁plastics
▁reaction
▁combination
▁We
▁search
▁connect
▁degree
▁concrete
▁biodiversity
▁dictionary
▁enough
▁unemployment
▁agriculture
▁Company
▁territory
▁studied
▁latest
▁instructed
▁cooking
ative
▁→
▁Energy
▁singular
▁tablets
▁personnel
▁Research
▁vocational
▁attached
▁figures
▁competitive
▁prevention
▁conventional
▁planning
▁advanced
▁Business
▁imperative
▁demonstrat
Physical
▁guests
▁excellent
▁dried
▁additives
▁significantly
ne
▁old
▁attitudes
▁More
▁Care
▁games
▁experts
▁Lisbon
▁1,
▁charged
▁comparisons
▁acknowledge
▁qualifications
▁propose
▁success
▁Arts
▁scenes
▁comments
▁cons
▁professionals
▁raise
Directive
▁Ma
▁trans
▁prose
▁K
▁influences
▁prices
▁lists
▁h
▁export
▁"11
▁host
▁hear
▁tourist
authorised
▁fa
nt
▁concerns
side
▁shows
▁collect
▁store
▁PA
▁guarantee
▁dynamic
▁pattern
▁outcome
▁circle
▁seek
▁conflict
▁complaint
▁U
▁licence
▁file
▁8.
▁withdraw
▁react
▁2010-2012
▁sufficient
μ
▁Contact
▁macro
▁kept
▁Presidency
▁probability
▁sovereign
▁constant
▁Russian
▁Church
▁collection
▁cash
▁tone
▁atmosphere
▁entity
▁Financial
▁discussing
▁examine
▁accompany
ok
▁argue
▁Cole
▁billion
▁adults
▁Organisations
z
▁visitors
vergence
▁measurements
▁EN
▁vi
▁farming
▁pass
▁pack
▁signs
▁initial
▁Brussels
▁At
▁tourists
▁whom
▁Ta
▁consistent
▁profit
▁perspectives
▁38
▁"4
▁stages
▁phone
day
ified
vous
Regulation
▁actual
▁vice
▁nucle
▁count
▁playing
▁doing
▁followed
▁descriptions
ial
rising
▁addressing
▁functional
Personal
free
▁System
▁audiences
▁feature
ICE
▁y
▁sort
▁accounting
▁Shape
part
▁islands
▁Convention
▁garden
▁Number
▁routine
▁phase
▁eye
▁mineral
▁scene
▁session
thus
▁narrative
▁Officer
▁Design
▁37
▁try
▁topic
▁expand
▁expression
ia
▁mention
▁fil
▁coast
▁February
▁Framework
▁Valletta
▁poverty
▁stipulate
GHG
▁adverbs
▁laboratory
▁birth
▁completion
Moreover
▁panels
▁revision
▁'¿
▁TFEU
▁Superintenden
▁Policy
▁gestures
▁limitations
▁Materials
▁withdrawn
▁independently
▁gases
▁graphical
mail
age
▁forces
▁delivery
▁Statement
▁recently
▁irregular
▁police
▁"19
▁creatively
▁database
▁EIA
▁harm
▁talking
▁triangles
▁delivered
▁Kuwait
▁wish
▁TV
pending
▁cells
▁Berlin
▁reached
▁è
▁base
▁signed
2002
▁modes
▁feeding
▁offences
▁lifestyles
no
▁impacts
▁double
▁payments
▁allowing
J
Other
▁conditional
▁OR
Member
▁calls
▁treatments
level
specific
year
Social
▁buildings
All
▁recognised
ED
▁Su
▁faith
ions
ton
▁update
ti
▁administrat
▁wood
▁im
▁intervention
▁permit
being
▁uniform
▁Ms
▁disease
▁ingredient
▁supplement
▁solid
▁De
▁poster
▁definition
▁symbol
sis
▁aesthetic
▁kind
▁graphic
▁warrant
ated
▁locate
▁fine
▁spread
▁authorise
▁collaborative
▁IMF
▁burden
▁availability
▁1999/468/
▁premises
▁resistance
Furthermore
▁Tourism
▁extensive
▁transmission
▁summary
▁suggestions
▁net
▁dedicated
▁measuring
▁calculator
ach
▁approval
▁voting
▁Tribunal
▁successful
▁audio
▁released
▁bonds
▁thoughts
▁engag
▁user
▁specify
▁GDP
▁binding
▁permanent
▁remove
▁unable
▁designers
▁lessons
▁removed
▁serving
▁youth
▁harmonised
▁eggs
ja
▁abilities
▁strict
▁condition
▁actively
rs
▁notify
?,
▁revenues
▁Procedure
▁adapted
▁religions
▁highly
use
▁habitats
▁marking
▁images
▁amendments
▁format
▁dealing
▁shared
▁therein
▁eating
▁manufacturer
▁outcomes
▁reasoned
ha
▁roots
▁continued
▁fuq
▁strengthening
▁maintaining
▁le
▁tool
▁improved
▁replac
▁smart
▁mutual
ma
▁por
ble
▁glass
▁side
▁una
▁formation
▁soon
istic
▁functioning
with
,000
▁compar
▁presenting
Malta
▁introduc
0
▁reflecting
.1
control
▁award
thing
▁emerg
▁conferr
▁step
▁J
(6)
▁purchase
▁sex
nimal
▁skill
▁hotel
▁Project
▁equation
▁interaction
2/
▁finance
▁infrastructure
▁7.
▁sale
▁version
▁station
▁32
Don
▁stress
▁village
cy
▁concert
▁constructive
▁genetic
▁scenario
▁significance
▁extension
▁clarify
▁wrong
▁Independence
▁dioxide
▁http
▁Qala
▁grammatical
▁descriptive
▁embellish
▁foster
▁membership
▁reasonably
▁Nations
▁Anniversary
▁everyone
▁interactive
▁accountability
▁precise
▁competence
▁entities
▁Palestine
▁intend
▁localities
▁Yes
▁invitation
▁Resources
▁fragmentation
▁chosen
▁urgency
▁documentation
▁Marsalforn
▁preferences
▁roof
▁15.
▁proof
▁France
▁barriers
▁Head
▁closing
▁convers
ian
▁motion
▁installed
://
▁aviation
▁controlled
▁classes
ef
com
▁Products
ustainable
▁loss
▁notes
kull
ES
▁interactions
▁stations
▁code
▁ordina
▁foresee
most
▁verbal
58
ence
ors
▁collaborat
▁Not
▁65
ability
An
▁films
▁courses
▁instances
▁attractive
▁hard
▁ready
▁Others
▁Process
▁rates
▁mon
io
▁organis
enior
such
á
▁fill
da
▁Courts
health
▁receiv
▁takes
Minister
LL
<
island
Mr
▁Second
We
▁mono
etwork
▁profession
▁bear
▁bio
▁EUR
▁background
▁examination
▁gather
▁chain
▁comparison
▁multiple
▁habitat
▁amendment
▁requirement
▁qualification
▁consequence
▁credit
▁oral
▁ra
There
▁image
▁recommendation
▁detect
co
▁appoint
▁hundred
▁batch
▁HEALTH
▁Street
▁accuracy
▁aforesaid
▁assault
▁imprisonment
▁Family
▁understood
▁democracy
▁Hospital
▁salt
▁left
▁hereunder
▁encounter
▁identification
▁fictional
▁reception
▁radiation
▁Inspector
▁disability
▁easily
▁transferred
▁Stability
▁participants
▁aspirations
▁scientists
▁incurred
▁Mathematics
▁green
▁submission
▁holder
▁run
▁Crime
▁MALTA
▁consonant
▁voltage
▁earth
▁workplace
▁continuous
▁integrate
▁evaluating
▁heart
▁Foodstuffs
▁military
et
▁handling
▁exploit
▁va
▁whereby
▁trial
▁miss
▁evolution
▁Media
▁EASA
▁statistics
▁constituents
▁convert
▁path
▁residents
▁filling
▁shops
▁sets
▁bank
▁platforms
▁vary
▁student
▁List
▁Ke
▁Band
▁metals
▁Report
▁surroundings
▁des
▁pocket
▁Stand
▁sold
▁agree
▁mix
ro
▁rise
▁protected
▁feeling
▁households
▁offering
▁fast
▁assessed
▁victim
▁called
▁notices
▁60
▁ago
▁corrected
▁download
▁locally
▁Tri
▁originat
▁x
mi
▁Whil
int
▁fats
▁(6)
▁considerations
▁checks
ere
▁Mar
▁created
▁Committees
▁expir
less
30
ito
▁Who
▁pose
▁300
à
les
Bt
▁ne
etic
acquis
▁map
ably
off
▁sensitive
ke
▁presentations
Me
▁fac
ible
▁pa
▁Pr
▁architectur
▁die
▁fee
pite
▁safeguard
▁delegation
iStock
▁Programme
▁mood
▁brick
▁diagram
▁vehicle
▁religion
▁break
La
ter
▁SMS
▁restriction
▁drug
▁vitamin
▁(1),
▁surrounding
▁dry
▁room
▁perceive
▁formulate
Follow
▁emphasis
▁thousand
▁illness
▁cable
ave
▁Azzopardi
▁Institute
▁Permanent
▁Chamber
▁erosion
@
▁compulsory
▁behind
▁navigation
▁quadratic
▁suitability
▁pictorial
▁intellectual
▁Drama
▁tobacco
▁dishes
▁adverse
▁enforcement
▁travelling
▁unknown
▁globalisation
▁academic
▁Six
▁imbalances
▁principal
▁earlier
▁verify
▁farmers
▁discover
▁majority
▁symmetry
▁SGP
▁Climate
▁recommended
▁habits
▁reality
▁transportation
▁consumed
▁crop
▁derive
Scientific
▁trust
▁indication
▁Standards
▁output
▁detected
▁instrumental
▁Consultation
▁combined
▁Portugal
20,
▁threats
▁subscribe
▁proved
▁Science
▁devise
▁verbally
▁spending
▁Culture
7
▁valuable
▁maps
▁landscape
▁eight
▁offered
▁ongoing
▁beginn
▁algebraic
▁shopping
rmal
▁holding
▁diseases
▁35
ise
▁city
▁judge
▁sales
▁screen
▁complaints
▁institution
▁allowed
▁sides
ex
▁physically
▁arise
▁Be
▁45
▁improvements
▁note
▁conversations
▁k
▁humans
▁simulate
▁Special
▁Categor
▁cars
▁presents
AN
▁positions
▁US
▁je
▁careers
He
▁mark
▁stabilis
▁populations
▁chemicals
▁par
▁bar
▁drive
▁Don
▁guide
▁exception
▁...
▁photo
26
▁red
▁para
▁enhanc
▁sp
▁Ho
tory
▁diplomat
standing
fu
®
▁seal
▁Con
▁der
▁display
▁powder
▁booklet
▁usage
▁foodstuff
▁advantage
▁valley
▁vegetable
▁directive
▁aspect
▁expert
band
▁achiev
▁cell
▁generation
▁indicat
▁adjust
.4
▁́
▁continu
▁spend
▁14(2)
TION
che
▁rapid
▁undertake
tinent
der
▁solar
▁constru
α
▁Festival
▁Requirements
▁Survey
▁WITH
▁instead
▁penalty
▁poultry
▁punctuation

▁dictionaries
▁hobbies
▁Comino
▁residence
▁vowel
▁integrity
▁himself
▁purity
▁Paul
▁privacy
▁rehearsal
▁purchasing
▁intonation
▁sometimes
▁vacant
▁approximation
▁continuity
▁PPE
▁supplementary
▁memory
▁vital
▁assurance
▁usually
▁edition
▁Sky
▁enjoyment
▁white
▁cereal
▁satisfactory
▁appliances
▁recovery
▁simplify
▁literacy
▁urgent
▁finished
▁smoking
▁Friday
▁century
▁Medical
▁solidarity
▁Wied
▁comparative
▁commands
▁Feed
▁HA
▁Roam
▁scripts
08.
▁equality
▁North
▁Name
▁fairness
▁economies
▁hospital
▁divided
▁located
▁sitting
▁clothing
▁tolerance
▁nationality
▁reservoirs
▁High
▁buying
▁Green
▁stay
▁insight
▁waters
▁thanks
▁maintained
▁departments
▁closed
▁consistency
▁reflections
▁Germany
▁INTERVIEWER
▁employed
▁represented
▁managed
▁measured
red
▁biologic
▁solving
▁conflicts
▁"14
▁cruci
▁fees
▁joints
▁render
▁compounds
▁learnt
▁environments
▁environmentally
▁mill
▁lawful
▁caring
ll
▁holidays
▁Per
▁preparations
ri
▁interpretations
▁bad
je
actical
▁thank
▁las
me
ol
▁"25
set
▁colours
W
▁secure
nother
▁18-
▁meetings
▁validate
▁rest
9
▁plays
keeping
▁imagine
product
▁mis
▁applicants
inary
European
▁designate
▁expose
SF
▁author
▁semi
▁associat
ul
▁resident
▁till
▁Grow
▁Use
▁fe
lo
▁arm
▁lo
2,
▁Ch
▁Hav
ating
▁determin
▁40
▁Chi
▁region
MENT
▁footprint
▁partnership
▁conviction
▁Religion
▁committee
▁minor
▁:
▁technique
▁revenue
▁menu
▁belief
▁game
▁ideal
▁damage
▁council
▁dislike
▁ba
▁Bill
his
rimary
▁manag
▁Protect
▁farm
(8)
▁Island
▁layer
▁articulate
▁criteri
▁America
▁Tunisia
▁pitch
▁micro
▁ages
ther
▁bacteria
▁India
▁Pretér
▁Heritage
▁aircraft
▁flexible
▁industries
▁irrigation
▁nitrogen
▁salmonella
▁ambitious
▁density
▁oxygen
▁holistic
▁alphabet
▁Opposition
▁quick
▁ensemble
▁petfood
▁REGULATION
▁possibilities
▁connectors
▁steel
▁China
▁birthday
xi
▁Resolution
▁mortar
▁latter
▁Electoral
▁exposure
ps
▁Strategy
▁welcome
▁again
▁carefully
▁never
▁highest
▁witnesses
▁Preca
▁else
▁Register
▁beverages
▁linguistic
▁serious
▁August
▁informative
▁stronger
▁particles
▁accessible
1/
▁successfully
▁appreciation
▁preparing
▁cutting
▁trading
▁respectively
▁wara
am
▁properly
▁abuse
▁Young
▁cream
▁welcomed
▁agencies
▁Fourth
▁possessive
▁install
▁Medicines
▁planned
▁communicating
▁gathered
▁minutes
▁realistic
▁analyses
▁lawyers
grams
▁mechanical
▁justified
▁Hague
▁jew
▁Measures
▁sheets
▁employees
▁numerical
▁prove
▁intentions
▁recognis
▁seasons
ecutive
▁alia
▁explanations
▁channels
▁programming
▁SML
▁containers
▁encouraged
▁codes
▁versa
▁oblige
▁ver
▁3)
▁away
▁couple
▁herein
▁covering
▁files
▁2(
▁secular
▁mechanisms
▁ratios
▁average
▁leaves
▁divisions
▁Dar
ATION
▁simulants
▁representing
▁houses
▁notion
▁commitments
▁photos
▁inverse
▁Sub
▁LEARN
▁newly
...?
▁poly
▁gra
10
▁apart
▁Funds
▁execute
▁communications
lingual
▁officials
▁War
▁brand
▁Some
▁compris
▁tables
▁investments
▁.
▁13.
▁Ca
▁copie
▁es
▁proteins
▁Sant
▁178
NEX
▁Catholic
raising
▁"5.
▁strategi
▁Foods
▁elector
▁governments
efore
▁Ar
Annex
▁33
▁occur
let
ential
leading
friendly
▁exclud
paid
▁______________
▁Se
No
za
▁forecast
can
▁correspond
▁ending
▁seat
▁oblig
▁Region
▁Auditor
▁rule
▁fibre
▁Notice
▁Leader
▁danger
▁department
▁sugar
▁partner
▁achievement
▁Garden
▁newspaper
▁Representative
▁che
▁developer
▁reflection
12
ni
▁Cultur
▁option
▁release
▁meanings
▁switch
▁combine
▁excess
NAME
▁396/2005
▁affairs
▁aggregate
▁aloud
▁pinyin
▁yesterday
SSION
▁currency
▁accredit
▁beneficial
▁smooth
▁ownership
▁straightforward
▁entrepreneurial
▁transposition
▁women
▁cellulose
▁critique
▁spectrum
▁depletion
▁outlook
▁creativity
▁Valley
▁settlement
▁clock
▁Assembly
▁Manager
▁conformity
▁entertainment
▁deleted
▁salary
▁separation
▁Master
▁monomer
▁Coca
▁polite
▁chance
▁reproduction
▁executive
▁lifelong
▁independence
▁hydrolysates
▁detection
▁underway
▁priority
▁empowered
Once
▁comprehensive
▁amino
▁exclusive
▁Press
▁carbohydrates
▁satisfied
▁882/2004
▁apprais
▁labelled
▁Freedom
▁Christmas
▁Fundamental
▁CAD
▁prescription
▁Agriculture
▁shift
▁grid
▁push
▁briefly
▁teaching
si
▁Conditions
▁greeting
▁repeal
▁63'
▁declared
▁accommodation
▁purchased
▁Third
▁minimise
▁2012.
▁variables
▁bias
▁tu
Cola
magnetic
▁Example
▁charts
▁Brit
▁selling
▁artefacts
▁male
▁adverts
▁Children
▁served
▁rich
▁foot
▁town
▁Only
▁generations
▁ha
ier
▁targeted
▁broadcasting
▁sun
IN
▁solids
▁practise
▁definitions
▁page
▁drafting
▁narratives
▁nets
nez
▁Bay
▁textiles
▁seen
▁transfers
▁Technic
▁recording
▁boards
32
▁journal
▁print
ON
▁renewables
▁reflective
▁squares
▁rational
zzjoni
▁eat
native
ver
▁0,5
▁discipline
▁AN
▁sing
▁UN
▁drinks
warded
date
▁80
▁lecture
▁Place
▁contributions
OR
▁evaluated
▁reinforce
▁Wh
▁tones
▁produc
▁opening
▁si
from
ture
▁regenerat
▁ist
human
▁Bi
▁press
▁PL
▁2,
.3
etails
vested
▁contracts
▁pas
▁interesting
▁su
▁200
▁courts
▁(2
▁BE
▁schedule
dm
▁mode
(1),
▁ho
▁9.
▁500
▁marketed
man
!
point
▁willing
о
▁Paris
▁gr
personal
ising
▁buy
pack
ga
.2
old
tourism
depth
▁poet
▁recogni
cal
92/
▁elections
▁master
▁ordered
▁ME
▁€
▁decrease
▁90
ality
▁46
▁practitioner
▁Year
▁choos
▁Product
▁profile
▁platform
▁pool
▁flight
One
▁attitude
▁error
▁floor
▁obligation
▁foundation
▁voter
EN
▁modify
interoperability
▁prohibit
▁revise
▁peer
▁rotation
▁shop
▁composit
▁acquire
▁trader
▁digit
▁supplie
▁wealth
vern
▁compass
▁cu
▁habe
kont
▁govern
▁tempo
­
▁216/2008
▁Agius
▁Bethlehem
▁Cittadella
▁Friggieri
▁Geography
▁Squad
▁Square
▁aktar
▁aluminium
▁explanatory
▁sensitivity
▁threshold
▁zinc
▁universal
▁constraints
▁hydrochloride
▁classmates
▁click
▁Declaration
▁expectations
oriented
▁sewage
▁marriage
▁178/2002
▁shelf
▁folk
▁saw
▁Century
▁flexibility
▁qualify
▁running
▁Assistant
▁automatically
▁female
▁dignity
▁oath
▁ECB
▁twenty
▁layout
▁horse
▁Two
▁distinction
▁liability
73
▁601
▁facial
▁logic
▁inspired
▁multiply
▁deadline
▁dependence
▁termination
▁nationalities
▁allocated
▁diary
▁administered
▁metres
▁Hall
▁senior
▁Investment
▁fire
▁compensation
▁Clerk
▁fitness
▁Guidelines
▁Drug
▁encouraging
▁modelling
▁polygons
▁noise
▁finishing
▁collective
▁imposed
rom
▁regularly
▁Change
▁existence
lying
▁hosted
▁coli
▁periodic
iro
▁reinforced
OP
▁transformation
/2005
▁Amend
▁score
▁cease
▁RF
▁defence
▁happened
▁zu
▁texture
▁borders
▁Power
▁2011/
▁sugars
▁smoke
▁Vienna
▁addresses
▁hearing
▁mid
qu
▁deepen
▁conducted
▁employer
ammont
▁routines
▁Programmes
▁fatt
98/
▁combinations
▁fishing
▁rehearse
articles
▁decimals
▁est
▁"8.
▁tested
▁treat
upervisor
▁core
▁Are
▁actors
vi
▁estimates
▁covers
▁pr
▁depends
▁depth
▁locations
ural
▁marks
▁wi
▁updat
▁experiments
▁reflected
▁minn
▁reductions
VI
▁Mari
IVE
ean
ka
▁ki
▁10.
▁1:
▁circuits
▁hands
▁tra
appropriate
▁candidates
▁retain
TE
▁scales
▁stone
▁gluco
▁band
▁prefer
▁planting
▁dramati
lic
lly
▁Person
▁exercises
▁carrie
▁opt
▁forum
▁mission
▁Global
ole
inimum
▁2017
per
▁52
mission
▁bid
ister
food
▁primar
any
▁tube
▁demonstrated
▁(*)
hereby
commerce
▁2010-2012.
tively
Je
Over
Today
▁CONS
correct
▁Cha
LN
ATM
annual
digit
▁39
sum
▁Cu
au
▁Present
She
▁celebrat
▁anti
▁1935/2004
28
ese
▁revers
▁contribut
bank
▁sell
▁incorporat
▁algebra
▁interact
▁fossil
▁failure
▁Relations
activity
▁Issue
▁fraction
▁magazine
00
board
▁strength
▁festival
▁advert
▁rhyme
▁client
▁hazard
▁artefact
▁recipe
▁explanation
▁triangle
▁conclusion
▁head
▁genre
▁accident
▁fulfil
▁planet
▁machine
▁virtue
▁pe
▁edit
land
▁administration
bstract
▁item
▁45(2)
▁warm
▁emission
▁channel
ake
have
ich
▁operate
▁intention
//
▁preserve
amous
▁publish
▁Uni
▁corrupt
▁systematic
▁peace
▁Euclid
▁Consolidate
▁Museum
▁QUESTION
▁bacterium
▁cubic
▁gaskets
▁idiomatic
▁photosynthesis
▁semana
▁unsatisfactory
▁Austria
▁EUROPE
▁cloud
▁fraud
▁genuin
▁unlawful
▁boundaries
▁mirror
▁Charter
▁Ireland
▁default
▁psychological
▁smell
▁Attard
▁Scheme
▁Position
▁History
▁copper
▁Child
▁symptoms
▁scalp
▁harmony
▁easy
▁ozone
▁decorative
▁copyright
▁beaches
▁preservation
▁exclusion
▁argumentative
▁recruitment
▁inauguration
più
▁satisfy
▁Oath
▁taught
▁acceleration
▁rehabilitation
▁unacceptable
▁black
▁Cross
▁bracket
▁"“
▁spoke
aceae
▁believe
▁endorse
▁Borg
▁2.2
▁oneself
▁realities
▁comparable
▁agri
▁alteration
▁excessive
▁importation
▁dissolved
▁engagement
▁subtract
▁suppliers
▁deployment
▁waves
▁Hotel
▁COMM
▁Ghajnsielem
▁"""(
▁portal
▁Hol
▁differently
▁strive
▁observations
▁born
▁super
▁Performing
▁reply
▁transmit
▁indirect
▁graphically
▁fail
▁36
▁prohibited
▁shocks
ding
▁sufficiently
ba
▁calcium
▁theories
▁feasts
▁RASFF
▁Midwife
▁Nutrition
▁Enterobacter
▁Technological
▁adequately
▁Sicily
▁allowances
▁demonstration
▁song
ngua
▁extraction
▁printed
owned
▁intolerant
oreign
▁Jew
▁mixed
▁EEA
Eco
mgħax
▁typical
▁Sta
▁warnings
▁patients
▁5(1)
▁organs
▁ethnic
▁singing
▁offal
▁90/
▁fear
▁vocal
▁recipes
▁SA
▁grain
▁profiles
▁voters
▁cater
▁globally
▁achievements
▁Card
▁1(
▁friend
▁disciplines
▁frequent
▁councils
▁occurs
▁crops
ARD
▁newspapers
▁replacement
▁Access
▁bearing
▁theft
▁bound
▁multiples
▁4,
▁regulate
▁varie
▁faithful
hing
▁kinds
▁°
▁distinct
▁51
▁breath
mming
▁dose
▁ESM
marine
6,
▁mal
consistent
▁gi
▁PE
▁influenced
Metal
heavy
.5
▁enhanced
▁%)
...............
▁Officers
▁notions
▁pronounce
▁Diploma
▁sections
▁liquids
▁mari
▁contributed
ue
▁cards
rd
▁evaluations
▁representations
▁wants
▁preventing
▁enrich
ware
▁writings
▁Natur
▁friendly
▁Economics
▁centres
▁wor
.”
▁rhythmic
▁po
characterisation
▁und
í
▁diets
▁à
lastic
ca
qa
▁Roman
exual
▁surfaces
▁fuel
AND
▁2001
▁eu
▁director
▁ensures
ire
▁employ
▁season
▁Through
ck
TIT
▁enforce
▁hall
250
▁operat
ring
▁3.1
right
▁Infant
▁Mi
▁feels
▁Sport
ff
mit
▁seven
▁Sie
▁ferr
▁assign
▁touch
▁border
▁rough
▁consultations
▁min
TS
▁frameworks
tive
Commission
sh
▁tw
▁Eko
▁homes
▁La
where
CE
withstand
om
go
_______________
wide
elve
▁Can
business
visual
Reference
▁ren
▁Att
lert
Second
familiar
▁Administrat
mentioned
known
paper
jiet
Chapter
ons
financed
ement
iva
low
▁ar
▁chron
▁advance
hi
ai
▁suspension
but
01/
apid
▁Ha
▁sweet
▁essay
▁disaster
▁calendar
ac
▁browser
signed
▁incident
▁greenhouse
▁ecosystem
▁tap
▁constituent
ather
▁pipe
▁clinic
▁composer
▁rock
▁RE
▁negotiation
▁egg
▁fl
nclusive
▁cloth
came
▁stain
▁Portug
▁tree
lectoral
▁organism
▁manager
▁spirit
▁leader
rija
▁textile
▁designing
▁divorce
▁70
▁fun
▁container
▁expect
▁suspend
▁extra
▁learner
fully
▁impose
▁sh
▁sketch
0°
▁deposit
▁split
Amendment
▁urban
‐
▁transparent
RLAH
ħruġ
≤
▁Cyprus
▁Economy
▁Language
▁Philharmonic
▁Principal
▁Procurator
▁Registry
▁Rundle
▁Semester
▁Thursday
▁absorption
▁announced
▁cabbage
▁combustion
▁jurisdiction
▁laboratories
▁registration
▁soluble
▁Partnership
▁passenger
▁fluency
▁landfill
▁Mallia
▁PSCD
▁SERVICES
▁portray
▁Club
▁zones
▁Western
▁decay
▁DNA
▁elsewhere
esteem
▁citizenship
▁expertise
▁transparency
▁velocity
▁2006/6
▁demographic
▁Villa
▁capabilities
xpressive
▁multimedia
▁expansion
▁unemployed
▁morning
▁recite
▁massage
▁sa
▁recourse
▁workshop
▁Judge
▁improvisation
▁traits
▁għal
necessarily
▁cumulative
▁boost
▁Production
▁Milk
▁Seven
▁mistakes
▁deviation
▁repetition
▁opposite
surgical
▁box
▁hence
▁Ethics
▁experimentation
dairy
▁peel
▁compasses
▁isometric
▁cities
▁payable
▁manual
▁transactions
▁Specific
▁derivatives
▁LIST
▁Superi
▁HSBC
▁möchte
▁airworthiness
▁leadership
▁Training
▁migrants
▁OTHER
▁true
nce
▁church
▁audiovisual
▁false
▁collaboratively
▁Paper
ster
▁mobility
▁litres
▁repeated
▁witness
▁|___|___|
ante
▁pastry
▁regulated
▁gap
▁truth
▁VIII
▁lab
▁advertisements
▁intake
▁wine
▁promotional
▁institute
▁washing
Dimensional
▁Account
▁lessen
▁save
▁expressive
▁4(1)
▁64
▁afforestation
▁annually
▁York
▁Vella
▁MEPA
▁graduate
▁difficulty
▁Marie
▁tackle
▁pairs
biotic
▁pace
▁alert
▁props
▁Clear
▁cancer
▁efficiently
▁warming
▁examined
▁substantial
Review
▁approaches
▁approximate
▁bien
▁personality
▁wage
▁customs
▁meals
▁beans
▁prohibition
▁thereto
▁desire
▁clients
▁accidents
▁"22
▁Function
▁Did
▁cooperate
▁strengthened
▁seeds
see
▁foundations
▁consul
▁mandate
▁dangers
▁train
▁Land
▁individually
▁layers
Option
...',
Final
1)
▁crafts
▁log
▁musician
▁Restor
TER
▁TA
▁breast
▁phases
▁linked
▁paying
▁empathis
▁reviewed
▁sign
▁conception
xternal
▁invest
▁heating
phenyl
▁atten
kin
light
▁appreciat
▁ID
▁Biolog
▁trace
▁crimes
▁packages
▁constructed
▁freedoms
▁pen
Give
▁FI
▁compositions
▁meal
▁partly
▁tat
▁executi
ern
е
ad
▁door
VE
▁arrange
▁voices
3,
▁progressive
pa
13
▁das
ling
▁READ
▁Na
▁divide
ized
▁stat
my
ki
▁facilitat
▁possess
non
ado
▁eliminate
▁Ensur
▁NOT
▁5000
elimina
▁frame
ith
Skola
▁reproduce
mm
▁designs
▁Centr
▁XI
▁answers
▁benefitt
▁incentive
yl
▁counter
led
log
which
▁reuse
You
eu
▁bis
▁reinforc
▁pea
▁Air
referred
ns
ilateral
ig
▁indirectly
▁Ministers
▁Le
▁propr
ficiency
Additional
▁exists
uring
ndemic
ET
▁tend
we
iving
▁weak
▁geometric
▁acknowledg
▁attain
▁participates
▁reporting
ollaboration
ill
▁ON
▁Univers
▁assemble
group
▁Cro
scale
ej
▁Arab
ía
▁biograph
volta
▁Gozitans
▁Outcomes
▁defin
▁0
▁dump
▁USE
Since
▁invit
▁suit
operation
verbal
▁track
Louis
:-
▁Car
Date
▁favor
▁IF
men
▁stem
PE
▁Hand
▁Es
blocking
▁42
compliance
▁da
Al
▁Y
ld
▁outing
▁WH
tell
▁Cyber
▁1924/2006
▁custom
▁too
▁Annu
▁pyramid
▁yield
▁punishment
▁prism
▁modification
▁resistor
▁prototype
▁inspection
▁adjective
▁Award
▁combin
▁warning
▁employee
▁measurement
▁parent
▁wire
▁Roadmap
▁Under
▁contacts
▁guest
▁patient
▁statistic
▁poem
hand
ertain
▁Building
ija
0,000
▁repeat
▁negotiate
mprovements
ietary
▁parliament
▁threaten
▁resin
▁41
▁element
▁Yo
▁goal
▁pull
▁geographic
▁...............
▁specification
▁restore
▁Bo
dispens
▁compose
Strasbourg
▁Aquilina
▁Assessment
▁DIRECTORATE
▁DVD
▁Düsseldorf
▁Eliquis
▁Gazette
▁Ghawdex
▁Mandarin
▁Mgarr
▁NUMBER
▁Saturday
▁chloride
▁curriculum
▁gradient
▁nowadays
▁synthesis
▁Kingdom
▁clarification
▁Authorities
▁methionine
▁obesity
▁pronunciation
▁surcharge
▁textbooks
▁Carmel
▁Citizenship
▁Exhibition
▁chairman
▁Identity
▁inequalities
▁Branch
▁Transformation
▁Meeting
▁equilibrium
▁endeavour
▁identities
▁legitimacy
▁prevail
▁hardware
▁potassium
▁shelter
▁acute
▁comfort
▁cannabis
▁elasticity
▁urbanisation
▁insurance
▁morphem
▁employability
▁imagination
▁digestion
▁oversight
▁commencement
▁inequality
▁automatic
▁honour
▁entire
▁uncertainty
▁weekend
▁summer
▁matri
▁Revolution
▁2006/1
▁redemption
▁remember
▁maturity
▁Planning
▁misuse
▁spouse
▁Licence
▁Waste
▁Vice
▁gravity
▁ASK
▁olive
▁stereotypes
▁travelled
▁inaugurated
▁utilised
▁prefix
▁allokat
▁height
▁Du
hidden
▁138
▁conditionality
▁beauty
▁Pact
▁pumps
▁Beit
▁Students
▁leaflets
▁USA
▁leaf
▁arrest
▁catalyst
THER
▁Lab
▁exploring
▁Mission
▁Order
▁sixty
▁sought
▁celebrations
▁harvesting
▁Protocol
▁Jesus
▁ga
▁Istanbul
▁2032
▁reliable
▁regulating
▁Introduction
▁detained
▁possibly
▁assets
▁fairer
▁producers
▁disagreement
▁molecules
▁injustice
▁rituals
▁investors
▁liable
▁coatings
▁intervals
▁dependent
▁auf
▁spelling
▁bo
▁shoes
alogue
▁acquired
▁ISP
▁cigarettes
▁Post
▁aerodromes
▁viewpoints
▁articulated
▁phrase
▁humanity
ups
▁People
▁Commerce
▁older
▁sanctions
▁domains
▁issuing
▁belonging
▁certification
а
nuts
▁moment
▁happy
▁1999
▁BY
ously
▁attributes
▁Easter
▁pillars
▁cents
▁treating
▁occupations
▁nurse
▁COM
▁players
▁attractions
▁jiġu
conceptions
▁5,
______________
▁His
▁procurement
issolution
▁fertilisers
▁Chemical
tensive
▁Mary
omestic
▁supplies
▁hot
▁negotiations
ot
▁enquire
▁speeches
bejn
▁ge
▁metabolite
▁machines
▁planets
▁mixing
▁pipes
▁GIPSA
▁correction
ashing
ien
▁arrive
▁maximis
mal
▁forecasts
▁undergo
Start
▁Tunis
hose
▁subscriber
▁(9)
reby
▁motive
▁ro
▁timeline
▁"27
.2004,
SE
▁rare
▁Station
▁Equipment
audi
▁positively
▁rooms
nniversary
▁authors
ning
▁ISO
▁phones
xt
▁Systems
arious
▁papers
▁47
tro
▁receipts
▁gains
▁Wir
▁compli
tin
rine
24
▁Wa
favourable
ess
mente
▁seed
em
▁powerful
▁trip
▁migrate
▁Every
▁"(2
▁turns
▁kn
▁relatives
▁integrat
▁physi
▁dispute
▁narrate
HIS
▁modal
▁id
▁dispers
▁"20
▁emails
7/
bringing
ġ
nes
▁jiġ
▁Din
▁mo
▁ageing
nic
ied
▁Violen
▁2008.
▁Plant
▁edge
▁cold
▁absen
Pi
▁educate
▁agreements
▁simpl
▁tr
▁pet
titude
K
▁though
▁Sa
▁records
▁war
01
▁_______________
Among
...';
▁qui
▁complie
cher
▁Go
▁electora
▁standardis
▁And
▁stor
▁strip
▁120
quality
ending
Art
▁56
▁Type
▁contaminat
▁top
▁simplifi
▁Regu
ned
pe
rary
è
▁revoke
▁insufficient
▁commit
▁del
);"
▁Learn
ilingual
▁2004/
ert
▁evolv
▁ser
ibility
tal
order
▁IS
▁tie
▁audit
▁Schedules
shall
20
▁assessments
▁2000/
II
solving
powered
ull
▁0,
cular
▁classifie
▁...'
▁chi
▁stop
information
▁Trans
-3
cosa
view
so
▁Ex
▁men
▁ein
law
▁MA
riminal
41/
▁te
active
back
service
public
/2006
ice
Maltese
▁fo
ENT
iġi
offerti
qui
GB
▁qu
▁bull
▁Er
ut
10%
▁preside
compliant
effective
eat
upgrade
▁Ten
taking
herein
Some
included
efficient
Scale
gluten
breast
Not
&
ESM
similar
centralised
saturat
normal
▁contextual
limited
▁afford
▁PO
▁2.1
ompetitiveness
five
▁inspect
▁praise
▁''
ph
▁Engineer
▁milli
▁dimension
gen
os
oli
▁Trade
elle
▁fis
Use
▁prayer
▁tariff
▁belong
ie
▁advocate
▁conjunction
▁PC
▁reservoir
▁lawyer
▁permission
▁Organisation
▁characteristic
▁calculation
▁25(2)
▁Tunisian
▁device
▁variable
▁expense
▁spot
▁58
▁association
▁attraction
▁assume
▁aerobic
▁becom
▁deficit
▁shampoo
▁cake
▁chord
▁tackl
▁painting
▁figur
▁AD
▁occupation
▁speaker
NE
▁attach
▁street
▁instruction
▁proceed
cluding
▁autonomous
▁imaginative
▁Music
▁metal
▁Ker
rinthia
я
Teżor
▁829/2007
▁ARTICLE
▁Agreement
▁BROADCAST
▁Cabinet
▁Excellenc
▁FORMTEXT
▁Juncker
▁MINERAL
▁Mifsud
▁Settembru
▁Volunt
▁alkenes
▁apparatus
▁coffee
▁convicted
▁cylinder
▁evaporation
▁feasible
▁folklore
▁journey
▁justifiabl
▁portfolio
▁prosecution
▁rainfall
▁sophisticat
▁tertiary
▁vessels
▁Literature
▁computing
▁kitchen
▁alkanes
▁cosmetic
▁detention
▁extreme
▁synthetic
▁mejor
▁oblique
▁District
▁parcel
▁Palace
▁pleasure
▁Warrant
▁friction
▁Reception
▁impossible
▁pencil
▁collision
▁accusative
▁clarity
▁Curriculum
▁Disease
▁fermentation
▁sacred
▁Marzu
▁Grech
▁traceability
▁Carinthia
▁Europol
▁jewellery
▁Sunday
▁penalties
▁café
▁degradation
▁Road
▁entrance
▁osmo
▁circulation
ONMENT
▁responsibly
▁parameters
▁subsidiarity
LIA
▁procurator
▁minorities
▁queries
▁petrol
▁telecom
▁Theatre
▁Launch
▁undergone
▁criticism
▁crew
▁machinery
▁PRODUC
▁veter
▁cohesion
▁furni
▁melody
▁PAR
▁unwell
▁suffixes
▁PCB
▁GEN
▁personification
▁imagery
▁ethnicity
▁middle
▁honesty
▁acceptance
▁ceremony
▁proportionality
▁phonetic
▁doubt
▁minority
prezz
▁Quality
▁deleting
▁assembly
▁prominent
▁SHO
▁1991
▁ETS
▁inadequate
▁standardisation
▁teamwork
Sannat
▁interference
▁Time
▁recipients
▁32(1)
▁conductor
▁healthcare
▁carcases
▁overcome
CODE
▁elderly
▁inserted
▁salon
▁Physics
▁85/
▁clothes
▁abbreviation
▁mathematics
Original
▁reveal
car
▁completing
▁courage
▁classical
▁kits
▁compression
▁bisector
▁ruler
▁sweeten
▁preceding
▁similarity
▁ANSPs
▁earthquakes
▁minimal
▁starch
▁forth
▁enterprises
▁crises
▁foreigners
▁SMEs
▁dossier
▁John
▁UK
▁cognitive
▁Ħ
▁verification
▁Luxembourg
▁singers
▁visible
▁Set
▁Security
▁Team
▁pursue
▁día
▁artisanship
▁Institutions
▁observing
▁subtraction
▁Risks
▁threatened
▁pH
▁ACT
▁infections
▁visitor
▁muscles
▁Di
▁bacterial
▁recognize
sumptions
▁suspended
▁salad
▁Lot
▁declare
▁Regions
▁melodic
But
▁Promotion
▁Workers
some
▁inventor
▁lids
▁scarc
▁gradual
stra
▁conform
▁colon
▁MCA
▁porque
▁curves
▁está
▁Cooperation
▁poor
▁microbiolog
hemistry
▁humanist
▁firms
ria
▁breathing
▁cubes
3/
▁loops
▁neutral
▁outlets
consistency
▁flowering
▁sealing
▁"29
▁editing
▁Pro
mplementation
▁delegate
▁conjunctions
▁Educational
hine
▁equally
▁moon
▁parliaments
Customer
▁conclude
_____________
▁stored
▁decided
▁modifications
▁inspections
▁55
▁orthograph
▁anger
vez
▁bread
lood
▁intakes
ide
▁printing
▁discret
▁align
▁ecosystems
LECTION
▁modernis
▁venture
ina
▁resolve
▁entered
▁festivals
WC
▁owners
▁returned
▁rating
▁vis
▁dead
▁flower
▁gathering
▁"‘
▁errors
▁197
▁cleaned
ces
▁Was
▁stems
▁virtues
ced
▁Hill
▁seeking
▁committees
▁menus
▁fabric
▁(10)
▁shell
▁arises
▁progression
▁losing
raffic
▁safeguards
▁logical
▁suite
▁judges
▁quarter
▁examinations
▁moods
▁Projects
xcept
▁bus
▁по
▁fines
▁remind
▁avoided
▁organising
MENTS
▁guarantees
▁exceeded
kun
ular
▁tangent
▁coordinates
▁occurr
▁destinations
▁1.2
▁bills
▁extracts
▁exert
▁median
▁campaigns
▁notary
oyal
▁restaurants
ology
gan
35
▁experienced
ze
ap
▁dam
RY
Up
▁adding
▁alcohols
▁kin
▁declarations
nior
▁Lo
▁imports
▁accus
____________
plus
▁serves
▁architecture
60°
ree
▁Ju
▁Man
▁CO
▁fare
▁Profession
▁tru
▁tri
▁verse
wheat
▁3-
▁grades
elfare
Provide
▁answering
ronic
▁flu
▁absorb
14
ments
Un
▁beings
▁boil
du
ins
ootball
▁bu
amount
▁whe
lementary
▁sand
▁112
▁YE
▁geo
CH
▁constitution
▁pursu
stream
▁publications
tes
zo
tary
▁Pa
▁consolidate
)(
▁196
cies
▁constructions
▁_____________
Subj
▁specialis
change
ge
▁arra
▁timely
▁ti
5,
▁motivate
used
duction
ility
▁adher
▁respected
US
king
vii
(2),
▁continues
▁95
bject
▁Coordinat
▁Ro
▁deduc
▁ONL
▁Individual
▁kilo
bility
▁she
▁electromagnet
idy
▁dec
2+
▁mother
▁66
sk
▁Ant
▁visuals
ú
OGE
tu
ato
▁DE
▁worth
°
erre
▁Advertis
AT
ever
▁allot
reign
▁opera
▁infer
andatory
azz
ż
▁"(3
▁ear
▁exclude
ä
present
zi
▁Sign
nsic
▁м
▁magnet
alities
passing
4.1
▁provisional
‘
rney
▁finding
▁Pe
coding
57
▁leav
ject
stitutional
▁cheap
56
TAL
▁prov
ium
due
▁analys
*
00000)
tical
1.4
presentation
▁89/
may
▁ac
▁tang
▁cone
100
▁sure
▁knowing
stine
social
States
ow
▁grave
▁deepe
night
▁hit
pric
-25
nnovation
actors
▁350
ista
So
made
▁140
▁validat
▁Blue
See
music
export
both
finite
▁dat
▁enabl
Also
ud
book
ottery
exist
period
base
down
How
iff
systems
efficiency
applikazzjoni
four
ancy
▁dispose
care
Equipment
Information
secondary
pocket
General
ISO
New
▁neare
.6
sharing
▁Anto
Ma
-3)
▁affirmati
▁craft
▁3,
shopping
length
Any
ser
team
▁teng
▁recommend
▁minimis
ultural
LIC
▁coordinat
▁walk
▁sponsor
▁Creat
oats
▁As
▁issu
viation
▁PART
▁grouping
vis
▁Visit
▁offender
д
▁Appeal
▁watercourse
▁gift
▁questionnaire
▁club
▁interior
▁slaughterhouse
▁Advocate
▁orientation
▁timetable
▁museum
▁ambition
▁infringement
▁magistrate
▁rabbit
▁Method
▁fertiliser
▁121
▁picture
▁rang
▁loop
▁taste
▁arrangement
▁LED
▁cube
▁NGO
▁hope
▁influenc
▁pillar
▁outlet
▁optim
▁drill
▁Pow
saving
▁minute
▁chart
▁Pre
▁engineer
▁East
RE
▁flood
▁deter
▁pair
▁infrastructur
▁handle
▁firm
▁charit
▁sheet
reless
▁solder
▁random
▁0,0
mergency
nnual
ls
ndustrial
ella
▁simultaneous
▁capita
▁societ
▁exit
▁fluent
▁recruit
▁judicia
▁Quarte
▁tyrosine
unicipal
ī
Failure
Westphalia
È
ý
ž
▁2023/2006
▁30.4.2004
▁APPLICABLE
▁APPLICATION
▁Algebra
▁Assault
▁Bangladesh
▁Bonnici
▁Camilleri
▁Conservation
▁DATA
▁Ewrope
▁Industry
▁Instrument
▁Netherlands
▁Riyadh
▁SIMBIOTIC
▁Speech
▁UNDERSTAN
▁absolute
▁abusive
▁accomplish
▁alliteration
▁anecdotes
▁cadmium
▁cardiovascular
▁commensurate
▁conscience
▁consensus
▁maquettes
▁onomatopoeia
▁sakazakii
▁syntactic
▁tagħhom
▁tribunal
▁voudrais
▁Grima
▁aquifer
▁syntax
▁Headquarters
▁Nadur
▁bħal
▁suffering
CIL
▁expectancy
Ultimate
▁Spain
▁surname
▁refrain
▁hamper
▁Electronic
▁entail
▁proverbs
▁shortcomings
ecogozo
▁Computer
▁Flag
LEGAL
▁gusta
▁portability
▁freezing
▁Spring
▁barley
▁dispatch
▁pregnant
▁Agenda
▁fixtures
▁justification
▁XIII
▁citrate
▁cutters
▁childhood
▁inflation
▁lettuce
Stonework
ewwel
▁redeem
TELE
▁documentaries
▁pasteuris
▁racial
▁passport
▁reflex
▁NOTICE
▁retirement
▁linoleic
▁niche
▁competencies
▁masonry
▁wholesale
▁participles
▁universe
▁coheren
▁childcare
▁momentum
▁volcan
ERAL
▁Ltd
▁library
▁unhealthy
▁equity
TERIAL
▁multiplication
▁hypothe
▁destruction
▁Summit
▁portable
▁altar
▁infliximab
▁unnecessary
▁freehand
▁hazardous
▁cinema
▁Aqua
▁IENs
▁systematically
▁hardness
▁scanning
▁Poland
▁ethics
▁facility
▁proviso
ffordable
▁respiration
▁Request
▁decoder
▁attendance
▁Address
gozo
fe
▁passive
▁corruption
▁lenses
NCF
Alternatively
▁nuance
▁qualitative
▁cellular
▁judgment
▁empathy
▁similes
▁crude
▁swi
▁Islam
▁adolescents
▁costumes
▁depression
▁denominators
▁explicitly
▁ALL
▁rye
▁elevation
▁Carry
▁lending
▁manipulation
▁whatever
▁simultaneously
▁politics
▁reserves
▁taxation
MCCF
▁noun
▁hacking
▁Forum
▁therefor
▁molecul
▁hurt
▁flour
▁Saint
▁tension
▁calculating
1.3
▁Karm
▁journalists
▁renewed
▁capacities
▁perception
▁Things
▁polymerisation
▁superlatives
Currently
▁sharp
▁paints
▁sħiħ
▁respectful
▁intrinsic
IAL
▁broken
▁ventilation
▁Belgium
▁Appointment
▁Switzerland
▁personalities
▁Pharmacist
▁INTEREST
▁rapidly
▁wieħed
▁OB
▁Political
▁Bible
▁logo
▁concentrated
▁1990
▁Major
▁exemption
▁speciality
▁decent
▁wild
▁African
▁"48
▁injury
Particular
▁lungs
▁injuries
▁enzymes
▁cows
▁Kol
entrepreneurship
▁segments
▁wired
▁equitabl
más
▁eventual
▁greatly
Construction
▁ban
▁complexity
▁wave
TED
▁65(2).
▁cycling
▁strik
▁flooding
▁soldering
▁losses
▁walking
▁Tower
HC
▁Vb
▁Most
▁loan
▁proportional
▁cooling
▁Using
▁(2015)
▁Labelling
▁meters
▁pour
▁mixtures
▁Packag
football
▁accession
▁Meat
▁placement
▁Add
▁Effective
▁alone
▁pursued
▁Rule
▁embedd
▁taxes
▁mentally
▁Cathe
▁Methods
▁lesson
ini
▁warranted
ferred
▁tener
▁perceived
ferr
▁Honour
▁deficits
▁inorganic
▁listeners
▁rendering
▁belongs
▁premi
▁compil
▁audits
▁headings
▁bitte
▁reader
ec
▁4(1)(
▁Applicant
▁inferences
▁Common
Su
▁Hands
▁clinics
avoir
▁76/
▁Engineers
UB
▁recover
▁composers
cha
ncomplete
▁automat
▁acknowledged
▁coil
rat
▁FORM
▁race
▁neck
▁Refus
▁rotations
▁spa
▁rhymes
▁91/
▁Issues
▁Rap
▁Party
▁fam
sustainable
▁adjusting
▁fix
▁compliment
our
cial
▁cap
8:00
ttle
▁legitima
▁seller
▁alter
▁traders
▁bond
▁Understand
▁corresponds
▁pan
▁porting
▁remainder
▁curio
all
capable
óm
▁cables
rb
▁Specification
▁Check
los
holders
▁collecting
ogy
▁beef
▁Follow
:30
▁moderate
▁compost
im
(11)
whisk
▁restructur
und
una
▁sampled
▁st
▁backgrounds
▁comprehensi
▁trail
lack
▁Baro
▁supplements
▁purchases
▁relay
▁villages
▁happening
▁cast
▁courte
▁gastronom
venues
▁late
▁purposely
▁bab
ear
▁rel
▁mutualis
atitude
▁_
▁signator
▁congruenc
▁But
iż
▁eyes
▁licences
то
▁SM
▁rectifi
▁Min
iddle
▁€1.
▁Louis
▁Note
iversity
sp
rganization
▁000
/1
either
▁refus
lections
▁originate
▁Christians
stone
een
fied
▁Gozitana
▁Ka
▁AS
49)
ealing
▁notifications
▁Whi
hairperson
icular
▁LN
▁flows
▁sw
▁cuts
▁lengths
mastery
▁prais
saw
▁proportions
▁Reference
▁2007.
▁professions
▁unions
▁Z
rata
▁resume
▁processor
▁fruits
▁proc
iness
▁eine
▁pays
▁worked
▁Evaluati
tergovernmental
sides
ferior
quiry
lateral
▁senses
▁2015.
▁exceptional
1,
dritt
...?,
▁GO
▁orders
that
Re
ust
rich
▁Works
▁eliminat
▁Schools
ano
!"
▁brochure
▁rising
dressing
11
▁Cor
▁Wi
using
8,
opher
ips
▁Ri
ru
alan
▁contrasts
▁signal
emporary
chi
▁coat
▁Fore
▁divergen
▁vers
496
▁ir
▁posts
000
▁hu
riq
ID
▁allocation
▁Tr
2.
80
▁vari
aking
▁driv
ney
▁...',
ues
▁leg
▁(2),
TH
gram
ency
De
oint
▁cur
▁44
▁numer
neck
▁mein
▁Copy
Catholics
▁hom
▁auditor
Q
nts
▁div
▁Br
č
▁Organ
sing
▁situat
mposition
▁fly
▁ich
ón
DING
omic
▁pie
Bas
▁increases
▁tele
▁tip
▁ste
▁vie
act
▁2003/
ber
▁bil
5(6)
ora
▁incorporate
top
neration
▁undermin
▁bro
cem
▁motivat
gro
tial
▁renew
не
▁Propos
)?
play
different
▁characterise
▁So
AIN
▁MB
▁48
▁streamlin
ional
▁judg
ik
▁als
7,
▁72
teen
ionic
onsumer
▁stabilise
▁Circula
CK
▁Comp
pped
▁Po
▁€0.
▁prospect
▁Va
▁disciplin
hole
taining
▁au
Act
lines
▁lime
als
SA
00,000
eux
AY
▁14(3)
▁attribute
▁les
2)
▁consolidat
▁commence
▁cas
▁pla
org
50,
ntil
▁pu
и
▁evolve
dential
▁tea
market
▁Her
berries
paragraph
imal
▁com
case
▁organ
▁manifest
▁gro
▁11.
ross
ature
visit
rivacy
mounted
data
DI
Material
interest
anti
two
eight
door
website
financing
▁Up
illus
16
house
Rice
▁6(1)
▁comprehen
learning
▁Ja
Europe
Community
CAM
regulation
▁End
general
natural
▁vest
Ambassador
ious
unsaturat
olu
profit
Drawing
▁polymer
friends
applikant
Magistrate
election
Check
carbon
English
Legal
spread
▁fla
EMU
professions
Għajn
services
Report
disadvantages
▁AT
informed
alpha
___________
graduate
Brussels
fix
Lisbon
INTERVIEWER
Berlin
Vienna
hexa
replacement
Tunis
key
Develop
▁landscap
..............
village
video
valuable
organisms
Services
plot
▁begin
▁refrigera
functioning
third
phrase
__
implicit
Non
accord
(10)
textiles
▁vo
▁Out
▁Sou
1.
marks
▁road
boundar
users
▁Bac
dience
▁tissue
▁Mart
its
▁firewall
▁garment
▁49
▁threat
▁finish
▁neighbour
▁cop
▁survey
▁rat
hay
▁Practice
▁assignment
▁precaution
lity
▁violation
▁cheese
▁cuisine
▁mixture
▁Prim
▁simulation
▁adult
▁sanction
▁curve
▁feast
▁Table
▁formulation
▁button
▁trend
tter
▁allowance
ves
mium
▁flat
▁greet
▁spell
▁tape
▁spring
▁Farm
aż
▁requir
onometric
bound
▁TH
▁Medicin
▁domain
fer
▁emerge
▁deriv
▁depict
mation
▁administer
▁cool
▁Sch
▁multicultural
29/
name
▁terminate
▁150
▁persuasive
▁corps
▁explicit
TAIN
▁ease
▁VITAMIN
ccupation
harmaceutical
▁ensu
▁adequa
umerical
▁Secret
š
methyl
▁bronchi
KAK
MINISTR
Xlendi
demasiado
·
ить
▁21337333
▁Citadel
▁Degree
▁Democracy
▁EDUCATION
▁Esslingen
▁Fontana
▁Gauci
▁Greece
▁Literacy
▁Micallef
▁Munxar
▁Sacraments
▁Xagħra
▁Xewkija
▁batteries
▁cemetery
▁circumference
▁colleagues
▁contradiction
▁corporate
▁excerpt
▁extinction
▁feasibility
▁fumigant
▁hierarchy
▁indigenous
▁jistgħu
▁mañana
▁obstacle
▁poisoning
▁repertoire
▁retrieve
▁sapote
▁settimana
▁solubility
▁stroke
▁turbines
▁vicinity
▁1925/2006
▁Floriana
▁Paragraph
▁Psalm
▁academia
▁ammonium
▁authentic
▁blocs
▁diameter
▁impartial
▁reconcile
▁resilience
▁schematic
▁spontaneous
▁thirty
▁Łódź
Valentin
▁Complex
▁succeed
▁Telephone
▁modifika
lacquer
▁amenities
▁Turkey
▁gibt
▁intermediaries
▁pepper
▁rectangle
▁Travel
▁quarry
▁syllab
▁MEDIA
▁restor
▁monoxide
phonic
▁Macro
▁Wellbeing
▁fertilisation
▁genitive
ċipa
▁prevalence
▁stanzas
▁Folk
▁worship
▁correlation
▁reliability
morphological
▁Balance
▁simplification
▁pharmacist
▁Dalli
▁flash
▁utilisation
▁reactants
▁Governance
▁insulation
▁branch
▁accessories
▁flora
▁reciprocal
▁exothermic
▁infinitivo
▁twice
▁robot
CBL
▁SUBSTANCES
vangeli
▁SESAR
▁transpiration
▁sucrose
▁Facility
▁fauna
▁stylistic
▁stimulant
▁Activities
▁artificial
▁nominative
▁substantiation
▁overseas
▁float
▁exploration
▁guess
▁magnesium
▁Archipelago
▁upgrading
▁productivity
▁harmonisation
▁landforms
▁survival
▁capture
▁FOODS
▁admitted
▁Nursery
▁INTER
▁trousers
▁necessitate
▁literal
▁confidential
▁pregnancy
▁testimonials
▁catchment
▁clause
▁radius
▁emergencies
▁stressful
▁adjudicati
▁terminal
▁Eligibility
▁Inspection
naire
▁Space
▁housekeeping
▁pharmacy
TIP
▁imposing
Tiene
▁LOD
▁dwar
▁Christ
▁styling
▁sehr
▁Self
▁diplomacy
▁richness
▁vulnerability
▁animation
devoir
▁Opinion
▁Hair
carers
▁discretion
▁timeframe
▁freshwater
▁blockwork
Nevertheless
▁burial
▁Agencies
▁keyboard
▁disabled
▁trafficking
▁password
▁loose
▁faut
▁brine
▁partially
▁Consumption
▁detectable
▁About
▁cooked
hat
▁weigh
▁yrs
▁experiencing
▁loads
▁disclosed
▁breach
▁advertised
▁choreography
▁Goals
▁Christianity
▁meantime
▁novels
▁quotations
▁summon
▁embark
▁fireworks
▁countryside
▁sphere
▁defend
▁lakes
▁MAN
▁hydro
▁13(3)
▁Federa
▁passion
▁bulk
▁Governor
▁bought
▁għall
▁whenever
▁Support
▁ponder
liema
▁pension
▁Secretari
▁electronically
▁Musical
▁electrons
▁REF
▁lifting
▁1994
▁exhibited
▁roll
▁Contin
▁listener
CAP
▁Cities
▁dative
▁omission
KING
▁respectfully
user
arthro
▁sky
▁router
▁considerably
▁entrepreneurs
▁plc
▁insects
▁hundredth
▁documentary
▁spores
And
▁trig
▁breeding
▁halogens
▁monuments
▁socket
▁eviden
▁troppo
▁iodine
▁voluntarily
press
▁Great
▁Salmonella
▁1989
▁cleanliness
▁bottom
▁hacer
▁illnesses
▁fait
▁Galea
▁FRF
▁Level
▁prin
▁debit
LOW
▁virtu
▁fingerprint
▁handled
▁Price
des
▁intent
▁Liais
▁Bond
ncy
▁30%
▁Citizens
▁norms
▁combat
▁HT
▁audited
▁certainty
▁broaden
▁59
▁aggressive
MFF
▁Developing
▁translations
▁Treatments
▁metaphors
4)
▁Free
riż
▁pheno
▁Basi
nalytical
▁Farming
▁136
▁neat
hr
▁Noir
▁impulse
▁discharge
▁Provisions
▁passe
▁Repeal
building
▁alkalis
▁Muslims
▁hybrids
▁Documents
iplomacy
▁retailers
EASE
▁DC
▁disposition
ndefini
▁Forms
▁conduction
▁4.0
▁с
▁Form
▁cow
▁procure
▁Ċ
Course
▁CBF
▁REQUIRE
▁Principles
▁dire
▁MIP
▁hour
▁simulations
▁cuisines
▁buttons
▁motivation
▁Portal
▁formulations
▁truck
▁Promot
▁decreased
▁emotionally
▁signals
▁upper
▁Further
▁dividend
▁supportive
▁focal
▁formulated
▁sulf
▁Link
▁advise
▁incomplete
▁casting
▁skilful
▁rabbits
▁magistrates
▁infringements
sed
▁modell
▁performers
▁polymers
▁gist
▁severe
9,
▁lexic
unfavourable
lothing
▁touching
mental
▁Natural
▁fulfill
▁streets
▁dimensions
▁associations
rmity
06
▁drills
▁modifying
▁diesel
lar
▁CHA
▁adhesi
▁CE
▁branding
▁operated
▁rata
▁Remov
▁Buildings
▁arc
▁fift
▁prototypes
▁wait
▁came
▁projections
(2012)
▁MP
vid
▁fails
▁rocks
▁projection
▁quest
9/3
▁Nurse
▁incidents
▁biographi
▁meta
▁shirt
THEN
▁Transition
▁calendars
OUN
▁vacate
▁Legislati
▁contr
▁fight
▁costly
code
ounted
▁visually
▁advances
▁circula
ving
▁Ramallah
▁nations
▁organiz
cope
Important
▁kg
▁leaders
▁2004.
▁operates
▁€7
fts
▁night
▁stream
▁upwards
mplementing
▁controll
▁LE
▁diplomats
▁Fle
▁Respi
▁2003.
▁resist
▁filed
▁Or
▁alpha
▁ch
▁Laborator
▁HS
novation
▁convictions
abu
▁minors
rust
▁pages
▁displays
ML
▁unfair
▁accompaniment
overs
▁decid
▁mobilise
rassica
▁61
▁IP
▁HC
ailway
▁pl
▁constituted
epoxy
▁aqua
▁inappropriate
▁dur
▁Kind
ER
▁booking
ner
▁*
sy
▁pi
▁Que
Coast
▁prevented
▁versions
▁€50
▁refuse
▁Au
▁43
▁graphics
▁secur
5;
waq
▁POS
▁oppose
▁arms
▁gala
▁unse
▁doj
crewdrivers
▁Sea
▁circles
▁Cl
▁vacanc
й
lactos
▁Awards
▁gut
▁percentages
▁retransmitt
895
lt
icable
79
▁guard
▁president
▁packing
▁mio
▁Architect
▁ill
tra
ene
▁tar
Des
mine
▁supervisor
▁river
▁exp
ħla
archment
▁generat
tch
STO
▁quit
mien
▁optimis
▁annex
eria
▁forwarding
▁wash
-6
aving
▁Today
▁prim
▁Da
▁secret
▁Ministr
▁Futur
ntal
▁license
▁benefited
▁infi
▁scho
▁disk
ION
▁considerabl
Equality
▁setup
ages
▁commenc
▁copi
▁Web
abilities
azzjoni
▁Tu
▁cent
ral
▁cardin
▁capabilit
▁Imperfect
▁devi
użi
▁Py
▁għandh
-2
▁varies
structive
▁IT
Learn
▁2-
cyst
▁seas
mp
▁Standard
thag
▁evening
duct
▁murder
▁deficienc
▁noted
▁genders
atia
lled
▁Alter
▁rig
▁Wor
mon
lation
▁(4
carbonate
ard
▁sequences
▁(3
36
/2009
▁shap
):
▁3.2
▁agents
▁verifi
▁Marin
ador
▁bag
pend
lays
▁digni
▁nine
▁meine
▁atom
▁viewing
▁92
euro
actic
▁watch
ray
▁2006/
▁aged
ompanies
▁induce
▁imp
▁fu
mount
▁GP
▁pros
ward
LE
ix
IR
▁committ
▁specialise
izzi
▁sizes
rcem
DG
▁12.
▁lying
▁assisti
▁sera
▁synergi
▁herb
Cuánt
symmetric
equal
▁flags
▁tender
con
▁ADD
▁contamina
0,
ses
fatt
▁53
tified
rent
ught
▁modul
4.
ip
▁ensured
volution
wi
▁soils
nach
▁1000.
▁hi
▁Read
▁Parts
Il
biographies
▁syn
▁€2
▁physiolog
volved
Page
ción
▁PLA
▁Substance
Qualifications
▁onwards
va
way
▁pollut
▁Bul
▁Leaf
eph
kk
▁adhere
(1)(
▁exercis
ó
▁bon
las
sity
▁Q
.11
▁Das
ome
▁CN
▁alla
▁dem
▁matur
▁ballo
▁Reform
NING
ans
25)
▁diagnos
stating
▁94
oic
▁initiate
ono
▁YOU
gar
▁Rep
9/
ards
bi
nal
▁Reduc
▁icon
▁Str
▁arrang
ordinated
▁plate
▁mort
brochures
▁pain
▁lights
this
▁rib
▁equi
▁Delegat
▁45(3).
▁NO
▁divid
▁Ki
Da
▁integra
long
▁comprise
alloka
▁sal
▁commemorat
▁Kn
ground
lite
ace
▁temporar
▁Gene
odu
19/
nity
▁congratulate
According
Belt
▁6(2)
ak
15
mo
ines
▁initiat
▁Com
▁fed
ping
▁statu
ctive
▁slip
-5
▁caus
▁assent
▁son
isations
kien
għ
▁2:
▁En
cho
▁prima
zza
Med
disputed
berg
op
RES
duced
▁Lap
ana
▁fin
hood
eous
od
net
athing
llow
▁Life
conscious
▁sat
▁ju
▁għand
lu
ographic
ss
tiv
ST
mark
ħ
ntry
BC
pping
▁expos
media
▁Appropriat
▁clip
▁Religio
▁salu
residing
▁Pi
▁cre
app
▁Ze
when
ali
vol
seen
design
18
▁1,2
▁supervis
ights
TV
structure
even
ся
▁NE
outh
▁Chai
orem
llo
than
lighting
dos
▁"45
▁jin
culture
more
▁Ven
▁showcas
у
legal
▁simulat
res
educated
tolerant
versa
chemical
▁2.4
31
Work
7%
5/
performance
relationship
▁Viol
Fro
ung
▁estimat
Parliament
cultural
perform
Site
national
ound
linole
▁Bu
Catholic
Health
those
18)
▁88
positive
role
phosphate
40
▁nomina
whether
Public
▁plac
Gozitan
certified
digital
lim
Open
examples
amended
listen
▁brass
DES
source
she
▁separat
added
IV
weather
enterprise
▁Imbalance
study
young
▁El
animal
harvest
drink
frozen
timescale
playing
More
Ramallah
defined
install
disciplin
Account
+
Under
inclusion
Kuwait
GIPSA
Children
containing
listed
Restriction
▁Install
SML
ethical
arja
FORM
City
”.
CID
ħu
Con
Tak
▁Control
programming
Che
lien
except
▁_______
lei
▁crossb
regions
HS
Schools
▁remov
hour
SES
ms
▁stimul
flow
▁nation
.8
cultures
▁diverg
(13)
▁Select
constituted
anthrop
▁vertic
speed
ook
houses
dag
▁Authorisation
▁protocol
▁Bishop
▁seminar
▁benchmark
dar
site
▁koll
▁privilege
▁microwave
▁Profess
▁chapel
▁Us
hu
▁membrane
tolerance
Only
▁pilot
▁attack
▁hybrid
▁Muslim
.7.200
▁implie
▁aerodrome
▁airport
▁barrier
▁implication
(2)(
▁choreograph
▁shock
iku
▁Fr
▁viewpoint
duty
▁variation
OX
▁script
eco
kie
ignificant
▁encompass
▁2300
ASI
▁neighbourhood
▁undesir
▁conditioner
▁teach
ep
▁Vac
▁surround
▁alternate
▁driver
▁dentist
(12)
▁Document
▁tradition
▁jit
arts
▁advertisement
ompliance
iling
▁Bibl
▁endanger
ensitive
STIC
▁park
cient
▁happ
▁donation
ACH
ordinate
.7
▁prescribe
▁consum
edukat
▁confront
▁bisect
▁satisfactor
▁Strateg
▁Ga
▁realise
▁ultimate
▁peaceful
lderly
▁silent
▁colla
▁thought
▁cooperative
▁disagree
▁Test
chiev
▁Educat
▁accommodat
ни
▁GM
▁vegeta
▁Week
▁oligo
ь
▁įved
Quiero
RESTRI
AZZJONI
pagament
ç
ą
Ħasselin
ő
ασ
акой
▁182/2011
▁853/2004
▁ADVERTIS
▁Analysis
▁Australia
▁Basilica
▁CONSULTATION
▁CRITERIA
▁Carthage
▁Chambray
▁Czech
▁EDITOR
▁ERRC
▁Hungarian
▁LEGISLATI
▁MANUFACTUR
▁MEMBER
▁Ontario
▁Perfecto
▁Questions
▁Revenue
▁Sampling
▁Slovenia
▁Tuesday
▁ancestors
▁archaeological
▁attempt
▁autonomy
▁bankrupt
▁centimetre
▁chlorine
▁cholesterol
▁clusters
▁cuboid
▁culinary
▁diffusion
▁dilemmas
▁dreams
▁embassy
▁encyclopedia
▁fallacies
▁feminine
▁flavouring
▁imsejħa
▁inhabitants
▁insulin
▁kūdikiams
▁maitinim
▁mammography
▁milestone
▁orthodontist
▁philately
▁pornography
▁retention
▁rhetoric
▁sarcastic
▁sulph
▁tectonic
▁thesauri
▁vacuum
▁vandalism
▁−
▁□
pouvoir
ă
▁ACTIVITIES
▁Birkirkara
▁Deutsch
▁Guide
▁Harbour
▁Limestone
▁Refalo
▁Sejm
▁Vatican
▁Wednesday
▁anxiety
▁competitors
▁depreciation
▁protractor
▁teenage
ipparkja
ì
▁Cloud
▁Cosmetic
▁catalogues
▁disturb
▁gustaría
▁multicellular
▁opinión
▁stolen
▁struggl
▁surplus
▁86/36
▁Judaism
▁lipids
▁EMPLOYMENT
▁STATEMENT
▁médi
▁pollutants
▁vapour
ый
▁bundle
▁macromolecul
▁trouve
beadwork
▁Surname
▁remuneration
▁silence
▁adulthood
▁discursive
▁permissible
▁solemn
▁rectify
▁Stadium
▁microscope
▁goodbye
▁immigrants
▁nineteen
▁stringent
Video
▁interrogative
joni
▁credibility
▁Philatel
▁compatibility
▁prossim
▁Retail
Affaires
▁furnishing
▁fifteen
▁liberty
▁departure
▁ceiling
▁controvers
▁philosophical
▁Sahour
▁commodities
▁Chairman
▁impracticable
▁STIs
▁perimeter
Ramla
multa
▁prosperity
▁Orchestra
▁married
aspx
▁Cereal
▁district
▁Listening
▁manifestations
▁obligatory
▁Respect
▁Export
▁legacy
▁haloxyfop
▁sadness
Estoy
▁congestion
▁ADDED
▁pellets
▁Gaudium
▁sensors
▁distillation
▁forgiveness
▁vacation
▁morphology
Besides
Saliba
▁Preparation
▁fusion
▁contemp
▁creators
▁suspicio
▁flourish
▁clues
▁Division
▁Forests
▁condom
▁imaginary
▁Abroad
▁vaccination
▁seamless
▁intensity
▁Soft
▁Muscat
▁veux
▁anchor
▁weapon
▁repair
▁chicken
IAEA
anyatej
▁sponsorship
QMA
▁neatness
▁vegetation
BAR
▁livestock
▁pulse
▁diphosphate
▁probation
▁Durability
CHECK
▁lossless
▁yoga
▁cohabitation
▁papildom
aj
▁variability
▁stretch
▁legislat
▁judiciary
▁Newton
▁¬2
▁gaming
▁managerial
▁gehen
▁arbeiten
▁ITB
▁Lago
▁qualifiers
▁terrorism
▁6(3)(
▁Brassica
▁confidentiality
▁camera
▁entitlement
▁Francis
▁Oratory
IGI
▁pollen
▁‘¿
RST
▁ecology
▁Avoid
▁calm
CTIONS
▁impression
ön
▁grinder
▁rubber
▁urge
▁adaptability
▁45(4).
▁disqualified
▁professionalism
▁accent
voglio
▁magħ
▁2050
▁alleged
▁GPE
▁terbufos
▁carving
▁sulfone
▁dissemination
▁ANSWER
▁narration
▁Target
▁Connect
▁apologise
▁manoeuvre
▁automation
▁destin
▁anticipate
▁wax
▁worldwide
pdf
▁sustainably
▁merit
▁posture
MSDC
▁staphylococci
▁manure
▁winner
б
▁Vince
▁29(1)
▁Sector
003
▁waxes
▁compete
▁pick
▁lens
▁Star
triq
▁Statistics
▁alloys
▁generator
▁federa
▁manipulate
▁ikun
▁vacancy
▁detri
▁glands
▁player
▁annotations
▁girls
▁disorders
ikku
▁cheques
▁analog
▁radicals
▁chisels
▁vertebrates
centuries
iskola
▁denn
▁NSAs
▁phonemes
▁wastage
Lei
iet
▁700
▁percussion
▁vibration
OJL
ks
▁integer
▁undertaking
ants
▁reject
▁habitual
Visitors
▁routes
▁hydra
▁enquiry
▁infinitive
Text
▁inception
▁imaginatively
▁Interest
▁harvested
▁2(1)(
▁Prosecution
▁implied
▁felt
▁parental
▁appearance
▁Dental
▁1:20
▁Return
ffenders
▁pathogen
▁tolerate
Angles
Keep
▁Mosta
▁hunting
▁aerial
▁withheld
▁fractional
▁bridge
▁compatib
▁editor
▁fulfilled
▁hunt
▁impede
▁pitches
0000
Copies
▁underpinn
▁sexuality
▁addictions
▁telescopes
▁ergonomics
▁organizations
1998
▁indicators
▁filtering
▁accelerated
▁nicht
▁bench
▁towers
▁slogan
▁Finance
▁Dublin
▁London
▁indefinite
▁Channel
▁Features
▁enlargements
▁merchandising
▁desirable
▁MCAST
▁illustrations
▁Description
MoU
▁LCP
▁upload
▁altered
▁digestive
▁butter
▁WHO
▁ICER
▁9000
▁EDP
▁licensing
unmarked
▁tiene
▁litter
▁Ferr
▁Grand
▁bones
▁discovery
ronze
▁voicemail
▁therewith
Ensur
▁recycler
arju
▁KE
▁adj
▁plug
▁behavior
▁Creating
pulizija
▁ascertain
▁HR
▁filters
hould
facebook
▁outgoing
▁weaken
▁Payments
▁juices
▁fluids
л
▁negotiated
▁artworks
▁hormones
▁indoors
Movement
▁preserv
▁lossy
▁plumb
eton
▁cor
▁contraction
▁terminated
▁palm
13/
▁appropriation
▁Invest
▁sin
▁decorat
zer
▁plates
▁fittings
▁bags
▁suspect
▁flag
▁greener
▁favore
ħin
▁sectional
▁realised
▁silt
▁interrelated
▁attacks
oadmap
▁variations
▁membranes
▁dentists
▁lifetime
▁donations
cadem
▁preserved
skola
▁contributor
▁drivers
DRF
▁conditioners
▁indebted
▁roads
recast
▁Respons
▁crust
▁rays
▁FABs
▁virus
▁paragra
▁"42
▁TSCG
▁strangers
▁USDA
▁sensory
▁RSS
▁limestone
▁farmed
▁Steps
▁jazz
▁Advertisements
▁refine
▁resistant
▁CCI
▁dimensioning
▁interdependence
▁Engineering
▁careful
▁displayed
▁resort
▁cheeses
▁violations
▁precautions
▁lev
▁Provision
▁Pesticide
ath
▁Goo
▁800
ROW
▁performer
▁hopes
▁Jean
▁astronom
▁resins
▁pilots
isers
▁dust
▁sensibl
▁restored
,000,000
▁feet
curb
▁assum
ury
▁ambitions
zion
▁Gha
▁museums
▁orientations
▁Advocates
▁slaughterhouses
▁Accounting
▁essere
▁haben
ogni
▁modals
▁bait
▁writers
▁Identify
▁Dei
▁cakes
appointment
▁bigge
▁poll
▁continent
▁totali
▁chords
▁tarde
▁permissions
▁paintings
▁pub
▁interdependen
▁bin
▁conductors
antothen
spiration
▁être
seekers
▁underline
'),
▁Tritic
▁annul
▁arrival
rithm
▁prisms
▁stable
▁Roadmaps
▁punishments
▁resistors
cine
FOI
▁alike
▁steal
high
▁(12)
ament
▁(13)
state
▁SK
▁apple
den
ighting
▁graduates
mik
▁essays
▁doors
▁signing
▁browsers
▁accelerate
▁alkali
▁entertaining
▁heads
▁Develop
▁managers
Along
▁Ba
etween
▁Site
▁blue
kali
UM
▁disseminat
Com
▁prediction
▁Bus
▁frozen
▁administrations
▁saws
dam
licit
▁Mone
▁Pain
▁sweets
▁mus
ider
▁18.
▁disasters
Regulations
▁depilat
▁pledge
▁gern
▁schedules
▁Millen
▁ci
▁labs
▁Restriction
▁Mayor
over
jections
Process
▁Si
▁dans
pooling
▁fid
▁2007/
ents
▁Gardens
▁Notices
▁schooling
▁sind
▁hospitals
▁searching
practicable
ification
▁Sun
ло
▁weld
▁Religions
▁partnerships
▁footprints
▁CAM
▁Maria
▁damages
▁converter
▁procur
▁particulars
▁Constitutional
▁booklets
▁powders
bre
-6)
▁securiti
saccharides
▁Bills
▁authorize
▁liver
▁SMSs
▁exceptions
ewellery
▁credits
▁Communicat
tà
imo
▁не
▁ż
▁Promote
▁counting
▁2(1)
▁4.2
▁legs
▁Fungibil
▁Te
▁City
▁applikazzjoni
▁obstructi
▁hotels
▁Agen
▁Boy
▁King
né
tick
ecal
▁infrastructures
etta
hom
▁uniforms
usto
37
son
▁5.2
▁fuse
▁permits
pods
▁Mos
▁usages
Dov
▁Sal
▁risky
ade
▁cerv
Articles
/2013
ifications
▁updates
sman
▁pin
▁bas
Tra
▁stores
▁Sc
▁Since
▁sein
▁blow
air
▁"30
ċ
ijiet
LITY
▁cyclic
▁dictate
▁networking
▁obe
▁renovat
▁dispos
last
DF
▁dialects
▁worker
lab
nder
▁featur
▁forma
read
▁rescue
construction
▁labels
▁appreciated
▁Over
▁denot
til
▁fle
▁96
ational
varnishe
alien
▁commerce
ondo
▁2005.
▁economical
cement
elwa
erformance
netic
▁pill
vil
▁Ab
čn
▁kar
▁dan
roll
▁intra
▁debates
mos
▁persona
ain
Setting
15)
▁emergenc
gue
▁prepara
sound
▁Mobil
Modification
▁drop
▁mor
tric
▁Entr
▁geometrical
▁fri
▁equivalents
▁ident
▁disrespect
▁1.1
ries
ric
ny
isting
inter
opting
rely
▁stead
ppa
▁sight
▁€6
tations
▁classrooms
▁Cut
ood
▁climat
,5
▁guid
ector
▁Stocks
ux
▁Qor
▁stopp
▁Am
3)
▁Nap
tri
▁buck
regularity
ordination
▁Fi
т
▁studying
▁spe
▁lea
▁(23
▁populat
ropineb
bone
recurrent
27)
ances
ropylenethiourea
aid
▁strateg
oogle
SAC
usable
27
)/
mmer
sco
lated
Arti
real
▁weights
▁ingest
▁(2,2
▁desir
eja
intéresse
mus
▁installations
3.
▁0,1
plant
osa
curricula
tto
main
bor
▁beet
▁citr
▁cup
▁ru
▁Fe
▁Bra
4%
25
uc
fo
dien
table
▁peoples
9)
▁builds
entru
▁deprive
tures
▁behaviours
▁execut
▁Fair
▁cru
St
▁Che
odified
OUR
Ms
vo
▁pray
rian
▁quote
Se
spective
|___|___|___|
▁Il
nding
▁reli
▁bot
lies
▁dress
nin
Modern
▁tres
ming
▁span
▁caller
▁34
▁conv
GW
avere
Os
▁prioritise
ithout
Save
maternal
▁2294
zu
▁investigat
ät
▁sha
▁mar
ways
▁assis
▁auction
7.
▁2020.
▁comp
▁whereas
(9)
▁melt
▁beaut
Who
evaluation
▁ions
enera
▁seiz
▁Communi
▁teams
▁Fil
▁pluralist
rohibition
▁Lu
bar
urface
allot
▁€0.0
▁notifi
▁fai
▁cookie
▁authorisations
▁ignor
tru
nator
▁eras
form
toge
vel
▁Came
literate
ULT
pray
▁75
port
owel
▁influ
▁reproduc
▁bak
▁"(4
▁Ver
nte
wing
88
▁Ul
▁adventure
▁monoc
50
▁Mrs
▁Ni
otball
ieħ
▁Ac
▁auto
▁situate
▁contra
7)
▁precede
▁Tele
▁Mir
▁ignore
▁Ġ
▁1000
ometric
▁tune
oral
isted
ody
▁disrupti
▁discriminate
▁persist
▁star
hip
▁09
variabl
ets
current
abri
▁2.2.
ore
▁192
di
▁erase
reach
▁dense
nonym
▁Dri
ente
itive
rop
▁Ep
900
awk
▁lov
▁electromagneti
▁Hal
tions
ering
ax
enja
ds
matic
omatic
rough
▁mine
astric
▁manners
▁CS
▁forty
zija
▁none
prints
▁ġ
▁cont
▁1)
agna
▁exhaust
▁depriv
з
nada
94
▁savo
▁beau
harm
▁bedro
▁inci
▁Distribut
30000
how
zed
dehyd
▁app
▁bla
ord
ugar
ife
iate
▁enact
________
size
pro
▁д
tional
ams
2:
▁2004/1
▁seconds
ban
vas
▁Bel
▁seem
rka
oter
/2008
ov
ev
strial
▁sus
eno
ontraindications
▁FA
ogram
llocations
▁divert
Suc
lem
xa
intercept
mic
▁rela
▁Gra
OW
UT
yo
posso
ians
▁finalise
▁doc
▁explo
▁(""
tte
vers
met
ez
ations
pm
ICAL
valent
▁tour
por
elo
ort
CC
hereafter
▁Jul
dón
metric
▁Elect
Les
▁phil
▁Governments
achi
mological
ġġ
xyl
▁Count
ecause
▁Ol
▁port
pendi
▁lil
ati
17
aximum
▁AC
omplaints
▁fi
▁propos
▁communicat
mitted
lock
markers
29
▁3:
▁LVI
▁avi
mula
▁Back
CTION
▁€0.1
▁apprecia
▁Summ
Z
lement
▁sar
omm
▁promise
▁pol
graph
cious
▁Ne
▁wir
ped
ior
▁leak
▁...?
ens
ience
▁Jan
▁Un
▁subsid
▁rebuild
▁Anti
employed
iterate
mb
new
rivers
▁mere
place
rod
▁intermedia
▁(15
THE
▁cere
94,
under
▁heav
Specific
▁electro
alter
45
mu
▁PRO
▁keys
arly
simple
▁charg
▁cho
▁kee
▁Age
65
▁thing
▁п
▁coin
200
2(1)
TP
formal
▁¬
99
ME
power
▁picto
ried
self
ivil
▁76
▁Ad
▁den
energy
▁ab
organic
▁inde
conciliation
edemption
▁constitut
▁owned
provided
▁290
plastic
essi
school
short
▁arriv
would
63
▁marit
zione
787
Ministry
anted
good
research
stories
calci
▁hon
uropa
▁sta
ys
financial
ratory
nger
President
54
[
environmental
preceden
ones
country
safety
AG
▁transit
Audio
page
pre
ola
Fees
▁Collecti
graphic
var
job
▁MD
nium
seeing
tly
government
before
▁legitim
Infrastructur
residue
sine
▁DIRECT
aspects
decision
nmark
consumer
oes
▁necess
-18
three
intended
Prepare
addition
closure
students
23
ell
▁HE
Fa
▁biome
waste
▁configur
recycling
hold
maximum
glossary
register
month
▁borrow
ù
regular
▁LI
Stock
nutrition
views
effectively
Provision
Treaty
counter
primary
small
PRES
refer
Environment
▁stance
objects
class
volume
Part
fresh
pesticide
end
lay
ehabilitation
▁Je
commercial
geographical
weight
estern
achieved
Home
▁Gi
alcohol
Chemical
favour
determined
reflective
arrival
Water
reduction
entertaining
itude
SK
Environmental
être
ICT
renewable
mobil
LEG
discrimination
Design
excellent
Function
ates
diesel
Green
Science
aesthetic
harmonised
scenes
COM
layer
procurement
EIA
Hague
conditioning
Measures
defence
EASA
metals
Common
High
copy
controlled
EEA
protected
image
Sie
recommendation
informal
mechanical
quisition
tarde
vocation
Glass
▁additions
reduced
Every
inclusive
rmed
funding
author
▁Cli
jew
jata
dden
frames
.10
verbally
Vi
consultations
show
history
▁mont
cards
PL
Lm
party
statement
▁Wha
sual
dried
MD
ock
/3
essere
▁servic
affirm
assessment
.9
zat
timate
ejn
stances
mann
Per
CB
8/
uttin
Milli
wareness
fforestation
4(1)(
gencies
▁nurture
▁filter
Example
powers
often
Co
▁cit
cuts
żi
capacity
ators
Digital
▁easi
▁stimulat
solution
▁underpin
plastics
▁Tradition
▁trigger
▁Teacher
rivate
bio
UL
▁Pack
tre
▁Gospel
▁Reason
▁empower
bsence
▁sew
▁vector
▁regime
ight
▁window
dditives
▁Payment
▁passage
▁segment
▁juice
▁metaphor
▁fluid
▁FAB
interests
▁accelerat
▁enzyme
▁spo
upon
jum
▁muscle
6%
▁infection
foresee
▁polygon
▁gesture
▁interval
▁hormone
▁preposition
▁translation
only
▁distribut
▁Gu
▁preference
▁respirat
▁slaughter
▁exempt
usages
▁ob
▁mislead
▁Organi
▁Pol
po
▁remedie
▁brush
ailing
▁entertain
▁merchandis
▁CV
▁Sustain
▁command
▁artwork
▁inference
▁exhibit
▁brows
▁Imperativ
▁Job
ña
▁hygien
▁atmospher
▁Palestin
▁breed
▁63
annu
▁overhaul
▁Factor
▁Limit
▁friendship
▁enlarge
ulju
▁welcom
▁envisage
▁lun
tex
▁arr
xercise
▁dissolve
xaminations
oskelet
▁inspire
▁excellen
▁Medicine
▁classifi
▁quantitative
apacity
▁Mediterranea
▁lavor
▁staphylococc
▁phenomen
▁stereotyp
Por
▁recycle
▁rubb
WERS
live
yridoxine
▁lung
â
▁scop
rogation
▁1(2)
▁fragment
▁triang
ам
riefly
▁preposi
rozen
ncreased
▁hydrolys
delete
ы
ā
mjölk
▁Fishery
▁chloro
Reġistra
ё
Aesthetic
ETAIL
Euratom
Loġoġ
Mechanical
VISION
`
buprofen
carnitine
fútbol
għeluq
irefox
irkant
misappropriation
ortellini
platz
±
εύ
ρ
ехать
†
▁1108/2009
▁1882/2003
▁1⁄
▁ACCESS
▁ACCORD
▁ANIMAL
▁APPLICANT
▁Afirmativo
▁Alimentarius
▁Benedict
▁CEREAL
▁COMPLIANCE
▁Campaign
▁Caritas
▁Carnival
▁Chapel
▁Congress
▁DECISION
▁Estonia
▁GASART
▁Galileo
▁Girgor
▁HOUSEHOLD
▁Holidays
▁ISSUE
▁Luċija
▁Lützowplatz
▁MODULE
▁Mellieha
▁PROFESSION
▁PROGRAMM
▁PROVISIONS
▁Patterns
▁Probability
▁Quisiera
▁REQUEST
▁Registrar
▁Robotics
▁SCHEDULE
▁SPECIFIC
▁Spiteri
▁TIMSS
▁Temperature
▁acoustic
▁algorithm
▁alveoli
▁ambassador
▁azoxystrobin
▁brainstorm
▁chapters
▁chromatography
▁climbing
▁communitarian
▁conjugat
▁custody
▁daughter
▁decomposition
▁decreasing
▁deforestation
▁domenica
▁emphysema
▁enterotoxins
▁etiquette
▁excitement
▁eżistenti
▁follicle
▁größer
▁hexadecimal
▁humidity
▁hätte
▁incumbent
▁interlocutor
▁kiosks
▁lodging
▁masculine
▁messenger
▁mosiac
▁mutandis
▁narcissistic
▁nomenclature
▁obtuse
▁oscilloscope
▁patrimony
▁placeholder
▁popstars
▁precincts
▁pupils
▁quaternary
▁reputation
▁resilient
▁rhizome
▁sarcasm
▁semplic
▁sequencing
▁sequential
▁sibling
▁spoilage
▁suburbanisation
▁thicknesses
▁trachea
▁transceivers
▁vexatious
▁würde
▁xenophobia
▁Добр
▁брат
▁ник
▁DISTRIBUTI
▁Greek
▁Precision
▁allegiance
▁glazing
▁mortgage
▁shrubs
▁splend
ONOM
▁Cassar
▁Lithuania
▁Study
▁Zahra
▁aftermath
▁census
▁corrida
▁injured
▁intuitive
▁unborn
Italie
potere
▁'¡
▁Cheeses
▁Chrome
▁Portelli
▁Rabat
▁contraceptive
▁kollox
▁misbehaviour
▁patrol
EATMN
ICTGM
η
ς
▁MAXIM
▁ORIGIN
▁Wettke
▁domani
▁unanim
Textiles
▁549/2004
▁Hamad
▁Lambert
▁NUTRIENT
▁SUBS
▁cherries
▁competiveness
▁currencies
▁democracies
▁etymology
▁fragile
▁hansa
▁pliers
▁Corporat
▁Cremona
▁abortion
▁drift
▁CIDIC
▁asylum
Sweet
VRT
▁escort
▁thorough
reasury
▁trova
▁festivities
▁rinsing
ESBO
għalliem
▁rectification
▁Ħelwa
▁Folklor
▁horror
▁spillover
▁REPORT
▁salaries
▁tickets
▁Voice
▁acetate
agħmlu
▁prominence
▁Transactions
▁comunica
▁temples
▁Amano
▁Charles
▁digging
▁truncat
▁Population
▁biotechnology
▁excavat
▁swift
▁comida
▁Bosco
▁ILO
▁electrolysis
▁bleeding
▁dinner
▁RELAT
▁cafeter
▁precision
▁bromine
▁predominant
▁blindness
▁conductivity
▁hydrogen
▁unexpected
poč
▁phrasing
▁Ħaż
▁Liberty
▁2004#1
▁Slovakia
▁craftspeople
▁Corps
▁HOUSE
releases
▁Woche
▁endoskeleton
▁teeth
▁toxicological
▁registry
▁factorization
▁ledger
emiconductors
▁Weekend
▁hetero
▁abundance
▁epide
▁coagulase
▁1:100,
▁sunlight
▁tardi
▁convection
▁organelle
vascular
▁BIO
▁WORK
▁Prezz
▁humour
▁shadow
fête
▁dwelling
▁radish
▁mutati
▁Stabbilit
diox
▁scusi
▁isolation
▁unsafe
▁65(3).
▁erasure
▁blueprint
▁fipronil
▁Brown
▁backstop
▁melodies
▁mosaic
▁beneficiaries
▁approx
▁forestry
▁Exchange
▁Steph
▁Edition
▁Consultant
TREATMENT
▁purslane
▁prize
▁Gender
▁cameriere
chiama
▁decorations
▁cybersecurity
buż
soever
▁Classes
▁Women
▁persever
▁kann
▁redress
▁agenda
▁Dialogue
▁chilling
▁everybody
OSCE
▁racism
▁neutralisation
▁cabinet
▁displacement
▁Fisheries
▁sentiment
▁Stewardship
3+
▁captions
▁shrink
▁theorems
▁Labour
▁PVC
▁compaction
▁cultivation
▁jirri
▁2040
▁550/2004
▁boys
▁motto
▁approp
▁549
▁recontamination
burg
▁Xag
▁loud
▁margin
▁tonality
▁Aspects
▁chopping
▁occurrence
▁subtle
▁colonisation
ECHR
▁12:00
▁ethano
▁multinational
▁Capital
▁Terminal
querer
▁intestin
▁Asia
▁jidh
▁Letter
▁stomach
âte
▁piacere
racias
▁multilingual
▁coherence
MSE
▁indices
▁pasado
▁aċċettat
▁eurobills
▁fahren
▁mattina
▁coerc
furma
▁dark
▁unpublished
noche
▁1999/3
▁usual
entrali
▁45(5)
▁Horse
ANCE
LCM
▁Zim
▁campagna
▁airlines
▁fishery
▁INVOL
▁Apost
ligibility
OVE
▁vita
▁bronze
▁telephony
▁Weight
▁metalwork
▁submarine
▁MTA
▁agency
STAND
83
vja
Vanilla
▁Khal
▁logistic
▁retire
orrei
▁painter
▁Film
▁allocate
▁corner
▁lodged
▁vertices
▁wheel
▁festa
▁Helen
▁coverage
truck
▁peripheral
▁swear
denomination
▁2009/3
▁NOR
▁avec
▁tailored
▁Appo
▁plausib
▁halve
▁Amendments
CAC
▁seawater
▁Clinic
▁Chance
▁CSS
▁Box
▁sink
▁inflict
uben
Zaka
lura
hicory
▁communiqu
▁everything
▁scenery
▁meilleure
▁splitting
▁Drink
▁unclear
▁buen
▁Heath
točn
▁orbit
▁thereunder
▁brain
▁ripar
fiesta
▁elicit
▁bueno
▁finger
▁mason
▁(20:4
▁authorisa
▁prefixe
▁STA
iosis
▁Glasses
▁forbid
acco
▁Maj
▁phenomenon
Vorrei
▁750
▁postage
aħħa
▁pride
▁lavoro
▁shipping
otherapy
▁flank
▁Leone
▁negation
▁fever
▁CER
▁mould
▁eaten
▁Command
▁1999/2
star
▁41(2)
▁lapse
▁mild
▁Secretaries
▁keine
▁monies
▁MEDICIN
▁compassion
▁workforce
▁Bru
▁retailer
anqas
▁sizing
▁immed
zjal
▁silently
▁cooperatively
▁ultimately
▁Emp
guardians
▁eradicat
▁insert
▁"49
▁transformers
▁kick
ched
▁latents
▁Mater
▁behav
▁observation
▁burns
▁Points
▁factories
trophic
YRE
▁presiding
▁confrontation
▁earmark
▁amigos
▁fortifications
▁gymnastics
▁weaving
▁skirts
eutic
▁careless
▁Books
▁idioms
▁galler
▁coating
▁blend
▁gates
▁VIP
▁Records
▁isolated
▁rail
▁widening
▁mural
▁humanism
Para
▁addi
▁autobiographi
▁tkun
ties
▁spacing
▁Chate
(2016)
▁enlarged
▁upbringing
▁counterpart
▁playground
▁LOCA
ashion
▁inconsistencies
▁globe
▁headline
▁diction
▁oxide
▁abide
morph
▁overhauled
▁autonomously
did
▁pá
▁jint
Experience
▁diversification
rad
ALLO
ific
▁Mark
icide
▁movies
/2007
▁mismatch
▁sketches
05
▁mask
▁1997
LAS
▁achievers
▁connectivity
▁soft
▁stamp
HCF
▁vs
▁хо
▁lado
▁manually
iz
mallets
sacchar
▁skull
volere
▁attachment
▁conserved
▁mitigated
▁CRI
▁decisive
▁bays
GMO
▁busy
eep
JI
▁antibiotics
▁MRLS
▁shelve
Finland
randomised
▁prophet
▁tenths
ġu
Eurosystem
▁spelled
▁switches
kes
▁interven
▁Advis
acent
▁indi
▁jif
▁Qur
▁necessit
▁Definition
donic
▁litre
▁Għar
▁gold
▁Alf
▁inpatient
▁announcements
▁molluscs
▁aflatoxins
▁quadrilaterals
▁motorcycles
CIP
mezz
▁÷
▁$
▁disapprov
FEE
▁limitation
don
▁departmental
▁withdrawals
▁piano
▁yolks
▁BADGE
▁CHOGM
nterpretation
▁pueblo
▁vouloir
▁Case
▁bladder
▁Skills
▁deliberate
▁Interpol
▁phosphorus
▁Entschuldig
▁Renaissance
▁Competition
▁Components
▁durability
▁advancement
▁solvents
▁POLIC
empowerment
▁explosives
fructos
▁brushing
▁Cold
therapists
▁552/2004
▁6.1
▁coins
▁Ko
▁grey
▁1964
▁Treatment
▁futuro
▁haces
▁occurred
▁remarks
▁Dance
▁borrowing
▁149
▁American
▁frying
stock
juri
▁burdens
▁1/8
xcessive
▁Severe
▁instill
▁unfold
thern
▁polic
ERRE
▁worry
▁speci
▁talents
▁aggr
▁pest
tamente
▁salud
▁Prof
рав
▁underwater
▁runner
▁arthritis
▁4(4)
▁Victims
▁Wan
▁Show
*:
▁visitar
▁waiter
▁saved
▁constructively
▁ends
▁photographs
▁Introduce
njury
▁Crem
▁printer
conduct
▁blog
▁oxides
▁underpinning
▁regimes
ermaculture
▁vectors
▁windows
ggi
▁Reasons
▁Gospels
▁friendships
▁passages
▁scarce
CLAR
▁historic
▁timescales
▁(50
▁Magistrates
arlier
▁grand
rea
▁concise
plication
▁grove
▁Colon
▁hinder
ittà
▁(7
▁106
▁legislator
▁169
▁sena
ends
▁Location
▁jury
▁Four
phora
ncome
▁Factors
▁Solve
Fl
exterior
▁Defe
▁auxi
▁coordinator
disqualification
▁tiles
therapy
▁что
▁resign
justified
▁demonstrative
▁Brother
▁incurr
nejn
▁hammers
▁PEST
▁opin
▁categori
▁emp
▁parks
lene
xplain
▁statuses
rtisanship
▁locat
▁server
▁GPs
▁EFS
▁conven
Hon
▁masses
▁chapels
▁clips
▁externally
▁microwaves
▁bottle
▁privileges
▁heading
▁Ve
maleduka
list
▁sq
▁airports
ANT
▁jueg
ship
777
▁nurtur
eresa
▁spiritual
▁Joy
▁metro
▁allocat
ira
▁confuse
hle
▁bir
▁entails
▁timing
▁1988
▁Strengthen
▁Key
SSM
Aw
▁isolate
kollu
lary
▁Ent
▁JRC
▁MHAG
▁Delhi
moi
▁acquaint
ESD
▁alignment
▁għad
▁rank
oliticians
▁shampooing
▁Fruit
gni
▁packet
▁quota
rt
▁surveys
▁talent
▁Practices
▁chair
▁neighbours
▁Mediation
tiva
▁latitude
▁solo
сам
▁(‘
▁pint
▁AID
ena
▁ref
▁Glass
AR
▁assignments
▁swing
▁tastes
▁memor
▁biog
▁tough
▁stressed
laboration
▁minimised
oughing
▁Kos
▁interdict
ective
▁clubs
▁interiors
estar
▁LEDs
▁questionnaires
▁jobseeker
▁83
▁Cost
▁lifecycle
▁Jane
sius
Quand
▁edges
▁(17
▁FC
▁spots
▁3(1)
▁allergic
▁25%
ervata
▁XX
▁hoy
▁Correction
▁89/10
▁cage
▁conve
(14)
wer
shrin
▁vol
▁Lea
utes
▁tariffs
▁pale
Bor
▁quand
pay
▁elect
▁IMP
▁fide
IoT
▁tale
▁opted
erq
▁stars
▁harvest
bien
▁"*
tt
▁indoor
passes
Apply
▁petition
sult
rnat
▁approve
drive
▁CA
▁gent
itate
▁hous
▁disputes
▁Visi
▁earn
▁yields
▁pyramids
▁remedi
▁IX
▁1924/2006.
▁consequent
▁timescale
gina
7.0
ooking
igestive
ticle
pr
▁reproducti
Kap
ħaż
▁ke
▁procession
LAN
CHI
▁transplant
▁publicity
tá
ches
▁Guz
▁CD
Pa
▁Eine
▁clot
enti
fication
▁Outlin
▁Far
▁deb
▁Receiv
responding
▁sy
ANI
▁Indicate
▁wars
▁Paol
tarianism
▁workspace
▁PR
▁Qualit
▁magazines
▁Magistrate
sa
ttractive
▁caps
aqqa
Sever
operative
▁Charg
escribe
waħda
▁Celebrati
5)
ACT
▁remark
▁refrigerat
ч
▁photograph
▁incentivis
▁flights
ittle
rsi
▁decreases
ieħed
found
▁expanding
▁organiser
▁PARTI
▁rejection
▁gioc
iscal
▁dashe
▁Romania
6)
▁hexa
idad
Scus
residual
▁fibres
▁Sacr
▁Ya
▁big
ер
16)
▁dé
▁recordings
voca
hur
▁ris
assemble
ifferences
▁Rand
2006
▁Ann
chenge
iji
folding
▁nuts
▁paths
▁sm
▁stimulate
▁Sho
▁pur
▁stepp
▁fertil
▁conserve
agħt
ould
▁distr
▁commented
▁signifi
▁Certificat
ería
▁pollinati
▁hono
▁nap
hydrate
▁mp
▁integr
▁Marsa
▁directives
gons
aut
ange
▁breaks
iority
▁Clean
▁Gro
▁lip
▁PI
▁PLAN
▁Twent
77-
▁probabl
▁"0,
▁bricks
1972
▁naturally
▁Operation
▁601”
▁7(1)
▁formats
spoon
▁Handl
Inde
substitution
roperty
▁Call
ify
▁hydr
▁sad
▁Bir
ttles
▁recom
▁malo
▁DO
▁Olive
...?'
▁57
▁subsidiar
▁Credi
emographic
ski
pru
RACT
sumption
▁harmoni
evertheless
▁acc
▁frames
▁affirm
eter
mod
ettes
▁aesthetics
oundtrack
lling
▁1070
gé
add
2."
▁scrap
▁brut
▁2006)
erste
▁upgrade
во
Mandatory
▁Designs
91/
▁pri
Wild
▁Numbers
piens
▁posters
wa
ris
▁Flower
3-
soli
▁это
arcases
nate
PEA
▁decode
"")
kka
▁dedicat
▁inks
▁Xu
▁lift
onil
▁budgeting
ADI
▁unw
55
▁specialists
▁adjustments
oje
▁Cares
▁мо
8.
▁culturally
Assisti
sion
▁actor
owed
arnishes
▁elaborate
▁interviews
▁sc
▁Element
times
▁pyr
esty
90
▁rob
▁conditioning
▁sup
ischarge
▁von
▁Becom
ophosphate
lui
isters
▁Past
sculp
▁Collect
▁commission
▁tre
llaboration
▁"1.1
EIP
▁Patric
▁este
1976
ebbu
ilver
UR
tradition
oving
declared
▁translat
1).
▁transitions
ND
▁interconnect
▁solved
▁frequenc
▁78
▁inputs
▁€660,
▁webs
46.
PRI
▁Way
▁avis
▁193
▁2011.
IB
Again
mel
List
▁underlin
atic
▁APP
▁0,7
ime
best
▁Fu
▁29(2)
ostly
▁sciences
eko
▁watering
▁personas
ively
▁columns
▁Departments
▁litt
▁reserv
▁Print
▁ogg
min
▁Initiative
▁expedit
▁clima
▁coll
300
Submi
ġġa
▁waive
enter
▁Jun
.............
owing
▁Term
▁мн
calling
▁14(3).
▁thin
▁recalling
▁Recruit
▁Ash
▁91
▁SP
NIC
▁45)
tage
▁10,
▁implant
ile
ros
Importance
▁tank
▁Fat
▁aboli
▁Electric
▁Twi
penta
uana
▁ħa
▁mezz
▁intersecti
▁frust
▁devian
RF
Assist
▁Environments
он
come
▁et
rds
▁gen
easing
tructural
▁irresp
rated
raini
▁bass
▁то
holes
appell
▁commemorati
▁25-
▁Ek
sation
estoration
rgent
irculatory
eb
art
▁objection
ization
▁incapacitat
sch
este
inu
▁writer
EP
nst
▁Reg
▁faces
▁skim
▁206
▁14.
19
▁______
▁MEN
TA
▁sail
▁streamline
Hay
ham
▁demands
rape
▁Mat
▁Discuss
TC
ited
oma
▁fora
▁lactat
20,000
position
▁Think
▁incomes
▁Tra
vice
▁tight
▁respects
▁<
echnical
aries
▁(20
voy
▁font
▁ship
orting
sabi
▁Wal
mer
▁Ecolog
sts
▁pasta
▁notations
2.0
sions
▁Par
rmat
rose
flies
▁2017.
ħt
▁dramas
ivial
pp
ез
DIA
ceans
▁mit
ronaut
▁Gr
▁discourage
orum
uff
tella
dem
centr
▁closure
▁1.1.
')
lia
ternal
denti
▁intercultural
▁Um
ellow
▁wav
eren
▁lid
atch
alla
ttat
▁Boards
90%
▁79
ci
FS
▁posting
Ray
▁Cel
chard
▁rever
stop
▁cha
ief
logger
▁ji
ст
▁onto
▁prend
▁Vis
generate
-1
▁Laun
▁Beet
▁Sed
isan
228
valve
▁00
▁Initia
Signs
atelli
▁scal
▁gla
119
▁activate
/14
▁effected
rig
▁char
▁Ment
▁Eu
__________
▁2006.
tors
iny
Lu
Normal
▁Dom
▁revok
erais
llocation
MATE
ISE
zul
▁nutri
▁Net
ncil
XXV
▁3.3
orn
4/
outs
▁mitigati
▁Encourage
▁clearing
▁SE
val
▁17,
holine
PI
they
▁Qualification
▁Buon
ilos
51
▁Ra
▁jinfe
ROM
46
▁Rubb
▁Priva
▁told
▁discriminat
ħe
▁Pal
RC
num
............
▁questioning
sight
▁Earl
ission
▁Bee
▁shorten
erennial
TENT
ITIVE
▁Partit
▁era
Wood
▁Għa
nen
▁consign
text
ncluding
▁wr
4,
▁admi
gor
▁Acknowledge
6,000
▁seasonal
oth
pt
amp
▁Clau
▁costing
▁Acknowledg
▁disrupt
▁bean
▁(2).
▁Consum
mble
Es
iting
▁cues
Digitis
▁SEN
nto
▁kil
8)
SM
▁cy
oi
▁refinanc
rotection
▁substantiate
▁dm
▁gluc
▁colonise
portion
AGE
ening
hic
ubble
▁COL
▁migra
stablishment
▁enforc
▁hemm
oil
lost
tanding
fest
ded
▁launche
▁4-
ecommendation
▁ad
▁myster
lets
▁Wo
▁persisten
▁Pla
SING
VC
▁preced
▁Enhance
etter
ERS
▁lit
▁Glu
odd
▁fli
affin
ceived
PS
HI
ountries
▁NOTE
▁€1
▁colonis
ab
▁6,
▁aber
room
▁une
CR
▁rep
▁father
stituted
pes
▁federation
/8
MER
Moder
▁gov
▁cam
▁unt
▁expens
HO
neous
▁identifi
▁lamp
Du
meter
ALS
▁jo
▁ve
rack
▁nie
sta
fa
▁quot
▁expedien
▁fr
dering
ECTIVE
▁sco
stati
olic
▁ġe
emia
▁z
uel
ct
ste
mmit
itrat
rse
pronomi
listing
▁Nor
▁Directorates
▁ce
▁(1
icate
hoo
▁ADDITI
▁eg
▁aids
Pb
▁Bla
▁lathe
▁Dec
agon
▁mare
▁subs
▁AR
etting
▁embryo
▁Ru
▁Competen
▁aris
▁sit
thorn
illian
forming
has
▁securit
▁astron
erei
wel
▁mitigat
▁impl
▁quanti
▁Integrat
sea
▁Summar
transmitte
ures
09
▁val
▁conserv
ute
NTS
ended
▁Ein
enz
take
Pace
▁seize
ods
closures
▁subst
usse
uber
▁Musc
1999
print
section
▁anniversar
mes
tta
▁trades
▁fabricat
estament
▁sur
▁Għajn
OAM
▁parti
ids
Stone
IFO
▁substitut
▁fol
▁2002.
33.
▁29.
generation
anche
▁celebr
tung
ag
ically
▁exo
Her
▁differentiat
▁bene
89
5.1
.0
quet
▁Calculat
stat
▁pot
victims
ntly
mportance
will
▁Ge
rib
bol
uise
onfiguration
90/
aff
segu
LINE
ctor
lky
от
nitiatives
▁practic
▁Spirit
ategory
▁morals
aining
ainstream
ett
▁2."
▁accrue
scribing
him
▁cra
▁Ethic
▁sho
▁Hono
▁sti
▁actuat
location
late
▁cab
ely
▁Devi
nstitutional
▁tim
▁liner
▁mail
▁10(2)
▁extradit
...'.
malsa
▁reconstruct
▁narrat
▁Lau
ills
tant
MA
▁deni
▁uns
erina
▁Maxim
Be
Ref
omolog
ren
judgemental
▁Wel
▁Fal
versal
▁IM
▁ripe
▁FIL
▁CONT
Argen
▁rota
uck
niżmu
ebsite
amines
▁bone
▁innoc
▁redistribut
oni
ountain
▁THI
ju
rel
03
▁Carro
▁gras
row
-9
elled
Ho
▁12-
Priva
sin
interess
Pour
ast
▁Equal
ssage
▁parl
87
_____
TIVE
bert
▁Chair
▁scan
▁commissione
г
▁ko
ready
atory
agrees
▁(1,
▁toile
cons
nn
tim
▁harness
▁secularis
stand
asts
ODS
piration
aħ
▁Agricultur
▁neces
▁codifie
them
SO
disassembl
logy
▁Ben
ssimu
▁1."
▁boo
eterin
▁aut
▁Eligib
54.
iety
▁Anna
habite
▁pres
nti
▁congruen
mproving
hy
▁lotion
kkan
▁Regula
▁str
▁Cent
▁Coll
▁wil
▁Implement
▁ter
hern
ret
▁conc
nol
▁dell
▁avenue
figure
ecretary
▁em
▁pul
ume
what
▁contextualise
ey
inen
3.2
▁bath
ration
▁cultiva
itation
▁601”.
mba
tious
▁accumulate
diver
IONS
monial
fork
connected
CO
▁entrust
Architect
cing
raw
Main
folia
write
▁Rob
lie
▁€3
Combi
▁smok
▁illustrat
▁Model
project
enant
0,8
tting
ay
pien
▁sem
102
▁Regulat
FIN
▁oppos
▁visualis
▁Multi
measures
office
arb
who
track
▁4)
Do
Għa
OL
ná
veral
lich
800
EED
changing
lot
Lo
▁BAC
CU
▁1/10
▁maxim
Euro
COND
▁harmonis
▁jam
▁prop
certain
▁rega
har
▁FU
▁MI
appointing
nteroperability
▁1774/2002.
ying
organise
04,
▁Mg
assessed
▁Structur
▁unlike
Rol
▁popul
cos
inning
▁inconsisten
▁Tw
respect
echnician
words
physical
Authority
countries
▁496
▁diversifi
knowledge
effect
ssing
▁laund
▁sca
▁Assis
application
120
▁missionar
▁Mode
nners
conditions
first
erħ
latory
utti
shing
▁cr
community
għa
mmunities
materials
ographical
example
utter
follow
▁INTERVIEW
reference
▁FOL
rese
fund
called
shore
society
llite
stic
grass
NG
▁perpet
without
hirts
00;
▁circ
resources
payment
▁examin
▁persua
situations
declaration
▁Vi
ita
force
common
family
ceramic
available
nde
expressions
4/6
School
interpret
▁Foot
Securit
▁(**
▁qua
▁Bio
gli
ací
stag
400
Ż
▁Institution
voice
plan
frame
bad
body
vot
aced
préférer
istence
technical
REG
literary
IGH
▁cataly
Sim
▁Norma
management
head
▁Mini
nutrient
(2);
▁emphasise
2016
▁Nurs
Select
establish
transport
audience
Directorate
▁Friends
▁Custom
urable
trop
▁Mix
Chinese
region
▁architect
textile
▁remo
substances
itary
▁98
mouth
laws
processing
aille
increase
Decision
laying
▁28.
foreign
months
transplant
choices
ifying
National
▁Addition
▁wa
education
:00
traditional
▁ES
stakeholder
already
effects
population
nced
narrate
▁valu
Place
itte
Internet
quantity
En
published
software
▁Typ
02
developed
electronic
benefits
Education
ists
▁blu
minimum
response
EXE
flat
ficial
AF
double
organisations
expression
Application
mix
agricultural
operate
colour
confidence
Studies
detailed
Winter
Legislation
Geo
within
esters
piece
Indian
Management
|__|
democratic
front
Ġ
Further
Section
circumstances
2020
living
demand
toxic
Secretary
classroom
giorno
auction
medium
breath
vivir
Enter
regarding
FOR
brand
June
▁embed
contemporary
Fruit
sheet
integration
file
Pesticide
April
week
Mediation
occasions
parents
Will
Infant
emotions
Octob
undertaken
acquaint
Delhi
Official
MHAG
certification
▁Port
division
JRC
Link
alignment
shell
Treatment
permanent
combination
▁Cam
amending
virtu
imperative
balanced
Broad
Advertisements
resistant
agħ
interdependence
irregular
electric
limestone
sensory
Foodstuffs
master
TSCG
USDA
Business
binding
Principles
motivation
police
REQUIRE
▁suff
RSS
GDP
Portal
paragra
accommodation
dividend
useful
Labelling
military
handling
Technological
Fourth
Enterobacter
virus
output
careful
filled
(2015)
AID
Nutrition
Cooperation
Midwife
planned
sitting
Commerce
income
MIP
People
Sicily
CBF
haben
Programmes
RASFF
headings
Building
extraction
existence
ża
happy
Vella
MEPA
York
Officers
iġ
Ċ
PART
MCA
street
porque
Steps
FF
Consultation
Island
fast
sodium
CCI
fish
optic
▁Correct
economies
▁Politic
Most
green
additives
replace
6(3)
Marc
Third
Applicant
fold
qq
channel
noun
animate
focal
▁Inter
▁scar
bread
ssive
Well
race
strangers
IP
▁probab
path
está
Power
lier
Profess
▁ortho
▁dist
planting
upper
litre
preparat
wear
menos
allowed
sustain
same
988.
subtract
steps
BY
iere
historic
War
tivo
llergic
magnetism
phone
metre
liness
▁165
▁immun
▁capp
.12
ogether
OD
▁pens
Name
setting
governmental
salts
▁153
hallenges
Reform
▁pronoun
▁memori
1996
successful
ropical
aller
relationships
fishing
Remov
▁recycl
ayer
alcium
adio
▁defi
▁125
▁tun
ears
▁́E
Le
hace
serva
rry
mamma
▁gran
▁realist
jobs
▁engine
ulizija
м
enden
drying
POSITI
▁prompt
.2.200
whole
Person
therapist
iterat
▁jaq
mple
ee
▁paint
Ou
rator
ajnsielem
talks
▁huma
Being
▁5:
cribed
▁Glob
▁treasure
El
palm
▁kidney
loaded
.5.
▁sauce
▁consid
former
▁decade
▁entrepreneur
▁determinant
▁Spe
▁aflatoxin
▁quadrilateral
▁motorcycle
▁mollusc
▁announcement
▁explosive
▁instruct
▁hammer
.2003,
pets
▁telescope
away
▁addiction
▁monument
▁halogen
▁enlargement
▁Current
▁circumstance
▁superlative
▁chromosome
▁earthquake
▁cigarette
▁disadvantage
▁carbohydrate
▁Condition
▁derivative
Serv
juries
▁emotion
▁ANSP
▁transaction
▁ergonomic
ejj
▁Dem
▁1,0
dé
ocal
▁Artisan
kom
cur
▁listing
▁laqgħ
▁strain
▁bleach
▁Natura
capitalise
ura
▁hind
calcium
▁upward
▁191
lé
rials
BS
▁fitting
groups
siste
▁Bl
▁Resourc
▁argu
▁organization
3(1)
▁cro
▁74
noon
▁celebration
nometric
▁bird
▁Moral
irspace
decent
reuse
▁solvent
▁hack
INT
▁Down
▁destroy
▁believer
support
▁damag
▁bras
arms
▁supplier
▁elevat
▁singer
approximate
▁danc
▁(19
somma
▁embar
▁advertise
furkett
dell
▁homophobi
▁settle
▁abs
salt
▁cumulati
ccident
bbe
▁steam
▁inaugurate
▁pasa
caring
mpathy
▁adver
ize
▁infra
għad
ked
▁glossar
points
xposure
▁ficti
post
▁guilt
evening
▁Russia
ables
erbufos
▁sancti
990
▁spore
▁Audit
▁honest
▁Safe
▁klein
▁suffix
stuffs
▁giorn
ière
▁63'.
ressing
▁compile
għaddih
nfliximab
bservation
Wo
nauguration
▁descript
▁Collaborati
minant
equence
▁glyc
▁terroris
▁consume
cientists
voices
▁motor
ubsequent
ransfusion
▁Automat
eriodic
phosphor
mutagen
ehaviour
▁81
enefits
▁compensat
ulletin
▁weakness
idwives
ò
▁gravit
▁RESPONS
▁Lino
Ordinan
▁heterogene
cilia
▁punish
aloxyfop
▁earlie
▁contraven
▁Vittorio
tomach
ireworks
▁philosophi
ше
κ
▁Vegetables
semble
▁Patr
ε
φ
▁TRACE
(2011)
Fußball
RANGE
Riboflavin
Ä
ġnien
ень
оторы
▁К
pieler
▁(€23,
▁SODIUM
▁YouTube
▁chitarra
▁colegio
▁español
▁hypno
▁invertebrate
▁masquerade
▁sandwich
▁tomorrow
▁быстр
CONTROL
Contraceptive
DMAA
Discrimination
Enterprise
FREE
Fekruna
Hazards
Imagin
MGĦAX
Madliena
Maintenance
Menhir
Occasional
Posso
Sabah
Symbols
^
ambiguous
appeler
authoritarian
carcinogenic
condensation
diskrezzjoni
dürfen
ecstasy
excipients
eżerċita
hydrox
kellu
leveraging
mphibian
nadaljevaln
nħobb
ophilic
pacifist
pantalon
puncture
qiegħ
schlecht
schmerzen
scissors
sufficiency
trasferiti
uminaries
začetn
©
×
å
énergie
î
õ
ńsk
Żebbuġ
Π
ικ
жно
крыт
ски
ший
‡
′
▁(1966)
▁14.11.2009
▁1609/2006
▁16649-
▁549-552/2004
▁852/2004
▁93760
▁ALCOHOL
▁ASCII
▁Adelaide
▁Albania
▁Asthma
▁Bartolome
▁Botschaften
▁Briguglio
▁Brincat
▁Buddhis
▁CATEGORIES
▁CLEARING
▁CONCERN
▁DIVIDEND
▁DRUG
▁Depożitarj
▁Dinenage
▁Divorce
▁ELEMENTS
▁Emanuel
▁Emmanuel
▁GOVERNMENT
▁Guarantee
▁INCLU
▁Instructor
▁Khatib
▁Klagenfurt
▁LIMITS
▁Laburista
▁Levac
▁Limassol
▁MOSFETS
▁MQRIC
▁Magazine
▁Maldives
▁Mercieca
▁Migration
▁Morocco
▁Naskh
▁Obligation
▁PIRLS
▁POSSIBLE
▁PROCEDURE
▁PROCESS
▁Phoenicians
▁Pullicino
▁QUESTIONNAIRE
▁REDUCE
▁RESPONDENT
▁Rabbit
▁Ramusch
▁Receipt
▁Residues
▁Rimini
▁Rodentia
▁SUBMI
▁Sammut
▁Sanctuary
▁Scripture
▁Soziale
▁Spinach
▁Subjuntivo
▁TECHN
▁Techniques
▁Tevana
▁Toyota
▁Volunteering
▁aerosol
▁afueras
▁amphetamine
▁anachronism
▁ancianos
▁angiosperms
▁appendages
▁apprenticeship
▁bereavement
▁bisschen
▁blowtorch
▁cabeza
▁cambiar
▁carnicería
▁chloroplasts
▁crocodiles
▁cutlery
▁côté
▁decarbonisation
▁delizioso
▁devastating
▁diagonal
▁diarrhoea
▁dieldrin
▁diminutive
▁discounts
▁doctrine
▁drainage
▁drastically
▁echinoderms
▁eclipses
▁enormous
▁espresso
▁flavours
▁fortunate
▁gloves
▁grasshopper
▁größte
▁haemoglobin
▁hamburguesa
▁homeostasis
▁hyperbole
▁hyperbolic
▁impaired
▁impairment
▁inadverten
▁inhibit
▁insensitivity
▁insoluble
▁interrupt
▁intertwined
▁intimacy
▁intimidat
▁kilometres
▁kreditu
▁llevo
▁lymph
▁manuscript
▁medulla
▁mitochondri
▁oħra
▁parachute
▁pendulum
▁pescado
▁pilgrim
▁plaît
▁polideportivo
▁polystyrene
▁pomegranates
▁possesive
▁precipitation
▁puddings
▁rearrange
▁recepcionista
▁reciprocity
▁reimburse
▁remarried
▁retrieval
▁scaffold
▁seguridad
▁sleeve
▁terracotta
▁thermistor
▁thieves
▁thrillers
▁trabajo
▁traineeship
▁transcript
▁trapezi
▁tsunami
▁täglich
▁ulcer
▁ultraso
▁unconventional
▁unfortunate
▁vacaciones
▁vicinities
▁Żejtun
▁βρ
▁П
▁гриб
▁девочк
▁ламп
▁мяч
▁никогда
▁окн
▁тепло
▁
▁551/2004
▁ACTIVIT
▁EBF
▁Hilde
▁Medieval
▁bodice
▁declension
▁descibe
▁mercury
▁perché
▁raġuni
▁tiempo
NSAIDs
TARGET
excelente
verwhelm
▁21528-
▁Brassicacea
▁CFCs
▁DESCRI
▁Farrugia
▁Indicativo
▁Pharmacy
▁STDs
▁Switch
▁amphitheatre
▁appriciat
▁borehole
▁carpenter
▁confusion
▁derecha
▁dissuasive
▁efficacy
▁guitarra
▁isotope
▁millimetres
▁ourselves
▁pourrait
▁psychology
▁restraint
▁tactful
▁ungesund
▁veneer
▁утр
▁хотеть
Amato
trejqa
zucchero
ł
▁Editor
▁Għawd
▁Raflu
▁Vassall
▁crowd
▁genotype
▁herbivores
▁syrup
▁turgid
▁volontari
▁Н
▁нек
▁при
1829/2003
Gudja
ascensor
ewwieq
tajjeb
▁adjourn
▁clutter
▁colazione
▁fasteners
▁habitación
▁ideologies
▁meħtie
▁ppubblikat
▁sardonic
▁umbrella
▁waterproof
▁APPLI
▁Answer
▁Crafts
▁Intervention
▁contraception
▁liegt
▁microcontroller
▁topologies
Aliment
Hypno
Mexican
dhury
mauvais
prendere
prendre
roccoli
ņ
ви
жд
ру
√
▁OIL
▁Umwelt
▁bubbles
▁copulation
▁cuoco
▁diminishe
▁revanche
▁santé
▁sprains
▁subsections
▁tête
ATURA
Platform
▁academies
▁phishing
▁COORDINAT
▁Liberties
▁MARK
▁arbitra
▁bulb
▁capturing
▁conejo
▁cotton
▁secrecy
▁stellen
▁бы
IFICATION
Quién
же
▁2294226
▁Cemeter
▁Hindu
▁Utili
▁certify
▁curtailed
▁hydroxide
▁voucher
▁море
SWMED
сь
▁desalinati
▁headache
▁molto
▁ojos
▁synonyms
▁эта
йти
ти
▁Geometry
▁Smith
▁Constables
▁Responsibility
▁refraction
▁sprawl
istorical
ин
▁Machine
▁Msida
▁GUI
▁Gamma
▁Quarterly
▁batik
▁clerk
▁maternity
▁paghetta
▁quantified
▁sociaux
▁technicians
▁voltmeter
▁Kleid
▁pharmacie
TIFIC
▁HTTP
▁detergent
▁spillages
Otherwise
lammable
тер
▁Ensemble
▁infusions
▁spanners
Thermo
йте
▁abstaining
▁gratuit
▁mysterious
▁Mendel
▁ayuda
▁stitch
▁unconditional
▁Colombia
▁OECD
▁Vaccin
▁ailments
▁sonnet
▁MINOR
▁gamma
▁trustworthy
▁Efficiency
▁persuna
▁scholars
▁adolescence
▁microphone
88640
ajjar
steroid
▁panett
ascism
▁connotation
▁shortfall
▁blank
▁schnell
Latvia
▁banana
▁entrench
▁spiral
▁malnutrition
musik
▁Nicotin
▁dissatisfied
▁musique
▁microbiota
freddo
▁Vittoriosa
▁parenthood
▁breakfast
▁oligomer
▁regret
▁Excuse
▁rifle
▁€100,000
▁apology
▁collagen
ог
▁Surgery
▁Wohn
▁applicability
▁expatriate
▁fungal
▁creatures
▁bushes
oredana
▁wetland
▁disappear
▁gaspill
▁harassment
▁phyla
▁shield
▁steak
PPP
▁JOB
▁commandments
▁mascot
▁pizza
▁tennis
AFIS
▁Recycling
▁asthma
▁wohn
▁ballet
▁kemm
▁laptop
▁prosperous
▁Basque
▁Marcelli
aganza
▁grafting
ísimo
▁burrs
▁menú
▁zero
▁cruelty
▁hometown
dotti
rescind
▁Welsh
▁surgery
▁dispensers
▁suc
eluf
DPC
▁CPU
▁corrosive
▁gauche
▁wonder
▁greasy
rlaub
▁spelt
▁stationery
uidance
▁contingent
▁Transport
▁caldo
▁discredit
quartile
▁Auditorium
▁2013-2015
violen
▁attire
▁courteously
▁extinguishers
▁routings
▁sterilisation
▁Photograph
▁venire
▁hairstyle
▁crown
▁für
▁Eurostat
Recogni
▁melamine
▁synergistic
GCEE
▁epoxid
▁intercourse
mindedness
▁pasticc
▁discern
▁ballad
▁dismiss
▁droit
ENCY
incremental
tifel
▁cracking
▁debug
▁Fingerprints
▁embrac
▁prokaryot
▁polyeth
▁15(3)(
phon
▁Derogation
▁magnification
▁diabetes
▁fensulfothion
▁mutations
▁sientes
▁burgers
▁semantic
ICSD
▁allergen
▁railings
▁preferito
html
▁deterioration
▁dovetail
▁seguito
venir
▁Turk
▁abduction
▁unsolved
Bran
▁microclimat
▁ville
▁heterogeneous
▁handouts
▁shades
▁compelling
▁Tamari
▁Feedback
▁overload
▁reagent
▁kalt
aereo
élé
▁haute
convince
parce
preferid
▁Covenant
▁Ombudsman
▁TIME
Japan
▁plywood
▁€0.05
SER
▁RESPONSES
▁bookmark
65.
ardamom
ickel
▁Solan
▁diaries
▁primitive
▁2007-2013
Colosse
max
▁corso
▁Large
Image
▁2010-2
▁jistab
Kapu
Tnejn
▁inspectors
▁pictus
wollen
▁Abuse
▁comedic
filtration
▁Phil
▁Root
audium
▁Shepherd
CIEN
▁admoni
ciò
Cham
▁combien
▁enclosed
▁condem
▁purses
▁immunity
clockwise
Pollute
▁problematic
othermic
▁15:00
▁deserve
▁Ruben
SALT
pivot
▁Eurovision
moins
▁44(3)
▁RAM
kwadra
▁Midwives
▁flame
mutagenic
▁signifiers
▁stiff
▁kleinste
▁parecer
▁endpoints
inflammat
▁selves
▁dissent
▁mercy
compressed
▁degeneration
▁adware
▁MMS
êt
▁tilt
▁préparer
rüh
▁Automation
▁bruises
▁turnips
▁competency
▁STAT
▁lenders
▁stocktaking
▁inelastic
▁viral
▁Frank
abbar
▁alleges
▁activites
▁tournament
▁colourways
▁rotary
▁signage
▁Acceleration
▁redox
▁circumscribe
▁Pressure
▁overlooked
israq
▁winning
▁2215
▁Objective
▁Carob
▁spill
inerals
lution
horiz
▁segmentation
▁WARNING
▁tarta
karyot
на
chasing
▁Anthem
clippers
detent
▁verstehen
ettuce
▁32(5)
▁Motion
▁intact
▁Battery
▁kleiner
▁hospitalised
▁Partner
hra
▁intelligibly
▁Beauty
▁ingestion
Kbir
▁discrepancy
couple
▁rides
▁Cordina
▁aspirational
▁Priest
PROTEIN
▁medication
signpost
kaufen
EMENTS
▁Angel
▁treno
għaddihie
▁Pyridoxine
▁opinas
▁territories
▁eruption
▁abrasi
acetyl
▁circulatory
▁foregoing
▁magn
▁headland
▁goats
apporter
▁komm
▁encanta
▁Syria
▁parchment
▁flux
▁transfusion
sychoanalysis
да
▁glycero
menù
▁xier
4,000
kler
1.2012
▁valoris
▁organizar
garia
▁macell
▁Vater
▁3.1.3
ajn
▁cancellation
▁¬6
Hunting
▁externalities
▁viaje
▁candidat
▁parque
▁extr
▁relaxes
▁pastizzi
igure
▁Pork
▁Kuns
▁ammeter
▁Complet
heptachlor
PORT
▁doubling
▁energ
▁razz
Later
▁generalmente
▁1942
dentista
meansthe
▁deceased
▁2343
▁7(2)(
▁Rama
▁sick
▁feste
▁indicator
▁seriousness
▁Pharmaceutical
▁chairperson
▁creditor
▁refresh
▁roasting
▁macchi
▁2012-201
▁choreographer
Europarliamentar
▁polymerized
▁optical
▁"‘(
▁Medal
YMENT
Unemployment
▁1993
▁methodology
▁għana
▁Facilitat
Watercourse
▁abita
▁Humanities
▁housework
▁13(6)
0800
▁Ortho
xidizing
▁beforehand
udiovisual
▁VITAMINS
▁scoring
▁gaz
▁Stein
▁treaties
trumb
▁officio
▁Sheet
▁irresponsible
▁MQ
▁lunes
eolith
▁garnishing
▁pigs
▁bulletin
▁TVM
▁CBC
équi
▁mobilisation
▁Pipe
▁Venez
zarole
mantener
▁offline
▁Scout
▁Phy
▁Swed
▁immense
▁elegante
▁poten
▁fav
▁migliore
▁nursing
▁WAN
MAL
▁lethal
▁slot
itudes
nterface
GY
WAR
▁IVF
▁resouce
▁interface
EBA
BLES
▁jib
▁educator
▁Father
toriz
culty
▁cartoon
assiere
▁Manag
▁Undertaking
▁breakers
vious
▁Gold
▁augmentati
▁quantitatively
▁Zone
pari
drums
ottom
ovine
▁homophobia
furketta
▁MEP
▁weeding
zepp
▁poner
▁Manufacturing
▁IMFC
▁pastries
IŻ
▁oven
▁poco
▁racis
▁utiliz
/2012
▁2018.
▁receptor
truf
argin
▁kiln
▁sitt
▁Tran
▁Arch
▁vulnerabilit
▁assured
malta
ġen
▁insolven
▁indicative
Works
drabi
▁metti
▁ventr
▁nectars
rzt
▁PROTE
▁Pope
▁pancrea
▁Foster
▁Recording
0.
attoo
▁tech
▁Diary
▁barometer
▁commas
-2015
▁Speak
▁96/8
▁tradi
▁1966
▁cords
▁tessellation
▁substanti
▁shortages
▁mitigate
mantic
segund
▁PET
▁Marco
▁permitting
▁CAT
CP
▁settled
▁prompted
Entrepreneurship
▁animated
▁Communion
▁omitted
▁moralities
▁surgeon
▁peacefully
▁traged
▁protectionism
▁Kent
▁Entrepreneurs
▁Oasi
▁deposition
▁burning
▁destroyed
▁jiss
sensitive
▁ESF
▁2015-201
▁tags
ATIONS
▁Memb
▁collo
▁Choos
▁corpses
▁mouths
▁commissioners
iliation
▁Experts
minent
ört
▁collegia
nterview
▁periodically
▁capacitor
▁Therap
▁relax
▁husks
▁3000
▁gauges
▁rewarded
▁Beliefs
▁protoctists
▁windpumps
▁Sergeants
▁hyperlinks
▁supermarkets
▁jackets
▁legends
▁divergences
GAP
▁Za
Pued
▁specialisation
▁mainland
iekol
▁finishes
▁hatching
żaf
▁persuasively
▁terrac
▁stylists
▁underages
tura
comprare
▁severely
▁(18:
MDGs
▁Veron
Mili
icellular
▁33(2).
337
▁scanner
▁fals
▁linger
▁5(1)(
▁nut
GREE
▁presto
ABO
▁0.99
▁reassess
Simplify
▁Rain
▁spam
▁18(3)
▁innovator
▁stall
▁insulator
▁torches
Curran
kku
▁storyboard
wäre
▁materialise
▁30,000
0.5
scienti
interessant
▁Limited
▁carta
▁Charge
▁Variet
DATE
proxim
visits
▁ovens
▁contour
▁complacen
otto
▁assertive
▁jumping
▁Collaboration
uri
molte
▁(08
▁homework
LLETT
▁lunch
▁argumentation
hickpea
271
▁167
▁advis
▁civi
▁stopped
▁fault
▁depart
▁deber
partager
▁regulators
rolled
▁Semi
▁pop
▁grande
▁molecule
▁0.1
▁browse
▁locking
▁vellu
▁Gul
▁pelo
zar
▁fratell
▁Mel
eille
NDING
▁logically
▁historian
Essential
ieved
▁Resource
Overall
▁piace
▁tryp
Dire
egalit
2006/
Dimensions
nsid
▁metering
▁sħab
▁boxes
▁surf
▁tenth
onyms
▁Africa
▁bleaching
frank
▁shortening
▁diverti
▁Issuer
quand
▁insect
▁sanitis
▁ве
▁590(
mantle
primer
▁earned
▁soften
▁Imperative
pagna
RTIN
▁egois
▁ductil
stigation
4021
agli
▁satisfie
▁LDR
▁Nav
▁1992
multiculturalism
▁concentrat
-400
▁endangered
▁Haus
▁tuck
acebook
2008)
schwi
▁Abd
Għad
dox
▁Fun
tner
▁traine
▁strains
▁carbo
▁choi
▁fade
View
pandemic
EPA
▁worse
ltaq
pit
▁withdrawal
Till
franc
▁migrating
(2,
grocer
▁herbs
▁"¿
▁(18
▁pecu
Off
▁hearse
Synaptic
▁distill
▁Alb
Morality
spicu
▁violin
▁thousandth
▁2014-2020
▁8(5)
amyla
▁baking
▁blast
▁profess
▁prompts
▁expressively
▁Costs
▁mime
▁pome
▁quoted
▁GC
▁hook
▁toxicity
CRL
▁dati
fective
▁gelatin
▁camis
▁dopo
ères
etabolites
▁¬4
▁calliper
▁Reading
▁(97
rst
egnant
▁9(4)
▁depicted
▁Patient
▁incur
▁decades
▁birds
usions
▁sauces
▁excuse
▁к
sebac
▁determinants
▁kidneys
unishment
▁originality
▁treasures
▁tropical
laugh
▁disparit
▁untrue
▁Slovak
▁до
près
▁engraving
▁midwife
▁chromosomes
▁negozju
▁ICAO
▁groß
▁CSRs
llevar
▁BFDGE
▁motors
▁creditors
▁llamarse
▁souvenirs
▁Stefan
▁histidine
▁gimnasio
▁yellow
▁Hungary
▁marijuana
▁Sources
▁jump
▁Characteristics
▁LEAF
quelle
▁EFSF
umps
▁machen
▁believers
▁alumn
amin
▁Styles
▁influenza
sulfate
▁Village
▁Database
▁|
▁Park
▁referencing
▁slaughtering
▁puedo
▁Tea
▁203
kola
▁misleading
▁wealthy
▁4(3)
▁Simple
▁socialisation
▁Frau
▁withhold
▁coastline
▁subsidies
▁expires
▁07
▁hats
CTE
▁soda
jja
▁Dimension
▁engines
▁MH
legance
news
▁persists
▁Gen
▁batches
Recently
testing
ucrat
▁Curricul
▁Nutrient
▁masks
▁Guar
▁Malte
▁Beverage
hap
▁continents
cronym
▁proceeding
acin
▁Substitute
anned
▁choreographing
shar
itnesses
1948
ħalla
▁Short
▁Constituent
▁elastic
▁bowing
▁invalid
▁summaris
jeune
▁110
ERY
Just
▁partial
6.
rauche
rays
▁eighty
▁Giu
▁balloon
▁encompassing
▁electroly
▁bottles
ortions
ensile
tub
▁counterparts
▁Ruth
▁specialism
▁hace
laqgħu
▁ecommerce
▁steaming
répar
▁CVs
▁Jobs
distan
Converse
vents
▁divorced
▁Traditions
▁че
▁Teachers
▁Willi
HT
orah
▁exi
▁Wieder
1950
▁investi
▁Talk
ilitary
alone
▁1996
▁9(1)
▁(4)(
eurs
▁ceramic
▁ahead
▁gef
ispett
rfa
▁berth
▁404
unch
rum
▁BA
▁servers
CHA
▁apost
▁Gent
ánt
▁appar
TELL
▁affe
▁Matter
▁...'.
▁Caps
▁assure
imentary
ase
▁imple
▁inviter
▁Explor
libre
▁Mak
▁202
wid
▁Uffi
▁anthem
▁cata
▁detach
Like
▁chamber
▁particle
▁INF
▁conta
anie
kit
▁Diese
▁bello
▁defect
▁thesaurus
ENTATI
▁jitt
▁ceramics
▁classic
▁Monitor
ritti
torat
▁2003/9
▁modernise
mpin
▁animate
▁Produce
▁ambi
ings
tained
▁187
▁mimate
▁arrived
▁combing
▁physics
ICI
olo
psy
▁"[
▁07.
ordinates
▁transpose
Clear
laims
▁menos
▁tenis
hensive
▁pred
▁metre
oxide
importanti
▁alternates
▁seminars
▁protocols
▁Authorisations
▁Bishops
▁benchmarks
▁aw
▁neighbourhoods
SD
▁vu
▁ġo
▁gear
▁Obtain
▁Touris
HTD
▁pests
▁discontinu
▁donor
▁fur
aqgħu
▁cohabit
▁prospects
▁exam
arameters
raham
poli
▁DL
inability
trong
▁Broad
cific
▁Enter
▁negotiat
▁Octob
▁marin
▁Demonstrat
ljan
▁classification
male
lutan
MTO
gner
▁parasit
▁pulling
▁mammal
▁stray
▁separately
▁Representation
▁atoms
passa
▁Marc
▁triggers
▁vivir
lleria
ft
▁economically
OFFIC
▁toxic
▁liberalis
▁privatisat
▁|__|
nders
▁Let
▁HER
methan
rag
▁Sell
▁hub
▁parable
▁giorno
▁Winter
LES
GLAS
Summ
▁springs
▁400
jazz
adets
tat
▁€0.01
▁firewalls
▁garments
▁Geo
apte
▁(20:
dryness
▁subjective
colate
8-1
▁PROB
nquiries
ctose
raft
▁350.3
▁Bag
▁esta
▁Legislation
▁198
1980
▁Licens
▁exits
izing
/2004
racea
rti
▁Of
▁credib
▁lexi
quito
▁Ger
▁inversion
anilla
▁safeguarded
▁Inferior
▁occupie
ifting
void
▁borrower
▁fro
Kla
HOR
riendship
▁Sites
Million
victim
▁processions
doi
asi
EHO
▁analytically
▁tick
32-
▁jas
888
cul
urri
▁мал
▁Acts
dai
▁therap
▁45(2).
ße
▁catalys
▁equilibri
▁gifts
▁Appeals
▁Kri
▁Need
▁watercourses
▁Visits
assimilated
▁trains
eberry
nzja
▁walks
war
té
▁seeding
▁(14)
▁upset
odes
▁timetables
▁préfér
isqualification
nip
▁offenders
ġab
Għas
▁"39
▁Donor
Di
▁EED
mote
▁privately
umb
nouvel
▁backup
enso
(***
Ye
▁483
95
oz
▁tissues
susta
▁5(3)
▁1(1)
▁Ban
habilitation
lha
▁stack
▁meter
284,
Pep
▁figure
Electric
▁trap
▁testa
▁Indian
▁na
▁advocates
▁EX
propyl
earners
▁aerobics
▁prayers
▁14(2).
▁comm
nä
▁85
▁acknowledgement
▁Tunisians
Id
▁Egi
où
brazing
▁(0.1
▁simp
yna
Prospe
▁flooring
▁sanit
ides
▁incapable
▁assistant
▁automo
▁SO
▁"59
▁recommends
(*)
▁lock
▁Wall
▁Kid
NON
ntries
▁Plate
▁afore
▁25(2).
▁proficient
NDEN
▁glossary
▁nav
.)
hollow
ontemporary
▁(12
iour
ompat
▁tracks
▁authoriz
utting
▁indent
▁buffe
ishment
radi
▁chino
▁curricula
▁drawer
▁taper
uli
nstallation
▁forecasting
▁extracted
▁enterprise
ritten
▁189
▁sel
▁Brea
▁necesit
▁perpetua
Cutting
▁arche
▁expend
▁́Es
▁bands
Graphic
▁"38
osphere
▁compet
Effort
▁roller
▁reorganis
autobus
backs
▁counters
▁Naz
zig
footballer
ultimedia
▁Doctor
▁(17)
Que
768
▁promoter
ything
▁Pump
rest
▁5'
▁asset
▁greenhouses
▁Colo
▁suspensions
flatten
emphasised
arbon
▁б
▁noticed
▁cereb
ilberries
▁Sample
illa
▁blocked
▁neurone
▁€2.
ctivity
▁(2)(
han
rging
▁handler
▁territori
Dr
erlangus
▁Offer
▁SUP
YEI
▁testes
▁obs
▁plastered
▁nar
▁duele
seeds
2,5
5#200
IC
▁designer
▁narr
rates
▁debated
ċċi
crib
▁tomar
▁Theory
hl
ada
lder
▁12(2)
▁fossils
▁failures
▁CCT
▁pic
▁CID
▁...?'
.17
▁reassur
▁sec
äl
▁compromise
era
▁certified
40000
overe
▁liais
▁phosphate
▁Tablet
▁Genetic
porter
arding
▁dice
ffects
ismo
▁Const
▁PROT
risk
▁Mathematic
lf
▁Years
▁coincid
▁practitioners
erty
egory
iger
pecifically
▁6(3)
wwa
▁¬50
▁Trader
▁Just
▁wires
▁Hous
itis
eground
meno
coagula
ecesit
miku
mma
▁Writ
▁capitalis
determinat
▁(6
▁sħa
▁109
mla
▁BS
▁pued
▁‘3.
lassical
suit
POP
ged
willing
▁readers
▁twin
▁1400
Others
▁Leaders
▁Auditors
cle
ested
▁Binge
▁adjud
▁Bas
demption
nvoluntar
▁Infrastructure
▁unsaturat
▁Drawing
▁billi
▁lively
ntelligence
▁favorit
▁chore
PDT
▁yes
bec
▁tower
Affordable
hesive
▁applikant
▁AM
▁Seek
arrow
▁Serv
▁96/
▁Well
1.10.200
▁Ed
▁ri
▁Fran
cluded
▁Employ
hal
▁replacing
NAL
own
chia
▁mai
▁equilibr
entrusted
okes
ools
Pu
lean
▁Fra
▁iod
▁Rhi
xis
▁22.7.
6.12.200
ivores
ernels
▁Appen
▁ceremon
Glassw
geb
pic
▁qab
▁occu
ode
eaching
▁fisherm
60,
878
deviant
▁accumulat
▁LIN
▁drying
▁29(3)
meal
▁Clos
▁Preventi
▁berries
▁234
▁cultivate
Whe
gles
atives
▁drives
▁camp
▁pric
▁tracker
PB
▁(=
aħm
.11.200
▁viaggi
Wir
789
urated
FER
▁Low
?,¿
ishop
▁owner
uego
iStocks
če
▁chor
▁deput
▁yoU
▁mining
▁biolog
▁harmonise
▁mates
▁delegations
▁chains
sians
▁amplifi
played
▁Ob
69
petitive
▁guides
▁introduct
ntegration
▁concerts
278
spe
ough
▁developers
Ka
▁stemm
▁recit
▁Perm
▁AG
▁33.
▁68
▁digits
▁transpos
▁elegi
rab
▁sectioning
▁(5
cause
nofs
Po
▁1935/2004.
LU
▁totally
PT
▁irr
surface
fi
▁nu
nternal
▁sch
mul
▁Also
2019
▁centralised
▁Tas
▁conditionals
nnovative
CALL
tag
▁degrad
▁Vo
▁towel
▁Mil
rovided
▁Cap
▁lie
▁bed
▁Fir
▁physic
nitrate
▁ut
ять
taħ
▁Cas
▁irre
▁negati
cross
ntegrated
distribution
▁Separate
ezzjoni
ASA
bpt
offs
▁(35
ligible
oked
ara
agnesium
▁lose
▁profits
Li
▁interventions
jf
▁2012)
'(
▁faiths
▁uret
TENs
▁prod
▁harnesse
2008
Ta
1."
▁104
_________
▁gardens
▁Shapes
ahren
ncies
▁Conventions
▁Schwe
minal
af
nabl
▁shoulder
▁Lang
ika
.4.200
▁propagat
▁polymeris
vision
▁Qa
shoot
Presently
iem
▁scu
▁cart
kker
▁cat
offerta
▁colo
yli
▁aspir
Considerations
istin
expan
zzjon
appl
odelling
enet
▁tha
cu
dy
rows
▁servi
Values
onary
Berg
Type
bane
▁woods
▁Pul
▁offerti
visible
с
▁calci
▁mic
▁communi
12/
▁determinations
nsk
1,2
▁intense
▁Kar
▁However
▁bounc
▁80/
trat
pplicable
ealed
sour
▁Psycholog
▁Incom
Ch
scope
▁sits
ug
▁fore
PD
▁Banks
▁olds
▁1.2.
hish
▁Open
nyl
▁Session
iżmu
promises
▁nose
ico
▁Lm
ils
▁Caro
▁intervei
▁€5
▁buyer
▁escap
▁latt
5.0
▁attribut
bust
▁0.2
▁dominate
Illum
▁let
med
▁plea
▁Fre
▁Arabi
▁е
eligious
maras
issons
▁potter
▁derogations
®.
▁inner
▁Ph
Man
▁experimenting
zone
rante
▁exac
ho
urobills
▁colleg
ety
oping
▁south
401
reativity
Te
ompetencies
▁positioning
▁Por
Wh
bases
dre
▁Mu
▁Oat
unta
▁beds
test
jamb
Long
▁¬10
▁habit
▁Jab
wor
▁vesti
eur
700
+3
Upgrad
▁thro
alary
▁grazi
▁preventi
▁Daw
▁2010.
▁"56
10000
belli
RO
aw
hm
trav
nell
▁Ins
▁rotat
Assemble
▁Participati
▁Vers
chord
PH
▁Being
▁slid
▁accru
migration
▁Manufactur
▁26-
▁"3.1.
trips
tis
lating
patch
apporte
Ku
▁yea
▁march
rü
valuation
▁classe
▁requisit
▁lan
diretti
MS
▁declarati
event
▁eliminati
▁enthusiast
anning
▁linen
AM
▁planes
▁inhuman
mpetitiveness
▁plu
▁catch
▁q
egar
22
7000
hirteen
▁isq
ère
▁legibl
ress
▁cheape
nationalism
▁2010-2012""
▁173
▁12)
''
10,
▁ét
▁dye
▁mistreat
aqs
mono
trate
▁artis
▁arena
MP
tops
det
1500
ños
▁Cont
▁Creativ
▁Adopt
▁manipulat
uma
ords
ċi
Ce
/46
▁trouble
try
Reflecti
▁Efficien
shion
▁admissi
others
▁dó
X
ommercial
'...
rants
▁congratulat
▁rais
▁contextualis
jan
nds
referisco
465
▁relati
dication
▁grill
▁radi
▁Hy
▁assembl
qbe
▁Direct
▁dele
ders
limina
▁Coal
▁Supp
5.
▁mpt
ives
▁dra
isual
▁budgets
MEAT
▁Actions
ounselling
elling
oncepts
600
thers
litter
▁enc
bout
/5
istors
utz
Mou
▁suitabl
▁recept
▁capitals
▁chil
▁Fa
333
raction
Integrat
ht
ired
lute
NC
▁(*),
▁symmetr
Substance
▁45(3)
CY
▁3.1.
▁maturit
▁topograph
IG
ben
estero
▁expenditures
▁imm
2005
▁Line
.25
omb
▁impro
dis
rmis
compar
293
▁malleab
ona
/2002
onsciousness
▁peri
▁videos
lla
▁bal
itt
aring
▁dependenc
▁Simi
▁¬1
iam
▁concurrent
lates
▁schedul
▁97/
▁rec
97.
phy
aime
▁Ce
▁Resc
entemente
eld
erie
▁prefiere
00-19
Han
angle
eduk
uses
▁о
Turn
74
gh
olar
ynes
END
82.
écha
▁1/
▁slipp
rama
▁likel
ours
jaw
▁01
▁corn
onnectivity
isq
▁Asse
▁shor
▁40,
▁devo
ition
wthorn
▁spectra
embryos
sensitively
ail
1,3
ger
nship
cia
▁Cir
1-2
Coordinat
gile
▁institut
els
▁Bal
etical
għas
▁menstrua
▁__
urely
▁iodi
▁Dal
2;
polymer
▁alk
sz
%)
incidence
▁res
IE
elcome
AST
bean
▁sexis
Ideas
▁pies
ules
▁colouring
ungi
78
▁See
ided
EXT
▁Bert
assi
▁mindful
▁Centres
▁Impact
kable
▁нич
▁tripp
▁provi
otec
▁lowe
▁norm
ique
▁mgħa
TO
respirator
oles
ontroller
▁reg
esta
▁unacceptab
degrad
enacts
sanit
▁alta
sented
▁duo
tching
▁prepar
iti
.16
▁Prepar
▁Purs
▁Agenz
▁preparat
▁Moto
▁80-
ajna
▁INCO
agoni
uant
▁awards
▁exc
nial
▁diagnose
▁criticis
isla
▁¬1.
39
86.
onetheless
Fi
edness
inity
ners
federations
.1)
▁Pu
Lay
▁11.6
lamps
60
▁Mis
▁16)
oman
▁€120
▁"(1
escue
▁aired
▁histo
pok
▁Hab
volo
▁dr
AO
XI
▁ministr
earing
▁desc
▁contractor
payments
gam
earables
ACK
▁journalist
▁300,
jnsielem
alk
▁loser
encies
/2010
alling
cro
gener
▁todo
▁climati
mps
▁factoris
TEU
worthy
lisers
arriage
▁nominat
ema
▁Qu
▁starts
▁bat
leave
eum
fathers
▁clarifie
▁bur
vation
▁quie
▁Marit
▁5(2)
ele
▁repo
NST
commendation
gion
▁Cons
nversion
propri
2+;
Dw
fir
▁temperatures
▁dev
eba
weat
PAN
emic
▁Enhanc
lish
arm
▁2003/8
▁tange
▁plane
▁bay
▁Establish
00/
▁interes
rries
▁irreversibl
▁Fl
del
▁mamm
INE
cut
▁PRIC
▁propaga
evolution
▁homogen
lls
▁Bri
▁diver
▁overt
▁Hel
▁50.
▁Pet
Avi
▁educativ
▁rationalise
cent
nfest
▁fabricati
▁hesita
etching
package
ancer
▁humanit
vere
▁misplace
▁postpone
rice
enjoying
6(6)
east
2.198
▁consultati
▁sevent
▁Bell
albe
ü
▁1,7
essions
elecommunication
isc
Polymer
audio
shap
glycerides
NA
▁Offices
EL
nella
Barri
▁summari
ес
weed
Loc
cco
NTA
▁7510
tify
imescale
adventures
trian
OI
▁Rev
enerali
face
▁starte
lve
ecycled
▁har
ceptive
▁Transf
mqa
inste
ky
▁Mal
▁Persi
Taste
▁Boun
iglycerides
▁hip
▁Ġe
formally
▁151
oney
▁affixe
tw
▁dies
▁coincide
alised
▁fram
allets
▁steh
ntak
▁stripe
▁thermo
squences
▁у
▁lig
GE
mens
lett
ennial
ocks
▁observ
68
▁Mo
dual
▁postpon
▁spi
▁incentiv
▁hesitat
▁2015/
ndication
bru
▁rh
ensely
9.
▁Han
▁conclud
▁mos
▁wom
▁tran
▁2014.
oid
▁insur
sam
ikat
ass
▁protecti
/60
fetaħ
▁FRO
▁improver
▁irreversib
▁sme
▁Intern
▁san
inf
AS
▁flexibil
▁Rom
onic
▁Cit
▁valued
fen
jt
IX
ron
oces
▁Bor
bot
▁Buona
ARS
ata
ación
cookies
dio
tainment
▁neg
2010
85
ye
unde
flage
iance
aussi
rical
av
▁160
dour
▁slim
▁Ap
pendent
gua
ITP
84
▁27)
cke
▁twe
▁31,
illing
Av
tiene
pur
▁CON
ħab
▁nam
▁XXX
▁Fit
sep
▁ohm
vely
▁clarifi
respective
JECT
elveder
100,
ieux
drin
comi
now
▁kit
.12.200
▁186
340
alian
comes
Cuán
▁activ
inistry
xii
▁15)
taña
branded
OPO
éna
▁impli
ept
enta
hard
▁occup
▁mobilis
|___|___|
▁Encourag
ardo
▁Kine
▁stra
▁pos
▁2007)
▁barr
isplacement
elated
sters
TI
elecom
▁fundamentalis
compare
▁Differen
cession
▁conce
dium
▁EC
OF
▁criticise
ooms
▁(1).
▁subt
1987
nzi
ntent
▁Territor
pened
nalities
тв
8.5.200
iya
0.12.200
▁frut
90-
▁MIT
pest
▁sociali
2003,
96/
▁endo
cade
▁prioritis
▁identifie
▁Whe
▁basi
arily
impa
tine
aster
iveness
ici
▁empath
▁phonolog
urr
tej
glad
COMPL
▁Sever
eel
llia
minated
▁Den
ven
ETE
rate
references
▁dignit
▁2002/5
▁repayment
Ha
Rs
▁veloc
▁sixt
lveder
shape
75
▁conf
ya
ither
ETH
orta
Stop
▁discourag
pha
▁Sil
▁2)
Fo
ometer
▁inte
▁20-
ased
ADING
▁mul
lectricity
currently
43)
▁Consula
▁commun
▁quo
▁menstruati
letta
eduka
tropism
rit
ently
Trans
7.5
▁RES
tar
Fr
ama
lima
Bo
Represent
▁wo
zy
▁Eg
ario
▁deleti
ann
kat
orne
ubmission
82/200
tification
nological
▁pollute
roj
▁ov
version
rying
action
verse
▁Exclu
▁respir
ilisers
rain
anci
▁Suc
▁moderat
Dentist
liana
▁scala
omo
▁equip
▁lectur
▁2.1.
bile
Thus
shed
UN
oc
tandardisation
tener
liar
att
umen
arriers
▁SPE
▁21.
zz
▁Dis
ision
▁Stat
intéress
▁xi
▁whol
ILL
note
81/
▁Jer
gu
ler
▁intercept
▁Li
rans
ports
cop
elli
mplications
ille
RB
▁Ter
okra
▁malle
▁qualifie
▁perpe
OCO
▁attor
uccin
scription
disc
ays
nus
agile
AP
erative
storation
initi
8.5
ution
meat
что
kl
▁tighte
▁26.
▁hel
ohesion
▁54
▁Offen
isheries
▁ни
▁Tre
EE
▁LEA
pat
▁3.2.
▁89
▁mutualise
transmitt
għar
▁dancer
treatment
▁Wom
ran
pi
▁Ninet
▁expo
ocation
ediat
bed
ont
▁Dim
Protecti
owels
▁marker
centre
erts
auses
amental
21
unity
▁disperse
▁outlin
▁Communit
▁Interna
▁individualist
▁declar
presentations
▁resid
▁immigra
eceive
pture
▁ski
▁€60
nment
aching
perme
ión
tain
▁Ry
forms
CT
ruise
▁Specialis
▁Wil
▁van
▁"50
▁SCA
racy
nat
special
▁purp
▁modifie
▁donate
▁sol
bu
▁Qua
AA
▁unite
▁2.2.1
▁Mer
▁troubles
thos
tr
▁cook
pati
nja
aim
ala
▁const
▁Ski
▁reserve
ago
▁attenti
IF
iño
▁maker
43
aution
doubled
want
▁Men
nded
exting
sibility
inable
070
▁minnh
LIN
▁97
▁Sw
aq
allo
opoort
.../
▁tan
▁mandat
но
ases
som
tie
▁tablet
revi
having
ħi
aċ
uchi
osit
irteen
tinence
mar
▁establishe
duce
▁cycl
▁color
ima
enewable
ras
grading
▁SAN
lin
▁enthusias
swor
▁Minim
price
▁finde
ane
▁um
IVI
▁fabricate
tones
▁CONTA
ats
▁SELECT
Prepared
▁prot
llum
▁UNI
▁Submi
chatt
PRIS
▁forme
onduct
logical
pages
4:
5.6
▁overse
emente
das
▁212
▁Consult
▁Roc
▁100.
gths
▁infan
amine
▁Direc
▁hal
▁Perform
▁sou
▁Atmosph
▁serv
▁Corr
pins
▁NS
Ar
▁textur
ign
martphone
nies
▁wh
prime
ea
TT
Ro
Fond
grade
▁Lay
8.1
▁unfit
▁portion
60,000
▁COLLE
ngle
▁affi
▁ins
▁Jack
gic
rabi
▁retr
ebo
gle
HA
▁identi
▁demonstra
▁tas
▁hol
ARNING
elease
sex
sistors
INES
70
ermitte
ingly
iver
open
▁2009/
gnant
▁rescu
tha
align
▁FIF
nta
voluntar
jal
▁prefier
...........
ġe
razing
erċ
42
aux
ame
hun
join
▁parte
essa
08
arri
▁aff
connection
▁CLI
▁viewer
▁hor
.12.20
rative
▁annexe
▁stee
yes
▁4(2)
sto
▁refu
TM
NT
▁5.3
▁definit
cratic
van
nnelli
▁arti
IA
07
▁Regular
▁comed
course
▁REC
anz
azzjon
imum
де
kW
yard
sure
▁habite
qab
20)
nda
azon
sumed
▁indirett
050000
plementing
▁Consideration
▁Patri
▁prec
▁trac
henyl
▁ni
studenti
▁Deni
▁compre
▁14)
Str
orts
▁aspirin
aging
▁realiz
recep
▁é
▁Roma
hora
▁pronounc
▁stu
aste
ribe
uated
¿
alism
erra
▁Sp
phr
▁manipulati
▁Mass
▁Maximi
▁interject
▁.......
once
▁gli
▁pien
▁Ot
▁retransmit
▁Value
▁8.3
ager
▁эт
igned
▁199
▁TEN
anean
unu
sica
ale
ually
ropagation
ddle
▁med
ой
explain
ku
shop
▁confer
taries
▁improvis
sha
▁ef
zilla
sets
äc
aque
500
erms
imp
20000
oiling
▁MED
stations
terina
▁0,9
screwdriver
2004
▁mone
▁€12
erne
▁scrape
Casa
limin
ITY
▁LO
▁Integrate
aising
hn
mis
eme
Par
TIONS
ssi
▁vacan
▁grea
▁thi
axi
haka
aba
▁grati
wearable
▁integrati
sage
nsumer
▁Will
ssolution
gio
upled
Challeng
iding
▁Ball
mut
▁repeti
itera
Mo
▁amplifie
rring
▁autom
Inter
▁Sto
link
ges
tude
*)
fairness
ergo
▁Kla
sign
edge
like
story
▁Pl
▁pense
ssin
▁21.4
▁Record
tem
▁Xue
▁deci
▁MET
▁typ
▁"21
JEC
endum
aming
95/
▁Fungi
▁Nine
EIN
▁Admi
DL
ggiare
▁nitr
▁importante
cussions
▁Spec
▁"3.1
▁107
▁libra
14)
lecting
▁Oliv
▁inher
city
▁Cla
▁...,
cept
▁appl
refiero
▁disc
(3);
CS
acea
della
ITA
▁mir
▁mole
▁bra
PER
rends
vin
ол
▁"34
screens
station
ITS
Mount
▁abo
▁Manufacture
▁Batt
Claud
▁Pie
formative
▁Anth
▁Employe
▁DRI
ORDIN
tigation
pal
▁medi
▁Authori
contr
fits
anne
through
▁manipul
ojen
system
▁eleg
▁bru
pollinat
▁intelligen
▁cohesi
discuss
▁Sha
SW
mins
78/
▁kul
transmit
abi
▁Tor
vesti
ick
scribed
▁ferti
▁modula
security
▁SPD
antly
Wi
(3)(
guard
▁av
▁pollu
was
3);
▁collar
pose
▁casse
hin
stance
mais
HY
Shar
arch
talk
Prevent
Dry
▁13)
ruga
important
formed
Bar
dex
▁pat
▁ger
atching
ummary
Procedures
▁reper
ulators
▁civilis
erfe
éte
дн
HOS
▁evi
▁vibra
bass
kos
▁alka
kol
▁Bench
▁Vene
97
peda
fit
▁Kl
Short
tters
been
▁Pat
▁suffi
serving
eating
cl
▁156
ank
▁Edw
że
▁entra
▁particip
particular
▁waħd
.7.199
dding
ifferent
▁cruc
accordance
UNIC
▁pledg
1600
omers
number
ologist
ark
▁Tag
RU
▁compromis
nished
language
▁marche
pine
▁info
▁(€50
ecovery
▁т
auche
▁Char
karja
development
tested
spaces
ili
zation
▁unjust
93
demonstrate
ntaneous
these
Cap
secondo
lements
ikali
search
▁neuron
sser
apply
rei
ма
egislative
▁Eff
lum
ult
asera
▁sentenc
0)
▁hob
SMT
TIV
IES
eration
Mal
▁oxid
rob
▁substan
▁Frequen
erge
icit
ram
URES
eve
.14
rish
ogen
call
ache
issues
▁dirett
continue
▁Prepare
/2011
uly
SP
lau
necessary
Ihr
estación
▁evalu
emica
petitions
▁peu
▁GIV
nted
arches
jury
LA
Ste
▁proto
Council
OC
bly
direct
Architectur
putable
▁disappoint
rities
▁Restore
ener
locations
material
Pro
fine
ements
ordin
nationally
64
ken
▁Opti
eau
▁compe
ás
dura
48
tection
▁17.
mmo
▁SU
anufactured
▁tur
local
charge
MEN
wan
Dimension
vance
▁Col
/6
AD
▁mutu
▁Fah
types
BE
firm
▁licenc
▁tfal
held
pense
3,00
▁Vil
▁nei
2)."
unciation
▁hospita
▁"44
▁bottl
Restor
▁assimilate
▁Sav
impact
▁boa
express
repayments
ß
▁delegat
writing
su
▁manif
▁skelet
give
Għ
▁Mill
create
requirements
wn
ucci
required
88/
ICER
map
procedure
radin
plurals
cretion
▁dri
erda
Prote
poxy
production
▁serial
▁PH
entin
events
motion
_______
▁neutr
▁haw
FA
fare
,25
content
▁għan
TF
tate
riority
while
parliamentar
vocabulary
▁compa
▁sterili
State
ography
PRE
historical
cycle
▁vaccin
world
respond
Ex
practice
substance
during
terra
UMENT
scheme
purposes
itan
learn
plementary
▁WO
further
mates
▁Georg
function
▁Micro
valuating
ack
protection
▁replica
second
▁127
member
▁situ
positions
assin
▁10."
Cir
benefit
values
għu
written
Union
justice
▁Ser
Firm
dentify
▁numeric
ternalised
bo
Via
proper
problems
imgħa
Bid
address
produc
itable
▁liberal
Constitution
could
tieħ
ritical
construct
employment
rio
load
Area
elements
▁Parame
Government
total
terns
▁convention
▁Mediter
vio
circuit
programme
Police
▁disabilit
1989
▁Produc
bab
functions
rmation
▁remed
acid
laces
proportion
hop
ption
places
PA
▁squar
established
medi
claim
everyday
speak
Service
drama
rilling
turns
plural
reduce
professional
stitution
problem
ersonal
eans
experience
large
plants
stool
ILIT
oxy
methods
TICE
prot
basis
political
industry
career
responsible
Term
against
Commissioner
thereof
uni
keep
appointed
legislat
quar
MRLs
asse
student
identity
studies
manner
lmon
trade
lowering
define
patient
document
educativ
court
▁Pend
chamber
▁volun
▁cardi
4,3
processed
fixed
ASSES
ropoli
tably
MO
rank
select
requisit
▁prob
ġa
▁Mille
▁€100
holding
▁compul
▁Applika
medicine
improvement
ligious
box
responsibility
instructions
notice
condition
▁11)
practices
critically
recycled
eading
uspic
provision
▁impuls
nforcement
SS
ink
▁discharg
field
International
hips
standard
relative
style
utable
BOR
Development
sectors
ragm
feel
among
increasing
expressed
facilities
▁Infrastructur
▁Opera
July
Gener
▁benefi
minerals
candidate
Director
008
▁soci
kett
close
Rights
home
▁faci
implemented
Frequen
cational
▁respec
provid
until
actor
Value
otherwise
Arabic
ieving
technologies
▁conduc
adapt
éci
sport
encourage
medical
losure
▁sau
feelings
▁braz
newspaper
considered
▁Webs
initiatives
milk
retail
pport
mitting
tooth
▁resp
acy
screen
crisis
publication
▁Transit
University
Present
company
check
forward
private
hrine
inci
nutritional
target
▁(11
internal
money
ogo
labelling
saurus
те
Never
▁09.
Prime
Si
December
Mediterranean
friend
involv
NGOs
▁reward
critical
religious
MRL
RATION
▁depolymeri
operated
million
advice
Impact
teacher
Consider
▁WE
Market
Ordinance
▁awar
prove
contamination
developing
chrome
exchange
installation
travel
type
▁Tour
organism
rowing
,¿
IFF
principle
prescribed
Constituent
bead
Camp
chair
SERV
▁produ
block
details
▁carr
cleaning
▁180
Nutrient
▁unlim
November
meilleur
Sho
manage
MSA
Connect
▁mu
denominator
ograms
Code
buck
Judg
▁refin
duties
challenge
just
exclude
arbeite
CAS
plaster
NS
▁jil
specify
вс
Data
▁Revis
freedom
Move
credit
promotion
NSA
mply
assess
Human
consideration
novel
▁expire
representative
Vitamin
French
preside
square
ugee
Prior
absence
confirm
initial
effectiveness
sub
trip
Kikku
burn
watch
▁2(3
conference
jiż
€120
Opin
concepts
Victoria
engineering
мо
▁Face
drawing
frut
intentional
▁Recent
direction
reforms
limits
Society
higher
poetry
regional
appeal
generic
91/414/
fju
placement
destination
guidelines
flower
Max
tiles
Bank
delegated
competitive
satisfaction
record
▁melod
personnel
roaming
nurse
Research
computers
Book
India
label
Financial
built
Energy
Superintenden
planning
letter
delegate
complaint
conflict
bbu
fuels
indicated
representation
farming
2015
narrative
step
musical
|
start
substantial
publish
rench
Number
Tribunal
determination
Policy
▁resu
structural
Wieder
burden
server
Marsalforn
blue
runner
Mobil
infrastructure
infants
maintaining
Enhanc
businesses
songs
Head
rhythm
singular
push
▁guardi
Characteristics
lion
closing
TFEU
Products
mance
kal
2030
please
consonant
urgency
▁185
chosen
marijuana
neutral
Hungary
gimnasio
Styles
marker
subsidies
histidine
Stefan
souvenirs
Village
Cuá
garden
llamarse
Equal
analytical
BFDGE
puedo
facts
converter
prescription
negozju
Simple
consequence
EFSF
ICAO
LEAF
groß
midwife
radio
engraving
restrict
▁Commu
Climate
MALTA
Kol
triggers
▁lleva
fying
draft
Paper
Slovak
realistic
guide
machen
brick
threats
Fair
fuq
voltage
552/2004
Friday
до
untrue
procure
Court
risks
▁Sep
century
▁proportiona
vitamin
multipli
shift
accessible
Medicines
steaming
Persi
POS
Fundamental
August
Africa
healthy
Christmas
Agriculture
Freedom
president
Conditions
Alter
SGP
France
argue
combat
invalid
dentified
download
divided
Guidelines
▁glob
Leader
Garden
dislike
PEST
Individual
Medical
influenza
department
Patient
Mix
▁jobseek
Ghajnsielem
Components
Competition
Renaissance
Entschuldig
Performing
council
Interpol
circle
deliberate
bladder
vouloir
Skills
Germany
Resource
pueblo
Victims
root
Introduction
Nurse
obligation
manual
BADGE
CHOGM
→
airworthiness
yolks
greenhouse
Representative
Interpret
disagreement
Clerk
leadership
Artisan
INTEREST
durability
indebted
uture
Action
tempo
hammers
Training
piano
pluralist
yellow
machine
pilla
möchte
882/2004
1964
Liais
POLIC
arthritis
Istanbul
medicines
commission
reflection
negotiation
Control
WHO
cigarettes
178
Pharmacist
Luxembourg
CAD
debit
Features
imposed
Ħ
Factor
Channel
по
illustrations
possibly
Switzerland
Appointment
Description
fragmentation
indefinite
Dublin
London
Semi
investors
HSBC
Group
licensing
Salmonella
plug
Cyber
voicemail
option
phosphorus
cleanliness
Hotel
Political
Level
rituals
neighbourhood
cognitive
exceptional
dentist
Belgium
Jesus
upload
slogan
reliable
Key
painting
Protocol
76/
pull
batch
damage
MCAST
broken
ventilation
Marie
Document
▁Govern
Risks
▁believ
Grand
jiġu
pilots
$
÷
verification
compensation
fertilisers
false
Major
John
FABs
Location
intrinsic
Diploma
Galea
industrial
vocational
Engineers
dossier
Roadmap
endo
deficit
labelled
Systems
fittings
emotionally
perceived
decreased
disasters
Citizens
SMEs
serious
1990
sħiħ
advertisement
undergo
restored
calliper
/2013.
friendship
cooling
drills
recycler
liber
pipes
troppo
alternate
LCP
Finance
Team
iodine
crises
motor
Communication
COMM
▁succes
spoke
nicht
officer
movements
minute
arra
.03.
charts
limitation
2014-2020
separate
Acce
wieħed
FRF
concentrated
modal
walk
together
detained
Price
deployment
Definition
African
bench
linguistic
discriminate
rès
compose
enhanc
mgħa
SMS
park
bottom
statistic
reasonable
unct
INCO
toxicity
domain
influenced
fruits
salud
ynaptic
sweets
▁mathematic
preparar
weigh
▁н
▁133
grid
success
terminated
Workers
Paris
crust
exploit
territori
poem
symmetry
Bills
UK
adapted
individually
cease
Mayor
Dep
OTHER
Identify
futuro
IPLE
KE
Advis
exceeded
Year
strengthening
players
Foot
organiz
▁inactiv
recogni
tomar
Free
▁predic
Convention
diet
donation
HR
losses
conduction
UAL
calculate
arian
covering
prefer
ui
error
qualifications
uccessful
Investment
reply
wash
disposition
suitable
pair
PO
bacterial
innovation
cutting
taxes
▁Super
guest
Sustain
blow
printer
accept
grey
hacer
virtues
Beverage
▁Dome
engel
photos
Register
super
121
populat
moods
excuse
Security
bearing
agreements
▁(0
East
conductor
satisfied
aerobic
allergic
designed
frying
ем
compression
▁verna
balanc
Ferr
LDR
Nine
▁indebt
cover
2014
erobic
elatine
consum
dom
Constitutional
mask
latitude
aggressive
EDP
▁promis
commu
owners
evaluating
▁ecologic
performed
presented
spring
flu
conven
Young
solidarity
43/
HE
▁route
acids
bridge
▁squa
trust
voluntarily
avou
migrants
realised
universit
accharo
agne
faith
INK
▁€0.2
tribution
rugs
mobility
Specialis
youth
хо
woods
compatib
Using
▁baro
noise
tube
occup
ttach
performer
piace
▁aggress
▁MENT
63'
MET
processor
digestive
feeding
▁innovat
cell
öt
Karm
Mi
aged
1997
Sources
genders
soft
May
Cut
accurate
CSRs
għax
Thou
ccurate
pproach
applika
▁compr
aurus
bbreviation
corn
▁advoca
remov
▁dia
linked
IME
Foods
dequate
Fee
Idea
▁Prosecut
flowering
ка
▁procedur
mixed
printed
dopo
feed
Great
Infrastructure
authorisations
▁wavele
▁154
Caps
Anima
griev
dvanced
cceptable
Promot
originat
professionals
déc
Source
CSR
ttributes
chole
▁capacit
▁inaccura
pproval
crafts
neces
RS
jara
literacy
polymers
significant
rural
▁efect
fluent
CCF
lian
▁coloni
newspapers
▁regulator
eri
retaria
supported
▁envi
signments
network
notices
gauge
▁empha
poor
▁assert
0""
pollut
Organi
▁emphasi
▁compo
ppearance
ntibiotics
▁Entrepreneur
gious
olerance
famo
tax
ogenic
migrant
▁hyperlink
▁Sergeant
▁windpump
▁protoctist
▁Belief
▁jacket
mass
ndler
▁volum
▁idiom
▁Expert
olidarity
▁Defici
▁supermarket
▁husk
▁Accordi
nutrients
stranger
▁pluralis
cycl
fect
▁rev
▁advanc
chain
▁disti
ssociation
▁stylist
▁pend
▁symb
▁purpos
▁Victim
▁Calcu
▁amigo
▁antibiotic
▁gymnastic
▁legend
ppreciation
stampe
erv
delivered
grain
NESS
installed
▁arthriti
▁chisel
▁domina
▁skirt
▁girl
▁recurr
host
▁Citizen
▁understan
▁imbalance
▁scientist
▁messag
▁recipient
▁beverage
▁adolescent
▁vertebrate
tration
ery
▁ritual
2000/
▁tessellati
meters
▁surge
▁Student
▁panel
Franc
rontload
appear
poi
▁mistake
▁costume
▁appliance
▁leaflet
identified
▁percept
disapprova
Hand
Mu
Mark
▁hydrolysate
leaves
▁Risk
pour
▁simile
domestic
license
▁cheque
Fil
▁CAST
blog
rights
harps
endere
▁annotation
ji
▁firework
▁rot
▁radical
▁balanc
▁participant
▁appro
▁competitiv
má
▁telephon
priet
▁Relation
favori
▁Statistic
llelogram
▁electron
exhausti
äre
▁latent
▁chick
▁quotation
Was
▁articulat
▁instruc
kauf
▁mater
▁disorder
augment
dict
dent
▁alternat
▁chromosom
bars
▁disabl
dimension
▁responsibil
gravel
fur
neuron
▁prototyp
▁additive
▁hormon
▁familia
quilibr
▁entitle
venti
▁Comm
Repeal
▁instructio
DWA
UND
▁rhym
careers
▁particula
fill
▁miglior
ticipate
▁elegant
osed
▁phosphat
roof
▁Smart
▁interfac
enrich
▁manoeuvr
▁irresponsibl
exit
extra
eived
VER
▁studi
▁apologis
sheets
foods
2003/8
troph
villag
ECS
writer
llery
Industri
▁Acce
ttention
circuits
phras
conferenc
▁illeg
yette
▁aqu
Force
acchin
▁0.0
▁Soci
▁tack
▁tailor
quests
▁Poli
regulations
Test
varian
Counsel
▁MSD
▁Physi
▁peripher
futur
▁clari
oglio
eptachlor
Even
▁FAT
rgonomic
▁Infra
▁lodge
▁calcul
dul
ê
▁Interpret
residues
nfluenza
▁equivalen
▁Constitu
Reduc
▁carcase
▁bullet
▁psycho
raduate
▁decease
▁interrelate
onsistency
xplosives
▁unprov
ħħ
mall
nlargements
IDENT
▁encant
▁pharmac
xpansion
”|___|___|
▁discrepanc
▁sugge
▁intelligibl
instate
anniversa
vidence
▁possibilit
Introduc
▁retir
emales
▁intér
aċċetta
▁verstehe
▁complain
▁Issu
▁Refer
▁hypo
▁Januar
printing
▁Experi
▁perso
ividend
▁Point
▁campagn
▁fahre
▁Accelerati
▁diff
coup
▁mattin
▁trage
Plast
hythm
▁Italia
Real
ournament
Alternative
▁gelat
▁Beaut
estimonials
▁papild
▁analytic
App
▁pregnanc
lippin
▁roast
▁uncertaint
▁interoperab
communica
nflammat
erminology
peer
▁divergence
▁parece
OLO
▁prépare
hanging
Huma
Mars
▁manu
▁multiplicati
famil
ransparency
50/2004
inkwa
mbellish
Cu
Studi
▁scen
rchipelago
andidate
▁rememb
▁GB
▁surviv
▁resolut
ymptoms
▁combinati
plitting
▁Chris
ertilisers
hampoo
hepherd
ponsorship
tewardship
pportunities
▁Essen
ntellectual
nfluences
hurt
lywood
rgico
▁Ombudsm
ncidents
flexi
artifici
▁tabl
urveillance
▁commissioner
dentification
upplies
▁phoneme
▁streng
nsurance
Measur
▁temp
ameriere
▁Novemb
ellulose
ULATIONS
▁contro
eamless
nspire
▁circum
▁vertebra
urchase
ictorial
annabis
ennia
iciples
orphology
ultivation
alendar
▁FOOD
enalties
rép
▁deteriorat
▁SUBSTANCE
ritique
russels
otassium
rrection
overeign
ensulfothion
▁derogat
ercentages
icroclimat
▁reciproca
mbassies
ossibilities
▁SERVICE
▁rehabilitat
config
eneficiaries
ipronil
etaphors
eaknesses
▁SIM
▁magnific
▁endeavo
llega
assword
lexibility
urslane
ossession
rivileges
▁stomac
▁extinguish
▁inadequa
Photo
reshwater
ployed
andscape
REAT
orrosive
egotiations
oagulase
▁gymnas
tabbilit
▁Archite
isciplines
issemination
▁abundan
iagnose
oncrete
riendly
iaggia
efault
▁hydrochlori
familie
roperties
▁ingredi
hilosoph
ygiene
nvite
ffaires
▁blind
olescence
gressive
З
ж
▁SUBSTAN
MINO
ntentions
haracters
▁Д
ну
celerate
paghett
pastizz
▁EMPLOY
▁prosper
nfinitiv
Famil
▁|___|
2010-201
▁NUTRI
▁мор
И
▁jippar
luzz
environ
pubblika
ан
▁screw
helmin
DIVID
É
2013-201
guarant
▁Requir
ι

▁beneficiar
49/200
EMBE
ciple
minima
preneurs
ECTORATE
ERNI
LAZZ
eneurship
ococci
opardis
Ç
Ê
Ö
û
ē
ħaddi
̊
έ
ή
δ
τ
М
Х
Ч
их
отеть
ю
ض
ظ
ه

▁RESPONSE
▁ADMI

▁erro
EQUI
{
ş
γ
ать
ха
▁merchan
▁хоте
viduals
▁CLA
▁psychologi
▁llama
ί
λ
rogative
patriate
asselin
ри
▁tempera
ик
▁haemo
azardous
ар
▁Solid
▁scien
NATO
ьше
▁catalog
stanza
▁До
oyees
propylene
ZZ
▁1924/
▁uncert
ITIES
▁Victor
▁emphy
ħelu
abulary
loscop
avigation
SART
velope
ütz
ре
SCI
urgers
ут
fahr
OUSE
Distr
ий
ай
mendation
▁sprin
emuneration
dominant
▁cigar
▁cyber
rammar
▁PSC
icotin
▁Hospi
▁08
lysates
hyper
▁entrep
TFE
cuits
üsse
▁passi
festations
nsorship
EARING
ducati
▁EUROC
013-
ZJ
priate
guish
▁SPECI
▁gym
▁Lamb
▁quadr
▁jagħ
ACTERI
humidi
urpose
nnai
omenon
gregat
ependence
▁2012/2
Inspect
▁Draw
▁sensiti
drome
tylists
▁SIMB
nemato
ħallie
▁mö
sales
▁kidn
ое
logues
Shop
▁quadrat
▁permissi
quí
arallel
▁Bonn
▁préf
MOT
▁ferment
takeholders
▁Pilla
herita
curity
ncentive
adesh
ablets
merci
obacco
▁infinit
▁STATE
▁carcas
rchaeolog
udget
▁jack
▁historia
uggl
Ratio
armla
iewi
▁ADV
ид
aluable
▁gravi
Gov
LIT
▁schne
▁Program
▁Surge
▁inscribe
inistra
FFICI
▁eLea
lipse
mplification
ajje
▁commodit
QM
Industria
ircuits
▁Liter
Emb
▁Capit
▁cruel
▁Electro
Qualifi
▁gauge
▁diabet
mmediate
▁Comput
▁Coven
URE
dinator
▁Termin
asteuris
ossible
inoleic
ologies
asonry
▁NUT
sultan
adjusting
fugee
ibited
IDU
affore
OUS
▁dispense
Repea
▁neuro
▁consump
vity
routing
earth
▁compact
▁Liber
▁petit
modation
▁uncle
mptions
OLI
9/2007
fabri
4/4
▁repay
ledged
Bl
scriber
▁percent
5/2006
elf
▁5,0
ORAT
▁MOD
964
zzer
▁impres
portal
ONAL
▁Vita
229
▁fertilise
necdo
zens
▁congest
viati
tember
▁mate
▁gastro
▁cabin
/2003
INTE
uropeans
fel
260
▁Societ
aily
ccepted
pizz
▁pensi
anifest
Lime
▁digesti
▁utilise
harehold
IMS
orrupt
cium
titled
Meet
ENTIF
afé
:_______
doub
ermination
llover
levant
8000
TIC
ultat
alumin
▁umbr
external
stination
wara
TEM
▁Sicil
emainder
▁REL
▁comb
▁expectati
hologists
moking
pectrum
Geometr
onuments
lvin
▁ECO
vá
▁depleti
tuations
4#
acci
▁applic
▁Excel
parag
Posi
uven
cessor
▁Rail
▁Deut
ulation
legislator
adines
▁harass
▁gland
VO
ORR
PTION
▁fiction
▁Colomb
▁cours
perien
LT
▁simult
▁JO
kaufe
▁28.1
Flow
▁submissi
giare
ylene
▁reside
lotte
arley
vention
htm
▁repl
otherapist
▁perman
cursive
vities
▁shipp
empe
▁REST
▁vehic
bbre
nolog
improvements
▁stylis
isola
rived
tiative
llul
furt
▁sla
jour
opics
▁duti
erspectives
riangles
▁Info
rbeit
ovem
cademic
ula
▁1,000
▁Var
▁PRE
mino
rts
▁vul
iquer
versification
1/2
rooms
▁COMP
Air
▁EF
▁furn
▁segui
▁Certifi
▁ambit
▁Juda
15-20
Encourag
umour
utt
stated
.14)
lescents
urage
infect
URI
ymbo
neously
sports
▁pump
ncreasing
Spri
inishing
rousers
▁suspens
portation
▁frag
ceramics
▁farmer
Gas
▁pré
lanced
RAG
PR
EVE
▁bord
▁fortification
rf
uffici
▁piz
ELL
üt
Rem
▁expl
(17)
▁Wit
▁disclose
orize
▁77
argar
0.01
angla
▁82
▁19)
elevance
▁EURO
lago
egments
▁Pop
tific
changed
paque
▁latte
rigon
indir
▁movie
▁geh
▁moda
erci
NSES
mazz
busi
ascot
onomic
ensors
eavy
▁earl
ién
amination
iolo
nned
▁recog
▁entre
yros
▁ACC
ewage
▁cosm
▁Proc
OT
kata
▁jist
wave
bilit
TMENT
▁Annon
04)
combina
worth
amic
erators
uka
ntertainment
ECTION
mixt
▁Conta
sonant
capacities
reci
coli
bon
ellets
▁Pota
▁comun
outine
rophe
nectars
LTR
664
▁dialog
amage
lads
garet
▁ball
nature
Presidenti
▁Oct
zard
egative
▁appr
▁gal
▁magni
▁4.7
▁"182
gloss
tionality
Bir
skill
ults
rgini
six
unci
▁lake
▁mann
Fur
ellations
FET
Bus
FC
2032
▁throu
scents
laration
gura
▁Styl
jul
arrant
għand
ätt
ownload
loping
▁liqu
augur
▁ка
▁2007-201
▁admit
Cust
consistencies
GRO
tober
trogen
▁dip
roq
▁propor
ica
DED
▁quad
NSP
Hist
developmental
raq
stille
wise
▁solari
Exe
▁240
▁sustainabl
logen
▁117
declarations
rawl
▁1:2
entures
▁genit
WS
miner
▁utilis
mak
▁cogn
▁glut
rophic
break
▁Pavi
▁Emer
urge
2013.
tropical
PRIN
▁instru
ucce
▁possibl
'¿
▁Depart
brer
flight
hopping
polymerisation
molecul
▁Brig
▁Gar
▁hier
unicate
itious
▁radic
ħr
llegal
▁gehe
▁RI
atura
unning
ople
tablet
ffen
optim
toria
urred
▁warn
rror
▁avail
▁dir
pment
▁Farr
oskeleton
Plann
pret
▁INV
ICES
cide
Tel
▁551
Apr
assport
riment
nterior
▁haz
risis
▁homopho
eminar
RTH
▁Log
▁PV
hot
▁microc
▁surr
nants
icles
▁Object
▁Scho
alleys
goods
offices
▁burn
▁distribute
iovan
xib
2:1
mati
▁constrain
marketed
radic
lub
trej
▁boug
marking
og
ritor
▁Conti
entenc
Qui
emocratic
70/
stage
▁2.5
ssig
▁ou
▁1,000,
prop
essages
xiv
ferendum
astro
ecretaria
viso
▁Malt
▁bruis
antine
odification
07-
gard
estro
undin
23/
uz
Sew
▁salo
▁yog
▁souven
UD
▁VA
hwa
▁166
▁denominator
grounds
▁Theme
▁merc
chem
eġi
▁personifi
▁QU
▁investor
osaic
ower
▁hab
03/
▁distan
elamine
▁Bang
▁overcom
tchen
env
mpar
Did
▁disable
▁liber
reinforce
oldering
▁novel
▁festiv
▁NSA
50/
Gla
orgiveness
ENER
INS
▁Hu
achen
▁barri
estiv
aqq
rchestra
▁hum
Bene
▁Amen
▁Judg
▁meilleur
▁belie
earance
ERM
djust
kind
▁MIN
nza
▁centr
exam
cred
FFIC
▁confe
sho
▁Opin
ultiple
fringe
iodiversity
▁spr
arac
pplikazzjoni
Oc
▁arbeite
mentation
Infer
consist
74.
mmen
marketing
eeping
▁Max
moon
▁credi
▁Move
Set
▁promoti
Unemploy
voir
▁conse
predi
▁Poly
▁concen
xpected
▁glu
spañ
tatis
▁Conver
consol
▁Consider
rected
▁overexp
ifestyles
▁subj
riggi
pays
icture
Successi
inyl
zon
▁IDE
proportiona
tracts
▁rust
▁theore
▁2,0
bra
▁Marz
▁Sound
▁Sli
pposition
Ash
Handl
Att
▁Leon
▁Nam
▁disput
knowing
emis
▁load
nalisation
▁те
▁chole
inations
aneous
Mer
▁Worker
imat
▁Book
25/
▁shir
▁clo
fectiv
mproved
atchings
oncen
eval
▁178/
tivi
▁Rad
ype
▁importa
▁gene
ller
opu
lassi
osting
▁distincti
Materials
▁Never
equilibra
▁Gard
hich
stability
ICS
▁(10
▁tren
oġ
guardian
etters
▁endos
▁commu
pete
lime
hum
ractive
35/
town
ħaw
▁qualit
▁inf
▁Ori
gero
(4
▁twent
▁forgiven
igns
18-
▁Sup
▁Mad
▁SERV
▁oxy
ама
njoy
▁def
▁Foun
chemicals
dina
dire
erator
appy
▁revis
▁Goz
CF
▁perfor
▁gentl
hme
EPR
▁Res
▁Goal
billi
▁€100,
▁Stra
▁compuls
kjar
pillar
atement
Sites
Circ
▁0.
uspicio
websites
▁neig
▁lino
connectivity
ocational
▁DET
PERI
▁Camp
sands
▁Polic
itives
big
▁pou
feguard
▁Edi
Note
anism
▁Amo
▁spea
Tw
▁logis
żu
▁geograph
thesis
count
varies
states
designing
compli
kirts
▁bou
▁Fest
nships
Au
umber
OSS
erbal
ego
▁capi
awa
▁phy
▁dai
▁в
▁Blo
clearing
▁Too
hair
▁tec
illin
raz
pirat
avia
▁Deb
▁Mediterr
▁Nota
kup
▁authoris
efines
losed
tan
▁mach
eci
rait
onise
ugli
nclusion
definition
▁gram
DGs
polit
rage
ator
paragraphs
comb
lloys
saħ
efugee
inders
ippers
odium
notte
ounds
AE
▁evaluat
ethane
▁exchang
▁hop
strum
▁unwi
▁ph
ride
film
igious
▁transferr
-15
ctly
llen
ardin
▁900
ilia
emaine
1.200
dosa
rou
160
lished
▁stakeholder
hten
▁dish
48)
▁trait
peak
▁CC
▁edu
▁sient
lids
icrobiolog
gna
▁epi
enu
LEMENT
grated
ucrose
racks
▁laun
anke
▁incre
▁Gir
▁scann
fert
arable
▁completi
rector
▁cohabitat
▁alleg
None
rance
▁forgive
tuni
siveness
ocu
tele
▁informativ
▁optic
▁gif
▁vaccinat
▁Patt
▁seaml
Certificat
nary
▁allergi
hicken
notes
▁structur
▁goo
▁3.3.
xterior
▁Az
ér
02/
▁conn
▁sterilis
ertaining
uthorised
skeleton
▁Wie
▁makers
mples
mediate
▁traini
whi
▁10).
▁facto
Fat
▁incl
▁Undertak
▁poi
▁mouth
oj
nine
▁emit
heir
pos
bots
▁cele
▁AGE
GIS
nali
▁Fis
▁ku
nthrop
gery
▁gat
▁Mall
▁cancell
itions
mplemented
Band
hil
▁Ref
ein
bli
fic
sification
▁pra
bove
96)
scu
OUL
equate
MED
▁4(
▁hist
erialism
▁calli
EMP
▁49.
rub
▁Heal
isem
seven
▁Ż
essen
zop
lectrical
malo
▁"___________
▁compl
ela
040000
presents
▁subsidi
uarte
ubar
mitte
apabilities
▁Securit
asia
dards
199
▁LC
/7
▁involuntar
qi
ħa
▁string
aps
say
00-1
▁divis
reservation
▁aspiration
▁Lead
lain
anno
▁Gale
Whi
falli
working
ruption
▁striv
202
hree
▁24-
Kri
visited
trench
ermines
ident
reath
mentar
ttled
▁Dres
240
bili
rgin
actual
▁cove
boards
acteri
▁smo
bda
lismo
deco
resentation
óv
there
▁Franc
▁persuasi
▁violat
ointed
▁Hot
▁chrom
▁pig
termina
Tre
etho
adju
▁HEA
packing
ficate
mbol
▁Audio
▁MAT
welcom
▁Desi
verl
▁vocation
utic
500,
▁asses
INA
▁dif
estima
ruc
desirable
00,
74/20
▁shal
gate
▁SW
▁oxida
rise
▁INTERVIEWE
def
▁Vat
gold
▁Eve
besser
▁sponsors
tight
sione
reme
fting
12:
essive
▁Toy
redness
ixtures
osp
Acts
topping
▁Real
afeguard
▁BI
020000
hortages
ockets
0/
nteraction
uip
▁offen
▁Rel
▁apar
▁beca
ticul
▁Sam
neys
obbi
▁Assist
CULT
▁orig
ani
96
▁projector
▁oat
tai
▁fig
Kel
touch
ayout
aints
ommer
RIG
468
umin
San
в
ootprint
nteractive
488
HAN
gg
▁Marg
37)
effe
▁swee
▁Path
▁alon
articipants
ang
▁DIRECTI
▁insta
▁quel
dry
acks
themat
uro
▁Prec
roxim
nap
taneous
▁determ
▁accord
1992
DITION
nclosed
pare
sively
Val
€500
lance
ybersecurity
bet
▁impu
▁taxa
wad
ub
coa
▁Unemploy
▁OS
▁Pun
lac
ined
ols
hones
▁"200
▁9(
aus
stomers
spected
▁Aza
▁trop
bia
mbalances
tract
ationale
▁kan
▁wet
▁travell
manda
▁postin
hydrat
foll
nar
ač
inished
onment
▁dy
640
▁Leg
sca
tivity
▁learne
imary
▁vibrat
ecologi
▁wat
lan
drug
60.
erti
▁3(
bands
contract
nition
soil
luq
atio
ntolerant
udience
2002/
nterfe
CG
45)
tools
covery
disation
/24
▁sour
links
▁Cou
nishment
enchmark
DE
umn
▁għ
▁Sim
GET
requency
formation
lands
▁INT
roblem
▁65(2)
▁hobb
▁yours
▁implicat
▁Porta
▁multipli
stal
▁lact
Credi
lations
▁7(
▁effe
entities
earch
typ
lights
30)
▁stoppe
▁acco
▁л
idence
▁EA
apter
▁instan
▁celebra
▁delet
▁signif
lograms
wester
▁Har
▁invol
8.2.
▁sli
rial
ilm
lant
percussion
elected
pening
arine
lipping
▁histori
▁polymeriz
hav
ores
▁REG
▁hac
jji
ís
▁interactiv
inġ
lita
yme
egna
stalled
▁linole
EA
7-
bla
kar
▁Lis
▁Presid
▁idi
intermedia
▁Stad
element
azione
Log
▁Vir
▁fie
nel
eline
SENT
sell
LC
(1);
ве
econciliation
/9
demo
porte
ummarise
onito
emed
▁Accessi
▁Hen
stimate
▁sud
iżd
▁disclos
erfor
ndly
stallin
rant
ield
istics
lready
ucin
mpliance
▁medic
▁41.
rusting
ero
98
BI
Bis
▁Material
11,
ograph
nsight
pas
etal
▁accepte
▁ham
eferendum
aph
)1
▁DES
sume
LIST
▁spreads
rö
bill
▁AF
▁pict
rie
ATIVE
AZ
▁entran
leased
5%)
ovation
▁caniste
adi
talian
▁5(
▁lim
07)
▁pasad
▁librar
▁faste
ħar
▁42,
▁Tar
▁poli
hering
col
Creat
cas
▁manne
ramme
rta
▁Ren
▁Prez
Strengthen
vary
▁profitabl
▁poe
▁invent
oled
▁respons
sting
ash
sks
bers
▁morta
▁sty
mad
▁beach
▁Psychologi
▁tac
▁350.
rais
FO
▁Ber
4/7
bid
tistic
ob
idari
▁suffic
Malt
▁expedi
▁rect
▁economi
▁LA
▁pers
▁Nic
EF
ġel
▁practica
rgen
tinu
▁Eng
▁Ali
teroperability
Appreciat
appropriately
lli
▁jum
uf
erb
gual
enetically
▁GI
▁organisi
lours
ozo
▁fer
▁Ros
riva
RIN
gricultural
mas
senti
▁tab
▁diploma
▁Cath
▁Eli
sej
▁plas
OLIC
06/1
pan
▁Vill
rned
ernet
▁illus
atter
Directives
mpanies
▁consulta
ported
ails
aday
ching
ilful
hey
Natur
%).
bur
▁2009.
▁Gener
nput
uer
▁и
missions
gated
gging
▁focuse
ppropriate
▁necessar
1,7
lang
ou
leva
ndatory
km
eduction
▁recorde
______
,29
▁Cul
othe
▁embe
dia
▁redistributi
api
▁Mem
Chi
aver
idden
▁patien
venes
día
▁raġ
uccession
subject
lueprint
▁89/1
▁consti
ishes
hallenging
▁avia
lementin
awyers
892
▁abre
▁7:
permeab
3(3)
Sh
▁Declar
▁ent
oy
plain
ordinat
▁ado
fif
hony
▁printe
blet
▁theatr
▁92/
RIA
dd
pons
ranean
narj
▁faire
dif
roughout
▁mod
porting
ISC
sland
isti
OODS
▁gest
welling
▁Speci
-4
5(2);
qualities
▁gate
usb
bleed
▁Rol
▁conver
2-
▁Batter
etalwork
ylic
eparation
2004,
vert
niversary
▁MR
▁excus
▁migrat
ibly
гд
tables
lings
Ca
bst
ffe
4000
cula
▁widen
(5).
cycles
▁radiat
too
▁clas
▁cine
▁Trad
▁MEDIC
▁52.
istan
tructions
cc
hago
18,
clu
single
etermination
icity
vali
mails
11/
▁emi
▁bulli
nomi
2(4)
▁appli
,300
5(5)
wen
leav
oming
iner
SUM
▁sug
rname
put
▁submitt
ah
yst
.6.2
ination
▁Tam
▁11,
ordina
pen
leg
kage
jo
ogue
04
▁plat
▁Cod
magnets
▁ener
VIII
sur
▁gua
▁mer
joint
ecruitment
isplay
66
▁discour
▁dissolv
▁dove
61.
looked
ackground
▁terra
iser
▁Lifest
sop
▁pota
▁intens
▁Sit
fitness
sent
)7
▁neutralis
▁volta
▁len
▁decl
KG
2006)
DVE
▁Ric
icia
▁mito
▁Kh
▁symmetri
▁decod
cce
stu
Ba
etw
▁reven
1/3
lber
glut
?""
itness
nz
▁homo
eli
THO
▁naturali
heorem
rth
rol
colo
330
nunciation
acilities
Sub
▁swea
iden
ices
82
.3.200
fly
died
henever
tment
▁prog
erous
1.10
tmosphere
ais
stru
cation
▁Eth
..
00.
fD
fore
sen
▁empathi
ony
isk
▁foc
17.
phot
▁CONSU
phones
yout
77
▁calle
▁seg
▁referen
notifi
scue
▁Cer
▁meħ
plai
▁2007-20
unting
specialis
▁unb
▁mec
sc
62
▁2013.
mil
ortion
gy
▁Faci
▁84
▁DI
▁acr
41/200
ubstances
▁problema
ystematic
EAS
AIR
ür
▁op
▁consig
▁chro
ums
pinning
▁(2012
eté
▁bei
2),
▁cond
▁explor
▁PRI
▁crud
obe
criminal
▁ray
oric
▁musica
426
ffa
ekk
sexis
▁CASE
SEC
koll
iq
Earl
liance
rmitte
▁Howe
▁Fro
piritual
▁Savi
▁crim
onnections
р
facture
dur
acc
mmon
ssistance
coSkola
▁farr
▁invo
SC
unj
olog
near
tative
EAR
.5.1
0-1
quis
tend
▁phila
eflecting
▁550
thood
aptop
▁fasti
newable
utri
bj
sai
mous
verages
▁Amb
▁conservati
mals
▁artisans
▁dict
housand
▁acto
cribing
ghout
▁forest
▁definiti
▁economics
▁manifesta
52
ccordingly
mor
esp
▁Die
▁Universit
▁hole
▁Mons
contin
oler
sus
09.
▁grass
▁fisher
▁utili
▁prevalen
1,000
2.9
OTHE
▁individualis
▁misus
▁cooke
wo
;""
rap
lici
▁Repo
hroughout
▁amph
▁hears
▁35.
mplaints
59
▁perm
▁programm
▁immu
hesion
ildi
moti
01.
▁carri
▁Europo
omet
amou
▁modifi
▁bell
▁Ale
rowth
aine
▁dumps
mica
93.
oSkola
▁excl
ollowing
45,
▁freed
Ple
stig
▁Lan
▁Offe
evere
▁sala
ension
▁bel
▁ora
enten
▁farin
▁confi
▁Exte
ike
Effect
pon
europ
▁terr
▁rea
nge
ermi
uts
rips
1:
▁Ste
▁divin
uter
▁(2014
▁Consulta
ollective
lox
andin
erte
▁defini
lass
▁weake
ctioning
assis
kazzjoni
summ
▁Bar
▁mand
▁donat
toring
pea
▁5)
dge
jk
roportion
anta
bie
oner
thical
onto
Mone
factory
xx
▁spac
▁bud
Gha
valu
11)
▁cl
ntra
▁Wed
pla
▁ST
▁noncomplian
protect
atur
opping
holds
alle
gne
vated
▁Sco
▁Rit
/-
▁ħi
simu
urb
tray
joy
elegation
oya
prio
0.1
mij
enturies
▁Homes
escription
vari
penses
anners
▁globalis
cs
▁capit
5(4)
▁Improv
▁grad
rav
ssions
prob
RODUC
sera
plies
omy
rous
▁86/
pers
4.4
▁aller
▁TS
atta
din
6.2
▁SD
ila
ravelled
BT
illi
eorem
▁Medi
.12.19
gri
ereb
gant
ether
ered
kt
matches
▁characteris
wall
lasse
rang
6(1)
ackets
dressed
▁32.
oco
▁Organis
bis
▁30.
▁stati
MPLE
atin
▁188
▁rationalis
maps
▁mete
entists
DO
alls
oordination

П
Н
К
β
ń
ô
⁄
ύ
¡
□
−
σ
ū
į
ш
Д
ź
Ł
¦
э
х
ñ
п
́
¬
к
ö
н
€
“
