<pad>
<unk>
<s>
</s>
-
'
▁u
,
▁l
▁ta
▁tal
▁
▁li
.
▁il
i
▁Kapaċi
."
▁"
a
]
▁f
▁jew
▁b
▁fil
▁fuq
)
▁biex
▁(
▁ma
u
;
▁għall
▁għal
▁kif
▁t
▁mill
/
▁dwar
▁minn
▁fl
▁n
:
▁tas
"
▁is
mod
▁tat
▁differenti
jiet
▁tiegħi
▁nuża
▁g
▁L
▁ir
▁id
▁it
[
▁dan
▁mal
w
▁tad
▁Il
▁eż
▁xi
▁s
s
t
▁r
użu
▁lill
▁d
▁j
▁tagħhom
▁huma
▁bl
▁meta
▁billi
▁in
▁bejn
▁ukoll
▁tkun
▁fi
▁qed
▁aktar
x
▁x
▁tar
▁għandhom
▁bħal
▁bħala
▁dawn
▁jiġu
▁nispjega
▁jkun
▁huwa
▁niddeskrivi
▁din
▁oħra
e
▁jistgħu
▁nidentifika
▁mhux
▁bil
▁nifhem
l
▁permezz
▁Malta
▁fejn
ment
Il
▁jista
b
ikel
▁nuri
zzjoni
▁għandu
al
n
▁1]
▁fis
▁N
▁sabiex
▁jekk
Artikolu
▁dawk
▁2]
\
in
▁kapaċi
▁kollha
Kummissjoni
L
▁i
▁kull
`
▁Għawdex
▁"1]
Regolament
▁m
▁nagħmel
▁dak
▁3]
il
▁ikun
f
▁jiġi
▁niddiskuti
▁fir
▁għandha
▁soċjali
Għawdex
d
▁se
KE
ti
▁jkunu
▁lil
▁hemm
r
▁kemm
3]
▁tax
Istati
▁skond
▁Membri
▁fit
▁sempliċi
""
▁wkoll
UE
g
▁"2]
▁4]
Suġġett
xogħol
▁hija
▁informazzjoni
saħħa
▁wara
▁tista
▁tiegħu
ħajja
o
▁partikolari
▁fid
▁I
ambjent
iet
oħrajn
ja
▁ikunu
li
▁tiġi
▁"(
?
▁skont
▁>
▁personali
•
▁nazzjonali
▁filwaqt
▁nikteb
▁tan
▁5]
▁wieħed
ilma
▁oħrajn
▁Ewropew
▁bi
▁prodotti
hom
Direttiva
I
ra
▁ser
▁mit
▁testi
et
▁nagħraf
▁"4]
▁għas
▁Nru
Aspett
;"
▁biss
▁ħaddieħor
▁nagħti
dan
enerġija
▁lokali
▁tagħha
mportanza
▁sa
Kunsill
F
proġett
ha
▁dik
Anness
▁għat
▁6]
▁A
jew
▁ix
el
▁ji
prodotti
▁lejn
suq
istess
▁min
Ministeru
iskola
▁Ewropea
▁1
informazzjoni
▁persuna
ijiet
▁parti
▁kien
▁"5]
▁ewlenin
▁nistaqsi
żewġ
q
▁ikel
data
▁2
▁iż
▁7]
▁flimkien
▁Dan
▁and
▁għad
A
livell
▁taż
▁T
es
▁qabel
ta
all
▁msemmija
B
ewwel
da
għan
iżvilupp
▁naqra
▁“
▁hekk
▁meħtieġa
▁waqt
▁hu
at
▁xieraq
▁inkluż
▁taħt
proċess
annimali
▁3
▁xogħol
D
▁madwar
▁persuni
▁D
ni
),
▁importanti
Malta
▁p
▁F
paragrafu
▁marbuta
▁nitkellem
▁Na
▁a
ħin
▁8]
▁of
▁"6]
▁nevalwa
▁o
▁S
kuntest
▁]
:"
dinja
▁B
▁ġew
▁data
▁relatati
żona
▁the
▁mis
7]
artikolu
Ministru
▁eko
▁‘
Kamra
S
Unjoni
Awtorità
▁mid
9]
#
Parlament
▁ieħor
na
▁12
▁nkun
▁kulturali
ing
każ
▁matul
▁kienu
▁speċifiċi
”
er
President
aħħar
k
Ewropa
andu
sena
▁e
▁xierqa
▁(1)
▁ġenerali
▁waħda
aktar
c
▁ambjentali
xa
▁żmien
ew
Kapaċi
ed
▁ġodda
ka
numru
applikazzjoni
▁eżempji
,"
ifhem
la
ri
karatteristiċi
għarfien
ar
▁attivitajiet
▁snin
▁9]
▁ħdan
en
▁ngħid
à
ma
nkwe
▁kuljum
▁mingħajr
m
▁numru
tfal
bda
passat
▁test
T
rigward
lingwa
▁ħafna
▁M
▁tipi
▁naħdem
prodott
▁oġġetti
ċi
▁sena
▁tajjeb
▁O
▁sostenibbli
▁hi
din
▁għaliex
▁ż
impatt
▁modi
post
▁[
▁noħloq
lu
▁bħall
għajnuna
▁Ma
▁mistoqsijiet
qasam
servizzi
▁G
▁jinkludu
euro
mużika
▁jintużaw
▁hawn
▁Is
▁P
tagħlim
Dan
▁fih
M
▁naturali
▁iżda
▁kwal
▁"8]
▁espressjonijiet
tà
Tagħlim
▁diversi
▁fihom
▁E
sistema
sigurtà
miżuri
▁legali
N
ħiliet
▁tieg
K
▁kliem
▁barra
▁10]
ċ
y
▁fost
trabi
▁ġejjin
▁11]
!
▁de
▁inklużi
▁komuni
proċedura
kwalità
Att
▁diġitali
▁Id
▁K
produzzjoni
▁stabbiliti
▁Maltija
▁U
▁effettiv
▁Ir
azzjoni
iex
▁ġej
▁It
▁internazzjonali
▁J
▁nista
zzjonijiet
relazzjoni
▁qosra
teknoloġija
▁naf
▁tag
▁4
effetti
▁quddiem
istudenti
▁nanalizza
Kisb
implimentazzjoni
termini
E
▁jkunx
servizz
▁TA
gżira
ieħu
▁sal
Saħħa
▁azzjoni
▁servizzi
▁jagħmlu
▁sehem
or
P
▁jsir
▁nsemmi
▁kienet
regoli
arti
▁C
▁niddistingwi
ajru
persuna
soċjetà
attivitajiet
▁5
h
▁kwistjonijiet
▁kumplessi
▁għar
valur
iskema
disinn
viżjoni
▁minħabba
▁ninvestiga
Pulizija
kontenut
▁Maltin
drittijiet
▁pajjiżi
ibni
partijiet
▁possibbli
▁miżuri
▁tagħna
▁kontra
pajjiżi
metodu
▁nsib
komunità
▁meħtieġ
)."
temp
▁(2)
familja
ħ
▁fiżiċi
▁tfisser
▁nqabbe
▁Din
żmien
▁grupp
▁taċ
▁jkollhom
▁sorsi
ammont
▁marbut
kitba
▁nesprimi
▁ġiet
▁"1
id
xi
2
▁ssir
▁nisma
klassi
▁2.
▁darba
▁nirriċerka
Ikel
▁frażijiet
▁mas
▁speċjali
test
G
▁Għawdxin
dar
bqija
▁1.
▁Membru
▁użati
pubbliku
ż
tnaqqis
ala
▁globali
▁ġie
▁livell
▁iktar
▁im
▁iċ
ġdid
▁sustanzi
oġġetti
sistemi
▁10
sa
▁ti
▁%
▁problemi
▁14
▁żgurat
konsumatur
▁stess
▁bażiċi
▁nesplora
▁sekondarji
wa
dawn
▁proġett
ad
▁aħjar
▁ekonomika
▁sakemm
▁bżonn
▁H
ideat
subartikolu
materjali
▁membru
▁fiha
forma
ch
dawl
kundizzjonijiet
p
funzjonijiet
konsumaturi
rekwiżiti
▁essenzjali
▁rilevanti
ku
▁morali
opinjoni
▁ċ
▁użu
fittex
▁mar
▁13
rwol
▁nnifsi
▁materjal
żieda
C
awtorità
Jekk
▁pubbliku
▁""
hekk
▁Uniku
▁dejjem
andha
▁tagħmel
politika
▁vokabolarju
nies
▁materjali
▁napplika
valuri
▁nitgħallem
▁Konxju
▁pubblika
▁familjari
▁fiż
bini
▁15
ali
▁storiċi
art
▁forom
bażi
▁3.
▁16
▁nippreżenta
▁proġetti
▁ċerti
▁regoli
▁ninterpreta
Gvern
▁suġġetti
Daw
▁responsabbli
Sur
wassal
(
▁X
kull
▁liema
_
iskejjel
▁japplikaw
▁7
▁maħsuba
▁nies
fehim
effett
nsegwi
kura
dak
▁Debono
▁Soċjali
▁kompetenti
▁kritiku
▁applikazzjoni
▁attwali
▁jinkludi
▁III
plastik
▁Daw
▁jit
Kummissarju
▁niżviluppa
▁ġewwa
▁imsemmija
▁totali
teħid
is
▁Jiena
kontroll
afas
▁sinifikanti
af
KEE
kuntesti
konsum
▁postijiet
J
settur
▁fosthom
liġi
▁nieħ
▁c
bniedem
eb
oħra
on
elementi
andhom
▁magħmul
▁disponibbli
▁sew
▁varji
▁referenza
▁inqas
pjan
▁to
kuntatt
▁numri
mien
▁kontroll
▁kwalità
benefiċċji
iskop
▁mad
ati
▁II
ir
▁mir
▁qasir
modi
▁ċar
▁stabbilit
Direttorat
dritt
ekonomija
differenzi
tkabbir
livelli
▁"3
Deputati
▁tiegħek
▁pubbliċi
tieni
▁jingħata
▁preżenti
▁għalhekk
▁In
pjanti
▁jien
▁tkunx
▁Ministru
▁Jien
kariga
membri
riżorsi
▁w
ija
▁avvenimenti
▁nipproduċi
fatt
▁nikkomunika
▁elettroniku
▁servizz
▁għajnuna
materjal
▁ħajja
▁gruppi
Ambaxxatur
differenza
forom
sustanzi
▁interess
▁tliet
punt
▁8
▁nirrifletti
um
▁jagħmel
▁mużika
▁post
industrija
Is
re
riżultati
▁prodott
▁kampjuni
bejgħ
▁għandi
isposizzjonijiet
▁Meta
▁sitwazzjonijiet
▁ekonomiċi
tul
▁prattiċi
an
v
▁xhur
preżent
proċessi
U
elettriku
dejta
▁/
azzjonijiet
▁nirrispondi
▁ftit
▁mhumiex
▁kollu
▁TAL
de
Wara
▁membri
▁bis
rabta
▁R
programm
punti
programmi
▁żvilupp
internet
riskji
ġisem
▁bla
▁Stat
ità
▁20
tipi
[[
trasport
applikant
etti
dħul
▁japplika
▁isir
▁mat
sit
▁Lokali
▁għalihom
▁simili
ur
du
R
tip
▁fin
▁sħiħ
▁Ewropej
Fond
gvern
perjodu
attività
npinġi
(2)
suġġett
▁6
ju
▁tajba
▁ideat
futur
midja
ħidma
għanijiet
▁sistema
relazzjonijiet
għ
▁me
▁sar
kapaċità
bidla
▁skop
inqas
istorja
▁finanzjarja
aspetti
rapport
▁magħhom
▁tingħata
H
It
▁"12
▁mg
)"
▁sesswali
negozju
▁Malti
▁letterarji
▁k
O
se
▁riċerka
ent
negozji
ixxi
kultura
prinċipji
persuni
Qorti
każijiet
Madankollu
]]
▁gwida
▁kummerċjali
dejn
età
▁jsiru
diversi
▁bit
seħħ
z
▁għadd
MT
▁fix
Barra
nuqqas
konformità
protezzjoni
▁fiżika
as
▁ewlieni
▁nippjana
żgħażagħ
▁nagħżel
3
▁għax
▁tul
▁uffiċjali
Istat
▁akbar
▁adottati
▁lista
Komunità
joni
).
ret
opinjonijiet
pajjiż
Kostituzzjoni
▁riżorsi
▁għarfien
ġġ
wettaq
▁saħħa
limitu
popolazzjoni
▁eċċ
▁jipprovdi
riskju
▁1774/2002
għawm
ħtiġijiet
▁jiżgura
elezzjoni
▁tajbin
▁jkollu
▁19
▁ħadd
▁għoli
Din
Fl
sorsi
▁Kull
▁ħsara
manifattura
kunċett
▁30
▁minnhom
Malti
▁napprezza
ħolqien
▁ħiliet
▁San
għu
isem
▁raġunijiet
▁individwali
Ajru
▁nipprepara
▁fiskali
▁diġà
▁preżentazzjoni
▁mag
▁18
▁bażi
▁5.
ħtieġa
▁21
▁dettalji
%
indikazzjonijiet
▁tradizzjonali
natura
proċeduri
kwistjonijiet
10]
Fil
▁sentenzi
ba
organizzazzjoni
▁kont
rata
j
ikseb
Bord
▁mogħtija
identità
Kumitat
numri
▁saret
raġunijiet
▁annimali
▁pro
▁isiru
fini
▁jin
osta
▁negattivi
▁trattament
klima
▁migrazzjoni
▁tagħmir
▁għan
▁wiesgħa
▁elenkati
▁aħna
Meta
▁riċiklat
ħbieb
▁imma
ipproċessar
udjenza
sħiħ
barra
▁ġdid
sitwazzjonijiet
▁attività
▁valur
▁karatteristiċi
strutturi
moviment
Regolamenti
...
firx
▁oġġett
▁varjet
▁bbażat
▁applikabbli
ħud
tur
awtoritajiet
traffiku
formuli
fatturi
preżentazzjoni
▁jinsabu
nti
za
▁mil
▁bir
▁=
▁4.
tu
▁(3)
istruttura
▁jużaw
inizjattivi
▁eżistenti
emissjonijiet
▁anke
ħamrija
Deċiżjoni
lista
għażla
▁minerali
▁Fl
▁17
▁100
▁issa
▁pożittivi
bassi
▁(4)
▁metodi
▁sitt
▁biċċ
Id
▁deċiżjonijiet
Pilastru
▁online
▁nitħaddet
▁elettorali
▁jagħti
▁Em
Prim
ħalib
ien
snin
▁formali
miri
ji
▁\
tie
▁standard
▁juru
▁nirrelata
▁propost
provvista
▁mużikali
▁etiċi
▁miktuba
bżonnijiet
▁pajjiż
▁awtorizzat
▁reali
▁konsultazzjoni
ett
arja
kummerċ
mel
▁milli
▁lili
▁finanzjarju
▁domestiċi
▁jitkellmu
▁jaħdmu
▁mentali
ispejjeż
sitwazzjoni
kliem
aħjar
11]
▁qiegħed
parti
ru
▁ni
▁bid
it
kriżi
▁konformi
terminu
▁kopert
ittieħed
▁barranin
▁siti
effiċjenza
tifsira
deċiżjonijiet
(3)
▁Jekk
Trattat
▁politika
▁rapport
▁spe
jali
disposizzjoni
isfidi
▁jittieħdu
▁jagħtu
▁V
UEM
▁żgħar
ordni
▁prinċipali
irwol
▁tagħti
▁Lulju
kunfidenza
operatur
▁saru
klijenti
▁kbira
▁sistemi
istat
▁ħsieb
aħ
1
▁jintuża
▁tinkludi
ol
▁partikolarment
▁jag
▁sħabi
▁tagħlim
Għal
appoġġ
▁relatat
Drittijiet
responsabbiltà
im
▁"15
nutrizzjoni
tal
▁lingwa
▁impatt
▁"2.
tejjeb
▁onlajn
iskart
Edukazzjoni
▁Għawdxija
▁effiċjenti
▁tekniċi
▁għand
▁jinvolvu
▁ri
▁Eko
▁Għand
flus
▁perjodu
▁fatturi
kg
▁riċiklaġġ
baħar
▁dejta
attenzjoni
bidliet
bu
tibdil
▁tard
▁oriġinali
vantaġġi
▁jipprovdu
ћ
twetti
tindif
▁nikkalkula
▁illegali
Istudj
▁issir
esperjenza
(1)
▁ekonomiku
▁di
diversità
deċiżjoni
ĠU
testi
siti
taħdit
kondizzjonijiet
sustanza
direttament
żi
▁fehim
▁mi
ermezz
▁9
▁preċiż
le
mira
▁xogħlijiet
▁en
kunċetti
▁jistg
▁programm
▁xjentifika
▁xjentifiċi
▁Nazzjonali
▁bażika
▁norganizza
mu
jiġifieri
▁imsemmi
▁Legali
▁Ottubru
kollabora
▁finali
temperatura
▁xahar
edukazzjoni
▁vitamini
postijiet
komponenti
regolamenti
▁speċjal
▁organizzazzjoni
▁tekniki
▁"3.
ata
interpretazzjoni
rakkomandazzjoni
inbidel
▁jinsab
▁ħin
ATM
grad
▁fuqhom
▁sigur
▁Hu
▁speċifika
▁finanzjarji
▁għolja
Sigurtà
karbonju
▁inkun
ġurnata
dispożizzjoni
▁valuri
ispazju
limit
/100
▁Ġenerali
▁2012
▁relazzjonijiet
▁aspetti
am
xagħar
konsegwenzi
▁emendata
żfin
▁elementi
``
▁"""
aktarx
▁organizzat
▁Me
dokument
oħloq
politik
);
ek
enerali
▁obbligat
▁Pubblika
▁tintuża
▁speċifiku
▁tieghek
▁jieħdu
▁mog
▁partikulari
▁jiżviluppaw
▁jgħixu
▁Skeda
▁juri
▁Eżekuttiv
▁niddefinixxi
▁lura
▁minnu
aq
Internet
▁jkollh
Ġermaniż
▁"14
istituzzjonijiet
▁involuti
▁jgħinun
▁pożittiv
avvenimenti
▁proċess
▁affarijiet
▁għodod
ktar
▁mod
▁+
▁8.
ilwaqt
▁11
▁qal
­
imnut
MSA
Aġenzija
▁riskju
4
▁Jannar
kontrollur
▁opinjonijiet
▁aħħar
wiċċ
▁ja
daqs
$
leġiżlazzjoni
rispons
oqsma
migrazzjoni
erja
72
▁skala
mezzi
▁tip
impjiegi
▁on
▁sħiħa
▁indikazzjoni
▁erba
▁regolari
tim
komunikazzjoni
Skon
.”
▁Sant
las
ikteb
konferenza
ċentru
▁studji
▁relevanti
▁favur
▁tiżgura
▁Settembru
▁protezzjoni
▁jridu
agħraf
▁spazju
▁strumenti
▁"1.
ament
problemi
bidu
talba
anqas
▁prattika
Sa
▁għażliet
▁verbi
▁ċert
indirizz
▁ra
▁insib
Artikol
▁jeħtieġ
▁nuqqas
emm
▁nipparteċipa
▁niddisinja
▁ikollhom
▁jwasslu
▁ibbażat
▁primarji
frekwenza
▁2015
▁re
▁jitqiesu
▁can
▁biċċiet
▁previsti
▁pereżempju
▁studenti
▁que
▁bħalma
▁Giovann
▁effetti
progress
kriterji
esperjenzi
qari
xogħlijiet
hemm
tagħmir
Għarbi
▁jkunux
mmaniġġjar
▁punti
▁jgħin
▁stili
▁permess
te
di
▁attivi
Ir
għid
naqqsu
iżmu
▁addizzjonali
▁indipendenti
Ordinanza
▁liberu
▁jibqgħu
▁jibbenefika
▁jifforma
▁jaffettwaw
▁qalet
▁kurrenti
................
▁uniku
ross
▁temi
erba
prezz
diskussjoni
kemm
▁24
kwantità
xita
metodi
trattament
▁dikjarazzjoni
▁tagħrif
▁attiv
▁stabbilita
għalliema
▁MRLs
th
lum
▁anqas
ġ
għa
atra
humiex
▁xjentifiku
swieq
preżenza
▁Awissu
▁għaż
▁2002/
suġġetti
▁negozju
▁tipprovdi
▁partijiet
kompjuter
▁għalija
Annessi
pubblikazzjoni
kawżi
▁tieħu
funzjoni
linja
rispett
▁aġġettivi
awtorizzazzjoni
istil
▁22
▁awtorità
▁W
▁ġdida
▁nutrittiv
ter
▁suġġett
▁komunikazzjoni
abiex
proġetti
eda
qa
mt
▁jgħinu
Iskeda
▁storiku
▁biżżejjed
mplikazzjonijiet
▁qegħd
▁politiċi
konklużjonijiet
gżejjer
▁taħdem
▁q
wir
objettivi
tneħħi
riżultat
▁ħidma
▁potenzjali
▁{
▁alternattivi
lief
▁Parti
Ċiniż
gassijiet
volum
▁baxx
turiżmu
Pjan
qorti
MRLs
reazzjonijiet
▁Re
▁sett
għadd
▁forma
▁analiżi
▁lingwaġġ
Servizz
▁6.
▁turi
▁dwarhom
mg
▁sustanza
Re
▁punt
hux
inhu
▁Ġ
▁professjonali
▁jintlaħqu
▁deskrizzjoni
▁"2
▁kunfidenti
Italja
▁lineari
riformi
▁kulħadd
twaqqif
▁2016
▁norbot
għandu
tielet
▁għandhomx
investiment
▁teknika
▁ksur
abba
▁bihom
▁jistabbilixxi
▁kimiċi
pożizzjoni
▁addattati
inizjattiva
promozzjoni
prestazzjoni
karattri
titjib
verbi
▁opportunitajiet
piż
dieta
▁appoġġ
▁karattri
▁je
▁per
▁insolv
▁adottat
▁be
ikklassifika
▁mezzi
▁proċeduri
qosor
Xogħol
▁titqies
▁tinsab
▁jirriżultaw
ers
grupp
interess
▁le
▁nżomm
▁kriminali
kapaċitajiet
zza
▁drama
xiri
ce
▁ftehim
ura
kunsens
miktub
Korp
▁28
familji
bżonn
att
għażliet
konsultazzjoni
lingwaġġ
▁kelma
▁25
▁kundizzjonijiet
liġijiet
▁moviment
▁aċċess
ħoss
▁żfin
un
irreferi
▁formuli
▁LE
ul
enti
perspettivi
▁elettroniċi
Iżvilupp
▁jinbidlu
▁Ambjentali
▁transfruntiera
ikkummenta
▁Pubbliku
▁strutturali
Kapitolu
iżvantaġġi
eress
▁ngħaddi
▁naqsam
▁jirrappreżenta
▁nikkunsidra
▁ġeneri
▁ilma
▁sigurtà
arranġamenti
▁magħżula
▁każijiet
▁jiżdiedu
▁każ
tliet
▁`
▁għanijiet
andhiex
▁26
▁nara
▁Tri
▁IL
ipprovdi
”,
▁effettiva
▁umani
▁illi
seb
▁evidenza
...'
dettalji
▁miljun
proposta
▁mudelli
add
ffarijiet
▁dokumenti
▁oqsma
iddetermina
Ġ
▁maħsub
▁mard
▁kuntatt
▁proposta
▁dritt
if
prinċipju
▁nikkuntrasta
▁xulxin
▁studju
▁nislet
veloċità
VEL
▁tiżdied
▁ugwali
▁Internazzjonali
proporzjon
8
▁Diċembru
▁irid
▁"“
▁mexxej
▁għaddej
▁rwol
▁ie
innovazzjoni
▁bħa
▁pjanti
Arti
Min
▁relatata
eżekuzzjoni
sens
Belt
Ingliż
riċerka
emenda
▁jg
ħaddiema
linji
▁Dr
tali
▁tmiem
tan
▁ab
turi
est
responsabbilta
ton
interessi
gruppi
ie
asal
dokumenti
ux
▁Stock
▁diffiċli
▁ndoqq
▁nikkollabora
▁joffru
▁jaħdem
▁rinnovabbli
▁ġenetika
ina
▁jibqa
▁konxju
▁dirett
sara
▁enerġija
WAR
▁grafiċi
▁qbil
bbli
▁għadhom
▁Marzu
▁bidla
▁jeħtieġu
▁Azzjoni
▁miftuħa
▁nofs
▁pre
eż
▁att
isport
▁addattat
kompetittività
bilanċ
▁emendat
introduzzjoni
▁kuntesti
...,
indikazzjoni
twemmin
-1
emozzjonijiet
▁kwistjoni
analiżi
▁rispett
għodod
▁kejl
▁flus
▁adegwat
mula
▁riżultat
▁qasira
▁2006
naqqas
▁Għal
min
tessuti
▁nett
(4)
enza
▁ħażin
V
tajiet
▁uffi
▁apparat
▁dar
idejn
▁Permanenti
Ambaxxata
▁nsolvi
tniġġis
é
possibbiltà
▁inti
ICT
▁proċessati
▁LI
ement
▁tistabbilixxi
▁effett
▁ikollu
▁stil
▁frazzjonijiet
prezzijiet
awtur
▁massimu
▁magħrufa
domanda
kampjun
▁}
▁żon
▁negattiv
vi
istrumenti
▁adattati
▁kariga
▁kreattivi
ro
▁livelli
▁Uniti
▁film
▁sp
▁kulturi
banek
Żon
▁naħse
▁Data
kwistjoni
▁użat
Direttur
xorb
impenn
▁daqs
▁sens
ispożizzjonijiet
▁minnha
▁proċessi
▁deċiżjoni
mes
▁Al
▁v
Servizzi
are
&
Xandir
▁fattwali
▁industrijali
Ċentru
Suq
żamma
▁nissuġġerixxi
imġiba
▁jikkonformaw
Teknoloġija
st
artiġjanat
konsenja
▁Min
gov
▁deċimali
▁regolatorja
▁Mejju
kandidat
X
▁istruzzjonijiet
▁ogħla
▁tkabbir
▁pjan
▁rigward
setturi
▁investigazzjoni
▁problema
▁plastik
▁(5)
▁atti
▁provdut
ġimgħa
parteċipazzjoni
do
▁inkluża
mediċina
organiżmi
Prote
fassal
prattika
Għalhekk
tekniki
evidenza
▁Ħ
kisb
integrazzjoni
▁"7
▁Unit
W
tija
▁7.
Hu
affarijiet
ww
▁23
fiċ
kejjel
diskussjonijiet
▁jiżdied
introduċi
▁jidhru
involvi
sejjieħ
‐
▁annwali
▁2011
saħħitha
▁ekoloġika
▁ngħaqqad
Università
ippromwov
▁bħalissa
▁joffri
▁nindika
▁faċilita
\-\
▁fundamentali
▁ruħi
▁nħoss
kuntratt
▁relattiva
▁meħuda
diskors
▁ħa
▁trasport
▁wie
▁strateġiji
fatti
kampanja
▁soluzzjonijiet
▁hinn
▁"4.
▁un
▁es
▁opinjoni
adozzjoni
laqgħa
lokalità
Ambjent
sħana
kejl
tagħrif
Bħal
demm
▁awtorizzati
▁lis
▁esperjenzi
mudelli
ħa
itlob
▁jitqies
so
▁ċivili
tura
ġestjoni
▁Għawdxi
elenka
▁jattendu
▁ngħix
▁trid
▁jitwettqu
▁bażiku
▁rurali
▁2010
oġġett
▁ifisser
ġbir
▁jfisser
▁as
▁ħaġa
▁jinforma
▁viżivi
▁tuża
▁VI
▁kreattiv
▁reliġjużi
▁ekwivalenti
▁reat
▁umana
▁tinbidel
Iżda
klijent
▁midja
▁skema
għalliem
▁mingħand
▁10.
▁tfal
ā
angoli
▁rappreżenta
▁korrett
▁restrizzjoni
▁xaħam
tar
jar
fih
sentenza
potenzjal
Informazzjoni
sikurezza
total
▁argumenti
▁linji
darba
standards
pro
▁9.
▁pa
ne
ine
iv
▁miftuħ
▁linja
qu
▁kbir
▁mix
▁bini
▁għażla
▁tgħin
▁sport
▁massimi
ejn
vokabularju
▁sodisfaċenti
▁ġeografiċi
kategoriji
▁jistipula
▁nosserva
istudji
▁reġjonali
▁Vitamin
▁xort
▁stima
▁jikkontribwixxu
Q
▁sentejn
▁struttura
▁spjegat
▁serra
▁edukattivi
▁miżjuda
▁għaliha
▁diretti
▁el
▁ko
▁divertiment
nu
koordina
perijodu
▁tit
fondi
ajiet
reazzjoni
6
▁azzjonijiet
▁nużahom
pressjoni
inali
direzzjoni
dikjarazzjoni
ġenituri
glutina
karriera
restawr
opportunitajiet
madwar
valutazzjoni
▁investiment
istrutturi
eduri
▁qorti
għodda
▁lest
▁"16
▁Amministrattiv
▁kontenut
Sinj
▁komponenti
▁intern
▁GĦAL
testijiet
▁ċentrali
elli
aw
overnanza
▁ewlenija
▁jeżistu
▁jippermettu
perikli
▁analitiku
▁Kikku
▁jintlaħaq
Uffiċċju
▁jżuru
▁ruħhom
▁jinfluwenzaw
▁mistennija
letteratura
▁Uffiċjali
▁Ġunju
▁biċ
indirizza
qsam
ezza
MUR
tmexxija
irtira
▁mfassla
▁direzzjonijiet
▁kkunsidrati
▁ħam
▁jkompl
▁jum
▁"17
▁for
eġ
tá
▁rappreżentant
▁laqgħa
24
pplikazzjonijiet
xandir
▁involut
għaqda
ħsieb
opportunit
proteina
somma
xaħam
iġjene
▁futur
▁ċara
▁Stati
utenti
inkejj
▁jiā
▁talba
▁bih
▁gżira
▁modifikat
▁ħi
▁ppreżentat
▁sit
reat
tejbu
▁mistenni
▁llum
inġinerija
ċiklu
Onor
▁tekniku
▁kellhom
▁aċċettabbli
▁jilħqu
os
▁inqabb
▁skrutinju
▁iżjed
▁Żvilupp
ry
xjenza
▁malajr
▁jippromwov
▁2008
ittestjar
▁poeżiji
xejriet
aċċess
▁kopj
▁talbiet
▁āie
ç
▁espressi
atti
▁Alla
▁ittri
▁terzi
fond
fl
użi
andux
parir
▁su
▁finanzjament
propost
á
▁"10
UR
fu
iktar
Avviż
Post
mewt
ċittadini
setg
qrib
libertà
individwi
▁jiena
kontijiet
The
kompożizzjoni
>
▁man
ix
kelma
Data
dik
▁prestazzjoni
▁mhi
▁ammont
hu
▁rispons
-20
int
▁jiks
▁"18
▁inter
-3
▁Ta
segwi
▁jsaħħ
▁nirrispetta
istima
▁udjenza
▁Fil
Commonwealth
Palazz
▁Diġitali
▁nimmaniġġja
▁permanenti
▁Parlamentari
sostenibbiltà
▁bejniethom
▁ħlief
ANS
▁medju
▁artistiċi
pa
finanzi
▁speċi
▁nirrapporta
▁assistiva
diskriminazzjoni
assar
▁will
▁nirrappreżenta
▁nixtieq
▁jindirizza
▁Governattivi
▁pestiċida
prijoritajiet
▁sportivi
importazzjoni
▁titlob
ajr
unjoni
▁2,
urament
▁ittra
▁ħlas
▁è
▁użata
deroga
▁indirizzati
▁tabella
stabbiltà
:00
dotta
▁futuri
▁suċċess
▁29
▁Għall
kJ
▁50
rati
▁tapplika
Trattati
nefqa
faċilita
▁limitat
▁vi
iss
kumpanija
kostruzzjoni
ħsejjes
Gozo
medjazzjoni
reklamar
kontribut
kbar
kulturi
ieħor
xhur
għandhomx
▁arti
ġustizzja
isma
▁titjib
Qu
▁kitba
passi
żon
▁żjara
lott
▁bidliet
VAT
▁ċari
▁diskussjoni
▁żviluppat
▁impjiegi
offri
▁Se
▁tin
▁indirizzat
▁EUR
▁jippermetti
▁sħaħ
▁verbali
effettività
▁normali
Xjenza
▁parallel
▁jikkonċerna
▁tqis
▁waħdi
fomm
bnedmin
▁jindika
▁Forom
▁miġbura
▁2013
▁jitnaqqas
▁Anness
▁twil
▁kellh
▁Valletta
▁informali
▁¿
▁nżid
▁mwettqa
inklużjoni
▁jaqd
bi
▁Novembru
nuqqasijiet
izzazzjoni
▁drogi
▁dħul
▁Bla
▁fiss
▁siġar
▁jara
▁kuntratt
edija
reġjuni
▁konsistenti
▁komposti
arju
▁Ż
ċirkwit
adulti
serje
isti
0
żomm
izzjoni
zjoni
vuċi
Parti
okkażjoni
belt
raġuni
Direttivi
paragrafi
qgħad
medjatur
▁tis
soluzzjoni
taxxa
sorveljanza
laħam
ġilda
tmiem
proteini
pestiċidi
teknoloġiji
▁kontribut
Għall
▁baġitarj
▁ħbieb
▁familja
nutrijenti
▁koordina
▁żied
▁ambjent
▁pprovdut
argumenti
der
iġġustifika
________________
arjetà
ħars
▁għaxar
kampjuni
5
▁paragrafu
▁mezz
telefon
inħawi
▁agrikoli
▁obbligatorja
▁struzzjonijiet
▁tippreżenta
▁minimi
▁Anton
▁jinkisbu
relevanza
hrs
▁jemenda
▁jibdew
uffiċċju
▁miċ
▁interessati
sejbiet
Qala
▁jidher
▁nwieġeb
▁fhimt
▁April
▁skejjel
em
▁tkompli
residenti
▁utli
ok
▁soġġett
iż
▁diretta
identifikazzjoni
▁Ċ
▁nħobb
▁stejjer
▁ka
Qed
artikoli
ist
▁residwi
▁38
▁stipulati
reali
▁baxxa
able
▁tippermetti
▁kollox
▁ħajti
▁teknoloġiji
tion
▁so
▁spjegazzjoni
▁kbar
frott
eħtieġ
▁valutazzjoni
ib
radju
fil
karozzi
lingwi
▁dieta
mediċini
ħanut
Segretarju
aċidu
finanzjament
▁adattat
suċċess
dawk
▁awtorizzazzjoni
għalf
▁speċifikat
uri
aġġettivi
▁miri
▁stipulat
tariff
▁restawr
▁pressjoni
▁ist
▁ming
▁termini
ot
impjant
itkellem
diet
▁jinżamm
▁sforz
Awtorita
nju
▁produzzjoni
abbiltà
ant
▁emozzjonali
▁leġiżlattiv
▁teknoloġiċi
▁vakanti
kwalifiki
-2003
▁ngħin
▁apposta
▁joqogħdu
▁CAS
Repubblika
▁attendew
proprjetajiet
▁infushom
▁kellu
soċjetajiet
▁artikli
▁sfidi
▁niġbor
▁inċident
▁qatt
▁iz
qed
▁nqassar
▁jemendaw
net
to
▁ġejja
limitazzjonijiet
▁Ċiniżi
▁nitlob
si
▁IV
▁xeni
moda
▁perjodi
▁differenza
tradizzjonijiet
għajr
▁messaġġi
▁sekwenza
operat
▁aċidu
pjanijiet
ance
(5)
kulur
▁jibd
fluss
▁kura
regolament
djar
pari
▁angoli
sistenza
▁jistax
investigazzjoni
ieda
▁emozzjonijiet
▁jaf
▁President
benesseri
▁promozzjoni
Taqsim
kodiċi
▁fondi
Kap
qalb
kompetizzjoni
proprjetà
karattru
ħażna
kollox
ser
problema
mistoqsijiet
▁kwantità
ħsara
komunitajiet
Fir
▁am
▁kwa
▁drittijiet
sin
▁tibdil
9
▁taħdit
akbar
▁jis
▁ġ
▁approċċ
varjet
▁jirrefer
Ispanjol
Knisja
Matematika
saħħtu
ċelloli
▁faċli
▁letterarju
▁nikkontribwixx
▁taffettwa
▁vulnerabbli
▁kontinwu
EIA
xhieda
▁nargumenta
▁ipproċessat
▁magħha
▁attakk
▁jirrigwardaw
▁VII
▁sikur
▁nassessja
▁y
▁jipparteċipaw
▁niltaqa
▁joriġinaw
▁konvenzjonali
▁stampi
detentur
▁jiddeskrivu
lek
▁kanzunetti
biedja
▁legalment
▁91/414/
▁miksuba
▁nindirizza
territorju
▁magħmulin
▁jinkis
ve
ivili
▁kitbiet
▁protetti
▁tinvolvi
no
mi
▁preġudizzju
skala
▁Fiżika
▁implimentati
attitudnijiet
▁żar
▁okkażjonijiet
rappreżenta
▁lartikolu
▁jesprim
pakkett
▁limitati
referenza
▁żviluppati
▁2007
▁2014
▁softwer
kelliema
▁kampjun
ħu
ke
-30
▁The
▁manifatturat
▁proporzjon
mudell
▁permessi
▁skola
eq
oxr
▁ex
żid
▁twemmin
▁standards
sta
▁jistgħux
▁familji
▁inizjattiva
▁setturi
and
qra
Komunikazzjoni
obbligi
fiduċja
idea
▁pe
trasferiment
żejt
prevenzjoni
prosegwiment
perspettiva
għeluq
lezzjonijiet
tabib
sezzjoni
tajba
iku
mhux
ħinijiet
sinjali
minn
▁nifform
ispeċifikazzjoni
▁elett
tqegħid
▁għalf
▁ordni
▁attenzjoni
▁disinn
com
▁aġġornat
▁65
▁"6
▁medi
jt
▁minflok
▁jixtieq
▁2005
Konvenzjoni
▁ghal
▁2002
us
Palestina
▁estensiv
▁vokazzjonali
▁tgħix
▁storja
ritmu
saħħithom
▁jiffurmaw
EASA
▁nipprattika
▁Speaker
▁Frar
▁teatrali
▁safejn
▁jkollok
▁jimplimenta
▁inkella
▁jgħaddi
ħaddem
▁pproċessar
▁tilq
▁fiżiku
▁għandek
▁neżamina
▁jidħol
▁vaganza
▁inżomm
▁rispettivi
▁sussegwenti
esportazzjoni
ivvjaġġar
▁prova
log
isforzi
ħares
▁destinazzjoni
▁suġġerimenti
kontrolli
▁konformità
▁meqjusa
▁prinċipji
▁mitluba
In
▁emerġenza
▁ħwienet
rġu
▁applikati
▁kompjuters
marki
co
ress
▁dettaljati
iftakar
▁an
rwoli
▁ekwazzjonijiet
▁Euro
Ri
ly
▁artisti
▁logħob
▁dettall
▁forza
▁kumpaniji
▁tradizzjonijiet
▁con
kurrent
▁pestiċidi
▁Att
rju
sors
Fi
▁individwi
▁te
▁reati
.1
fornitur
▁għodda
▁somma
avveniment
▁mqabbl
▁xorb
▁Servizzi
▁xorta
▁abbozz
▁funzjonijiet
żmu
kon
diviżjoni
wettqu
▁Hi
seklu
▁ġust
Indikazzjoni
Mediterran
massa
grammatika
▁għ
mandat
dmir
karta
▁wir
Grupp
sejħa
om
ewro
ġnien
jaqsmu
tnejn
kumpaniji
sekwenza
xorta
=
▁passi
korp
netwerks
▁ilKostituzzjoni
▁delega
▁rapporti
▁prepożizzjoni
nar
itnaqqas
▁midħ
pre
vot
mill
riħ
▁miżjud
uża
ża
▁uża
-“
kuluri
ki
ga
kors
input
elimina
▁mediċi
▁jmiss
Annimali
Kumpanij
ġejjieni
▁jiffinanzja
▁nimprovizza
▁noqgħod
▁tablets
▁tgħallimt
▁misjub
forniment
bijodiversità
▁tiltaqa
tfassil
▁'¿
▁organika
▁personalment
probabbiltà
▁medika
▁mibnija
▁faħħ
▁jiddepend
▁kimiku
izzju
▁nistgħu
jed
▁irregolari
▁qiegħda
▁eżempju
piena
▁trijangoli
▁moderna
▁eċċellenti
▁jnaqqsu
▁primarja
▁jkolli
-15
▁max
▁...
▁għaml
▁ank
▁tpinġijiet
▁kwantitajiet
▁"20
▁1,
▁djalett
▁appell
▁wa
▁tim
▁konvenzjonijiet
ita
ifikat
tempi
▁kotba
?,
restrizzjoni
▁differenzi
▁mekkaniżm
▁monitora
▁kandidat
▁privat
▁emendati
▁karattru
▁komunitajiet
▁tmien
▁nik
inhi
▁grad
▁stat
▁Ix
▁kwalifika
▁al
zzazzjoni
▁valida
▁sikurezza
▁at
impjieg
▁Għalhekk
▁dawl
▁27
ħut
influwenza
▁funzjoni
su
uni
għoti
▁preskritt
enfasizza
▁kkunsidrat
tikketta
netwerk
Konsl
ġeneru
triq
email
konservazzjoni
dinamika
ħila
residenza
ħwejjeġ
tqassim
individwu
fehmiet
bajd
softwer
notazzjoni
bħal
Euro
vokabolarju
Kull
aċidi
inhuma
kunsinna
▁Numr
forzi
▁kondizzjonijiet
▁jipproduċ
▁kolonn
▁dettaljat
▁jistabbilixx
▁sitwazzjoni
ito
▁skem
▁għalih
▁pass
ħajti
waqqaf
▁meħud
iddikjara
▁Huma
evoluzzjoni
ini
ante
▁ħars
naħa
Matu
▁2009
ieħed
▁Kumitat
raba
Sistem
omm
▁msemmi
-5
urnata
▁tattendi
ftuħ
eometrija
Tribunal
▁kontemporanji
▁matematiċi
▁nittraduċ
▁
Kategorij
karozza
▁sfida
karigi
▁nqis
xemx
Tieni
Fost
▁miegħu
Sustanzi
▁soċjoekonomiċi
▁storika
kriterju
PST
Qrati
▁inġenerali
Għaldaqstant
teorij
▁ruħha
allef
FMI
▁jingħaqdu
▁nagħmlu
▁skart
▁jmorru
popolari
▁siegħa
▁jaġixxu
▁proċedura
ambitu
▁qawwija
▁riċenti
▁preċedenti
▁Komunitarju
▁iżomm
▁elezzjoni
▁viżiva
etta
▁jintu
▁ritratti
▁iŜ
▁mistiedna
▁toħroġ
▁elettriċi
▁profonda
▁PA
▁jinżammu
▁ktieb
▁darb
▁unika
▁Wa
▁maħruġa
ex
▁impjieg
▁għamilt
▁prattiki
▁minimu
▁identifikati
pe
58
▁definiti
▁dijagrammi
▁esperti
kont
▁żminijiet
RA
▁reviżjoni
▁Im
▁riskji
-19
▁involuta
huw
formazzjoni
▁self
▁kapaċità
▁vetturi
▁Fejn
29
▁formula
▁djalogu
▁korretti
leħen
pożizzjonijiet
deskrizzjonijiet
▁va
▁xejn
▁(6)
▁tpinġija
jarju
-2030
hat
pi
▁pożittiva
▁z
-10
▁proprjetà
▁installazzjoni
▁soluzzjoni
▁sejħa
▁pakkett
Se
▁terz
taw
metall
Dipartiment
verb
30
wie
ari
qiegħed
▁uman
Soċjetà
Berlin
Ma
kawża
▁kriterji
għajnejn
Rapport
widien
Bank
Proġett
Qafas
smigħ
baġit
kunflitt
alkoħol
Organizzazzjoni
angolu
konnessjoni
gost
mekkaniżm
Mekkaniżm
eżempji
ġodda
tpinġija
jekk
nagħmel
▁leġiżlazzjoni
▁irRegolament
pronomi
evalwazzjoni
issa
ejjin
biċċ
kontribuzzjoni
rappreżentant
lsien
▁lilhom
▁responsabbiltà
▁student
telf
▁part
ente
forza
▁magħruf
▁ross
▁300
dati
ë
port
fornituri
▁madwari
▁fattur
▁taħlit
ugwaljanza
▁trans
frammenta
▁juża
BĊE
®
▁1999/468/
▁Annwali
▁Personali
▁korrispondenti
▁akkumpanjat
sieħba
▁komprensiv
▁mibg
għaqdiet
Ġustizzja
ħsibijiet
▁http
▁kostanti
▁kuntrattwali
▁bankarja
Kummerċ
▁tibqa
ESS
isfond
kooperazzjoni
▁jiffranka
▁elettronika
▁Miżur
▁kimika
▁barranija
nnelli
▁spejjeż
://
▁jirċiev
▁multipli
▁joħroġ
lin
▁għaddew
wwel
▁ghall
▁ħxejjex
▁jżid
▁sekondarja
▁nsir
iżviluppi
assenza
ies
avjazzjoni
▁armonizzati
▁speċifikament
▁allokat
xjentisti
▁kkonċernati
▁normalment
▁moderni
fażi
▁kritika
▁operattivi
iffrankar
▁innovattivi
▁mikro
▁validat
▁Oħrajn
▁kieku
▁orali
▁Tipi
▁biljun
shing
▁pproċessati
▁espress
▁websajt
mer
verżjoni
▁applikant
▁informati
▁grafika
▁h
▁twettaq
▁terminoloġija
para
▁jiltaq
ilhom
▁simboli
itajiet
ko
FA
▁Pjan
ëi
Art
▁evalwazzjoni
▁Prodotti
har
▁diskors
▁korp
▁tnejn
partiċ
▁konnessjoni
ber
provi
▁adegwati
▁lesti
▁non
nirrakkonta
▁proteini
▁noti
istili
▁notazzjoni
eg
bar
▁nutrijenti
jo
▁Informazzjoni
▁Prote
Sena
▁eżekuzzjoni
reġistr
sess
ħajt
▁naħa
messaġġ
apparat
▁MA
▁nipp
▁privati
Jien
▁movimenti
let
mard
ħruġ
ID
endenza
injam
demokrazija
▁37
xejn
kapital
kamp
weraq
(6)
Politika
jal
periklu
formula
▁trab
perfett
ismijiet
logħob
iffoka
taħriġ
dettall
"""
▁los
2]
ftehim
monitora
laboratorju
eżerċizzju
time
kbira
bed
ogħla
kostitwenti
▁esperjenza
ingredjenti
Avukat
ness
popl
Programm
▁kollaborattiv
▁soċjetà
temi
edda
50
ej
▁mqabb
4]
setgħa
-2020
▁jserv
▁una
ivverifika
▁mn
▁jirriżulta
▁mogħti
▁"5.
ispejje
▁spejje
-2014
Istitut
Riżorsi
benessri
fittxu
imħabba
istabbiliment
ħġieġ
▁Sostenibbli
▁niddokumenta
▁nukleari
▁vvalutat
acquis
▁drabi
▁jaslu
▁naċċetta
sajd
▁ulterjuri
PDG
xebh
Disinn
▁Iva
▁fond
▁Superviżorj
Ċina
▁Barranin
▁strumentali
▁ġeneralment
Karta
Magħmul
ikliet
▁nistudja
▁għen
▁jittie
▁jadotta
▁solari
ilmijiet
▁magħqud
▁Komunitarji
▁jaqgħu
▁jilħaq
▁che
▁31
xenarju
▁grammatikali
▁argument
▁ruħu
▁with
-2010
▁żdied
iskeda
▁tkopri
ci
globalizzazzjoni
oddu
▁subparagrafu
▁kapitali
Europe
▁neħtieġ
una
impatti
▁International
▁Kemm
-2016
▁theddid
▁dizzjunarju
▁assoċjati
funzjona
▁kcal
▁Xi
▁films
gass
moħħi
amministrazzjoni
▁ngħataw
▁stampa
▁distribuzzjoni
▁attiva
▁mbagħad
nifs
▁avviżi
▁approvati
tru
▁benefiċċju
▁aġġustament
▁mudell
▁pariri
▁età
▁kwalitajiet
ut
▁tikseb
▁unitajiet
▁korretta
▁ħ
oni
▁kummenti
▁ġo
Ż
▁ghand
▁interni
▁individwu
▁aċidi
▁tibd
nom
▁jaqsmu
▁provi
▁għeluq
anza
▁tabib
▁ingredjenti
▁telf
għat
▁"11
argument
▁inhuma
▁direzzjoni
▁pas
▁illum
▁miktub
qassam
għal
▁preparazzjoni
tema
▁preċiżi
▁Ka
!"
tkellem
▁politik
urnal
fisser
simulant
ċertifikat
ingħata
he
о
raw
▁Q
klassijiet
ġesti
▁Jo
kala
formola
definizzjoni
ħoloq
▁definit
ġenerazzjoni
seduta
Reġistru
taqsim
liema
▁rabt
wasslu
▁evitat
teatru
għeruq
nimmarka
infrastruttura
lokalitajiet
kontenitur
plural
deskrizzjoni
aħbarijiet
turisti
kotba
▁Ki
sentenzi
djalogu
ħafna
tabella
bord
▁"4
▁edukazzjoni
kontaminazzjoni
ipproponi
ema
ps
istenna
▁introdott
▁żgħir
20
ċertifikati
katin
▁jrid
ere
messaġġi
oħroġ
▁Prodott
-25
▁jikkontribwixx
ielet
▁2004
ball
Indja
lettorali
onverġenza
▁ferm
▁kwadri
Bniedem
Iskola
ettorat
istrateġija
korrettezza
telefown
trażmissjoni
Ċittadella
▁intenzjonat
▁neċessarju
▁promoss
μ
▁jvarjaw
▁iqis
▁nnifsu
▁demokratiċi
Konferenza
▁ninforma
▁analitiċi
festival
▁skolastika
▁filgħodu
Deskrizzjoni
▁turistiku
trobbija
▁artistika
koperazzjoni
kaŜijiet
▁jilq
▁espost
▁għaddejjin
▁joħolqu
▁Ħxejjex
▁Konġunt
▁jaqblu
▁jiffaċilita
▁Kunsill
▁kalkolatur
istrument
▁hawnhekk
▁mġiba
▁nilħaq
▁MALTA
▁Onorarju
▁konsolida
Dar
▁għalfejn
▁por
▁simulati
▁indaqs
eqre
▁affettwati
tisħin
konsistenza
vittma
distanza
▁SMS
▁anniversarj
ifformula
▁jirriflettu
▁simulant
ela
hallas
▁ċirku
▁zokkor
mara
▁nafx
▁web
ior
▁esperiment
▁iridu
edizzjoni
reżistenza
korsijiet
▁~
▁vokali
▁nis
▁artiklu
▁ġrajjiet
▁sapport
▁Għajnuna
▁wirja
)?
▁reġistru
▁adegwata
tariffi
13
▁pprovduti
▁aħbarijiet
bonds
ttiv
▁%)
riet
▁2020
▁speċifikati
metalli
▁ekonomija
▁angolu
▁gost
▁Amministrattivi
Isp
1,
Indikazzjonijiet
ħar
inter
▁konsum
gh
movimenti
IN
▁ġilda
▁kostruzzjoni
▁biż
AZZJONI
ilment
▁liġi
aċċessa
▁kontijiet
▁jiġr
▁wiċċ
dew
▁Sa
▁kompożizzjoni
▁kon
attiv
▁ambjenti
▁IN
lo
ikomplu
\\
▁impenn
▁taç
▁demm
atturi
▁est
-26
▁_____________
sessjonijiet
died
indika
▁dis
▁40
sitt
▁indirizz
mija
rimi
.3
▁der
▁qari
fer
tixrid
<
2/
materja
enfasi
oriġini
▁approvat
devjazzjoni
sodisfazzjon
toroq
raħal
preparazzjoni
kunsill
tbassir
manutenzjoni
tħejjija
sodju
(7)
dmirijiet
kategorija
simboli
residwi
drama
istruzzjonijiet
Fejn
viżitaturi
▁previst
karti
ben
wieħed
uffiċjali
Wa
ista
▁14(2)
met
▁deskritt
Illum
bid
but
▁regolamenti
▁applikat
▁speċjalizzat
▁understand
▁implimentat
ċerti
alih
▁ħalib
dm
manifattur
abitati
▁strument
agħmir
▁anali
itgħallmu
▁Lista
Ċ
LL
▁natura
tiċi
kwadra
ordna
▁jiżviluppa
▁kontinwa
irkostanzi
irċiev
onevolment
▁Ewro
Oppo
Familja
α
▁RICE
Abbozz
Pereżempju
agrikoltura
aġenziji
disponibbiltà
dizzjunarji
Ġermanja
▁Group
▁bŜonn
▁neċessarji
▁niddibatt
▁nieqsa
▁parzjalment
▁temporanji
▁temporanju
▁urġenti
▁ħfief

▁allegat
Kulleġġ
Turiżmu
intonazzjoni
punteġġjatura
▁lokalment
▁demokratika
▁umanistiċi
▁estetiċi
▁pertinenti
Banda
qoxra
Ġimgħa
▁Ċivili
▁żejjed
▁jidħ
▁jitneħħew
▁raġunat
▁militari
▁itwal
control
Studenti
PPE
▁tuza
▁Cole
televiżjoni
website
▁funzjonali
▁jitolbu
qisien
▁tinki
kontinwità
kellek
▁djeteti
▁perikolużi
gu
▁ġeneriċi
▁jittrattaw
simetrija
edura
▁15.08.2002,
▁jgħaddu
▁220,
▁isfel
▁bilingwi
Indipendenza
ippjanar
▁Edukattivi
Rabat
▁barrani
▁monetarja
▁Iż
а
▁Issa
▁governattivi
▁kwadru
▁narrattivi
Sitt
▁sewwa
▁favorit
▁nibda
▁temme
▁abbonat
kreattività
iżbalji
▁riferenz
▁sensittivi
▁reċenti
▁Proċedura
▁figuri
▁attrazzjoni
▁Tista
-2002
▁jinstabu
notifika
infurzar
▁osservati
etika
▁45
▁kumplessa
▁xog
▁dewmien
▁operazzjonijiet
▁edukattiva
▁my
▁Primarj
▁ntejjeb
▁klassi
▁gvern
▁żgħira
▁Bl
▁nirreaġ
▁entitajiet
▁karrieri
▁nkunx
...?
▁32
▁professjonist
▁speċifikata
kundizzjoni
▁installat
mezz
▁poeżija
▁eletti
▁"21
▁sodju
▁mhu
MI
▁effettivi
▁perfett
▁dritta
▁taħriġ
identita
▁ħwejjeġ
▁tqassim
▁mni
▁limit
▁potenzjal
▁perspettiva
,000
▁Kap
▁ID
▁Ri
▁dati
.5
▁Segretarju
sinifika
ifikazzjonijiet
▁Gozo
▁nutrittivi
▁reklamar
?'
▁Mar
▁qrib
ans
▁pronomi
▁proteina
interazzjonijiet
lat
▁apparati
▁sentenza
10
▁sat
riforma
tendenz
▁assisten
73
.2
akkar
impjegati
▁jingħad
atina
binjiet
ram
OR
jum
▁jibgħat
super
grafika
▁ME
▁bo
uniformi
▁integrat
attivita
spjegazzjonijiet
droga
▁edukattiv
obbligu
▁identifikat
ekwiżiti
preferenzi
kkritika
radjazzjoni
Taljan
Ta
me
nal
konxj
atmosfera
melħ
rutina
imperfett
allegazzjoni
konverżazzjoni
diffikultajiet
▁jid
poeżija
inħolqu
kummenti
cy
terminoloġija
kunsiderazzjoni
vetturi
è
▁(1),
divertiment
Għaqda
nofs
kimiċi
Giovann
▁super
bank
konsistenti
▁46
sehem
xahar
ħlas
vous
zu
determinazzjoni
espressjonijiet
unitajiet
self
vitamini
Awditur
▁ċittadin
▁volontarja
▁operatur
▁frisk
listi
bdil
artisti
▁jgħid
▁kostruttiv
iskem
▁Medi
valid
tifsir
ħat
power
kabbar
8]
▁strutturat
allas
ejt
▁multi
▁jikkonforma
▁pubbli
▁jissodisfa
▁mmexxi
idher
poġġi
▁joħo
▁neċessarja
@
Konsumatur
Netwerk
densità
ikonoxximent
salmonella
televixin
titolu
▁agrikolu
▁attraenti
▁faċilment
▁kontemporanja
▁kruċjali
▁ordinali
▁Ċentrali
akkwist
▁Komunitarja
▁smajt
▁stadju
▁makroekonomiċi
▁kkawżat
▁kmieni
▁nesperimenta
▁alġebrajċi
▁qrajt
▁tipproduċi
▁tikber
▁ppjanat
Assoċjazzjoni
ħaddim
▁enerġetika
▁jattira
edet
Tuneżija
aspirazzjonijiet
▁jikkumplimenta
▁maħtur
iffissar
▁nirrekordja
▁wisq
▁grass
istatus
▁ħajjin
▁jaqbeż
▁mniżżl
ifieri
▁twal
▁artistiku
kċina
▁63”
▁nnifisha
bajjiet
▁flessibbli
▁ninq
▁Dinjija
▁sostanzjali
traprenditorjali
tifsiriet
▁jikkawżaw
▁skeda
▁FIL
▁ijiem
▁jopera
▁882/2004
▁ħielsa
▁purità
ħatra
▁Limit
▁miktubin
▁minuta
▁tlett
▁jiffaċċja
▁primarjament
▁jseħħu
▁konsiderevoli
ġlied
intenzjonijiet
▁akkreditat
setgħat
appoġġja
iżviluppatur
▁2(
▁preċiżjoni
Kodiċi
▁jaqa
fas
▁determinata
Awtoritajiet
infiq
▁ħadu
▁volontarju
▁nim
▁Rapid
irrappreżenta
sir
▁innaqqas
▁art
:30
▁Hague
▁mapep
▁iseħħ
▁ffaċilitat
egħ
▁lanqas
▁mixtieqa
sottomissjoni
(8)
▁jerġa
▁jaraw
assorbi
▁estiża
rkupru
▁reġistr
▁Pro
ty
▁€
▁riflessjoni
▁adatti
▁residwu
raħ
▁INTERVISTAT
nhar
▁għamlu
▁stati
▁speċjalizzati
-7
komunita
▁viżwali
ostakoli
▁kuxjenza
tra
ive
▁medja
ation
▁sovran
▁limitata
▁avveniment
iva
▁jing
▁vjolenza
▁provvediment
▁sors
▁elettriku
▁kategorija
ean
▁alkoħol
▁Villa
▁ċirkwit
▁plural
▁sess
sien
▁po
▁jinvolv
TI
▁kunflitt
▁kawża
Għand
Ġur
▁wasslu
kopri
age
▁biha
▁mija
▁35
odd
▁Organizzazzjoni
mnixxfa
▁af
-2012
▁jinq
▁SA
▁sinjali
▁lingwi
eden
Ħ
▁impjegat
▁setg
▁ħsejjes
wali
lukanda
ml
▁lezzjonijiet
bilità
litter
tivi
▁iżid
▁modifika
▁tikkons
zjonijiet
▁integrazzjoni
TAT
ś
▁mediċina
▁adatt
_______________
▁jirrikonoxx
Persuna
trasformazzjoni
ens
je
▁th
distretti
▁Fit
Ekonomika
poter
-31
kolonn
▁las
▁possibil
ibbli
IET
ġid
oll
ill
approssimazzjoni
▁kumpless
▁kalkol
▁jitqass
AT
vidjo
▁immedjat
mal
saħħti
kontabilità
fehm
▁fuqu
medja
▁estiż
ingu
▁amministrattiv
faqar
vultaġġ
▁18-
MRL
leġislazzjoni
navigazzjoni
Rappreżentant
xena
dipartiment
organi
nazzjonalità
konċentrazzjoni
▁Prim
parteċipanti
uċuħ
Fuq
taħlit
vjolenza
provvediment
Għajnuna
konvenzjonijiet
sapport
negattiv
siġar
URI
membru
fergħa
wirja
II
ekwazzjonijiet
▁kompost
approvazzjoni
Wied
endi
għamla
▁tra
ġimgħat
▁qawwi
Regola
xxi
▁interna
pass
▁trattat
▁tifsira
ħeġġ
eżistenza
(1),
ZZJONI
▁klijenti
iċi
iċċekkja
▁ħalli
▁nbidd
▁alternattiv
▁mitlub
▁magħżul
▁intervista
▁relazzjoni
ieri
-2015
AW
erġa
▁St
kost
”.
▁jikkonsist
stra
grammi
▁2003
▁maħruġ
ħodod
12
werra
idħol
Raba
ikkontrolla
▁kubi
Reliġjon
Amerika
▁2000
▁jint
zokk
▁Govern
▁Alimentari
ispeċi
idrolisati
▁Trust
Enterobacter
GIPSA
Punent
bejjiegħ
imballaġġ
pinyin
sospensjoni
▁1935/2004
▁396/2005
▁Agius
▁Camilleri
▁Friggieri
▁Reġjonali
▁bijografiċi
▁intelliġenti
▁kkunsmat
▁mitkellma
▁rrefer
▁temporanja
▁tixtieq
▁verbalment
reqqa
ekonomiji
▁universali
▁jmur
▁mmur
ħsad
▁Rundle
▁ibba
▁nkanta
▁kostali
ISEM
▁ġeometriċi
iSpeaker
▁prijorità
mejda
diżabbiltà
▁jikber
separazzjoni
▁jassigura
▁Stabbiltà
▁miegħi
▁jolqtu
Isptar
▁Centre
▁iġib
▁95%
▁interessanti
▁jinġabru
▁matematiku
▁rikjest
▁45(2)
▁Dinji
▁emend
▁ikollha
▁ikla
▁wiesa
▁jikkomunika
▁nirreġistra
fedel
▁varjata
inħabba
Bħalissa
▁offruti
▁ristrett
enerat
▁jirrelata
aqwa
▁riċetti
▁jissaħħu
▁menù
▁mtejba
▁xarbiet
▁setgħu
▁°
▁jogħġobnix
▁silt
elenkata
▁iffinanzjat
memorja
▁Franza
▁naddatta
▁178
▁ffinanzjat
▁No
paġna
▁Fund
ES
two
stallazzjoni
▁33
▁edukat
alihom
▁urġenza
▁favorevoli
metru
▁dipartimenti
▁jżommu
monomer
▁mort
▁tinfluwenza
▁Brussell
▁IS
▁proporzjonijiet
▁rikonoxxuta
▁pajjiżna
▁benefi
ewwa
▁Għajnsielem
▁varjabbli
▁Programmi
andhomx
▁infurmati
▁turisti
▁amministrattiva
▁komposta
▁vaganzi
▁kunċert
erti
▁dokument
▁prevista
▁ordnijiet
▁drawwiet
▁Victoria
▁90
▁ċertifikat
▁Kristjani
▁reliġjonijiet
Għalf
riċeviment
definizzjonijiet
▁nixtr
▁rispettivament
eraq
fejn
▁work
Patt
▁evitati
-2004
▁5,
irregola
▁MRL
▁jikkunsidra
▁jistghu
tranżizzjoni
▁rettifika
jjem
▁impenjat
▁nwassal
professjonijiet
▁diffikultajiet
Ŝ
lhom
▁kienx
rapreżentazzjoni
ekosistemi
▁determinazzjoni
▁(7)
▁bejgħ
▁konverżazzjoni
nzi
koordinati
ana
▁"25
▁or
Isem
-12
▁80
▁Mekkaniżm
▁fissi
tri
▁msaħħa
sejjaħ
▁parir
▁die
▁3)
▁ik
HC
▁nidde
▁tqegħid
▁interessi
▁tagħ
ade
investimenti
▁frott
▁kuntatti
▁La
▁sorveljanza
moħħ
▁ġustizzja
▁indikat
94
imla
nat
▁baxxi
▁co
▁opportunit
▁impjant
▁glutina
▁karriera
inkludi
32
▁Fir
kond
▁Persun
▁jir
▁pr
iddefinixxi
▁organiżmi
ekk
▁ikoll
work
ttivi
ħla
▁lilu
▁60
ttieħdu
ver
▁are
EU
▁manifattura
tele
mil
▁viċi
abbozz
paga
ez
▁ne
reġjun
▁sessjoni
ud
permess
approċċ
nutrijent
aboratorju
▁nikkonsidra
▁jirriflett
aspett
▁fatti
bli
▁spjega
▁rakkomanda
▁"22
dipendenza
fruntieri
reviżjoni
▁konsegwenzi
żel
line
professjoni
Je
realtà
▁sodisfatt
kaz
ekwazzjoni
tipjip
espressjoni
websajt
vidjow
▁komunità
awdjo
kompiti
Dikjarazzjoni
TFUE
offerti
kom
acea
NGOs
roaming
tisjir
magni
ħame
żminijiet
Waq
issaħħa
mfassla
riċiklaġġ
strateġiji
ittri
ktejjeb
▁reliġjuż
sħab
▁habe
kwalitajiet
ifika
▁jinbe
ittra
nisa
fi
festi
blat
▁nb
zzi
empel
▁Mari
Iż
soluzzjonijiet
▁rett
▁jaqb
▁persunal
▁Sen
Maltin
▁konkluż
reġistru
▁ffissat
hed
▁elettur
▁espert
▁pproċessat
aqsam
mul
80
▁diskuss
tnedi
▁mibdul
▁nadif
persunal
istrat
▁General
▁tippre
▁Deċiżjoni
tehim
fa
Sovr
ilità
▁ippreżentat
▁bidu
eh
▁sub
▁spazj
▁pubblikazzjoni
oluzzjoni
zi
2,
wida
output
▁jaffettwa
▁joriġina
▁setgħet
essat
izza
irriżulta
sub
▁awtonom
agrikultura
mużew
Gazzetta
pulizija
Awstrija
Kuwajt
Privatezza
intervall
kontravvenzjoni
pajsaġġ
Ġeografija
ġibs
▁216/2008
▁Azzopardi
▁Inguanez
▁SERVIZZ
▁mwaqqfa
▁nassoċja
▁prattiku
▁spettaklu
▁strateġija
▁studjajt
▁teknoloġiku
▁xahrejn
dijossid
/92/
ittikkettjar
çellulosi
ċirkustanz
▁jsegwu
Assemble
DATA
▁maħdum
ossiġnu
▁innifsu
Drama
▁domestiku
gzira
▁akkademiċi
▁korte
▁jitħaddmu
pocket
Linji
▁immur
▁kwadratiċi
▁doppja
▁prominen
Tnejn
pajjiz
Tfal
▁500
▁eċċessiv
iżbilanċ
▁marittimu
għerq
▁jappoġġa
ZZJONIJIET
MES
tikketti
▁Taħ
▁mediku
traspożizzjoni
▁prima
▁invit
▁jipproċessa
▁istituzzjonali
▁others
▁jirrikorr
▁perjodika
▁konkreti
2004,
ohn
maġġor
▁inawgurat
▁coli
▁bbilanċjati
▁artefatt
▁Oħra
▁lingwistiċi
▁inwieġeb
istokks
KUN
▁rrid
▁Napprezza
▁nittratta
Żjara
▁Domestika
▁tittejjeb
▁żviluppaw
Għalkemm
▁nirrikonoxxi
▁jġibu
iStock
▁mitkellem
▁aċċettata
▁relattivi
nanti
▁forum
▁nħobbx
▁nixtieqx
▁REGOLAMENT
▁dijagramma
▁bankarju
▁sekulari
▁bhal
Ħadd
immarkar
▁titwettaq
oli
▁abbuż
▁XI
Oġġetti
`-`
▁41
▁Ingliża
▁kkonċernata
allinja
ambjenti
paċi
ris
▁għaddiet
▁inħoss
▁stretti
▁Riżoluzzjoni
ajja
▁esprim
▁Monetarja
ttiva
gvernijiet
▁deskrittivi
▁separati
▁distinzjoni
▁iehor
▁ġudizzji
▁90/
▁JEW
▁sensi
▁ml
▁taghm
▁avvanzati
ċert
-2009
▁graff
-{
▁konnessi
konferma
▁Festival
▁reklami
wied
▁ħelu
▁miżura
▁laqgħat
▁stampati
▁anti
▁indikati
▁proċessar
▁eċċezzjoni
▁Applikazzjoni
▁intervent
Wirt
▁FL
▁int
ħuta
▁proża
▁mappa
▁Sistemi
ire
19
▁euro
▁baġit
ac
iness
Xi
▁ha
anti
▁roaming
alma
ħna
▁jipproduċi
▁preskritti
▁Wied
▁Pi
▁nomi
▁zu
ag
▁ġimgħat
▁retti
çi
pakketti
▁kunsiderazzjoni
▁allegazzjoni
fen
nomi
▁manutenzjoni
▁tħejjija
▁provduta
▁baġitarji
▁kontaminazzjoni
▁addattata
pronunzja
lood
rat
▁isem
▁verżjoni
▁ismijiet
▁litru
▁"26
▁Car
▁eżerċizzju
taħlitiet
jon
sh
▁tema
ge
▁MIN
▁3,
tolleranza
▁ġnien
tarf
żen
▁netwerks
▁tasal
▁prosegwiment
и
▁Ekonomik
riproduzzjoni
subartikol
▁total
Sem
▁Direttiva
▁Nagħt
bor
sostni
posta
instab
▁kumpanija
▁kuluri
▁_________
fet
-27
▁pi
aqra
▁iġjene
▁jiddefinixx
▁laħam
red
▁reazzjoni
▁pulit
tabbilizzazzjoni
▁organizzati
▁dentist
▁negattiva
-16
missjoni
ate
basta
▁Direttur
mo
rapporti
tella
ħba
▁eżatt
salarj
▁ħaddiema
▁stampat
bien
▁libertà
25
▁progress
AR
regola
▁turiżmu
hia
▁Co
istazzjon
▁3.1
IF
fur
.4
ċċa
derivati
ER
iċċelebra
▁rwoli
{
possibil
qiegħdu
▁soċjo
Ar
▁kuntest
*
format
Amministra
Pretér
Milied
CAD
disinji
identifika
sovrani
kompetenza
kmamar
Kultura
SAĦĦA
arloġġ
TAQSI
aġġornament
ċirkostanzi
riżoluzzjoni
sentimenti
udjenzi
stadji
taxxi
ħadid
twelid
Membri
estensjoni
karrieri
artiklu
ġrajjiet
benefiċċju
avvanz
dijagrammi
djalett
perjodi
drogi
kuxjenza
Alla
riflessjonijiet
pereżempju
bdie
▁insaħħ
aġġustament
professjonist
ira
stejjer
tagħmel
▁kunfidenza
iżgura
Lisbona
▁rifless
kif
ika
verifika
▁varj
prin
okkażjonijiet
ultat
ittadin
tions
direzzjonijiet
ażijiet
▁ipprovdut
1.
▁regolatorj
▁ħad
▁operat
▁kummerċ
▁"24
▁stazzjon
mess
▁imsej
għodd
▁ordnat
▁rikonoxxut
▁mixtieq
▁meqjus
▁mineral
ejje
▁jinstab
▁uffiċjal
ran
limkien
ibbenefika
▁avviż
▁riżors
▁tir
wissija
ilħaq
▁Teknoloġi
trab
▁artiġjana
TE
▁Ā
aġġusta
alġebra
koll
▁ġeografika
▁jogħġbuni
irrikjedi
▁kklassifika
inawgura
▁jixraq
▁msej
▁klini
briks
▁jogħġb
Għajn
-2011
Aċċess
EEA
Enerġija
Informatika
Istorja
Sadanittant
broadband
ibbuljar
improvizzazzjoni
qurriegħa
▁Filarmonika
▁NITGĦALLEM
▁Sqallija
▁Vjenna
▁evolv
▁fittizji
▁jipproteġu
▁jirrikjedu
▁kultant
▁mibjugħ
▁money
▁niddeċiedi
▁ohrajn
▁promozzjonali
▁reċensjoni
▁trasparenti
▁Ġorġ
▁ġismi
▁żejda
Dimension
RLAH
sostituzzjoni
trasparenza
xewqat
▁Preca
▁intellettwali
▁megħjun
navigabbil
▁Euclid
▁Service
▁jaqbżu
Kwart
Health
▁più
prefiss
ċentri
▁stmat
għotja
▁semana
eventwal
imgħoddi
▁nqabbilhom
▁Ħtiġi
▁Superjuri
-2007
▁Attard
▁obbligatorju
▁solidu
ispiża
▁primarju
rime
KUM
bieraħ
▁japprezza
rġiel
iffaċilita
▁possessivi
Ħamis
▁Mentali
CAM
ssjedi
▁jonqos
onevoli
▁sistematiku
Istituzzjonijiet
ġeometrija
MEPA
▁għaċ
▁tonqos
▁dinamiku
▁2029
fjuwils
reattività
cyst
Użu
soltu
KAP
▁organiżżat
installazzjoni
▁isostnu
cloud
immigranti
▁tinżamm
▁jirregolaw
▁jiġġeneraw
▁mimlija
/2005
xokkijiet
▁jfissru
▁famużi
investituri
▁25(2)
kondotta
person
▁social
▁jiddeċiedu
ġens
▁jippreżentaw
▁ritmi
▁agrikola
▁skript
▁siġra
▁Foundation
▁plaster
ajt
taqsira
▁oppost
▁jirrikjedi
pinta
▁milqugħ
▁preċiża
aniġer
divorzju
▁alia
▁nevita
▁minima
▁statistika
▁ambizzjużi
DNA
▁nirrevedi
▁miż
▁ġenwina
▁arts
▁jissodisfaw
98/
▁Proċess
▁Kerċem
▁mnixxef
▁mużiċist
▁Midwife
▁solidi
▁Anniversarju
▁minuti
▁ġibjuni
▁tattiċi
idma
HA
▁jitkellem
titlu
luq
orjentazzjoni
▁avukat
estru
90
kanali
▁rrapurta
▁jipprevedi
▁diżastri
▁Taljana
▁ttrattati
▁quddiemha
sider
е
▁nota
istaġuni
piżijiet
itx
▁irrid
▁fiżikament
▁ġustifikati
▁kwalifikata
ikkonverti
▁likwidi
▁indirettament
▁politiku
▁ippubblikata
▁infurmata
▁konsegwenza
▁tiddikjara
▁EkoSkola
▁twaqqaf
▁tabelli
TTIVI
ġġudika
Me
▁nistima
▁npoġġi
tfittxija
▁idea
ck
▁isse
iskambju
▁informattivi
▁esterni
▁fuljetti
ittestja
▁uniċi
▁ħaxix
▁avverbji
▁jixtiequ
▁nofsinhar
▁eżekuzzjonijiet
GĦALL
▁tress
Bi
▁tħassib
▁rispost
▁sħubija
▁"8.
istrati
off
▁tirreferi
stimi
Liġi
ġabra
▁sports
▁amministrattivi
elezzjonijiet
▁rata
▁disinjaturi
enta
▁singular
▁dispożizzjoni
▁jitħall
0%
▁integrati
▁jogħġobni
▁2.2
nt
▁Kien
qer
▁qu
▁Marsalforn
▁Iċ
idi
kumplessità
▁Pja
varja
▁kin
delegazzjoni
▁estensjoni
▁adattata
▁ein
one
▁friski
iz
▁Fuq
-2005
▁etika
innota
āi
pixxi
▁riforma
▁diskorsi
EC
jetà
▁paga
▁ġesti
Żi
▁bin
għandi
be
▁Proġett
naqqis
huma
▁residenza
▁fehmiet
kkonsolida
▁jippromov
▁ħila
care
utent
SSJONI
ħad
nnaqqas
▁ingħata
fwar
bo
kontra
saqsi
▁esklussiva
▁kompetizzjoni
entat
▁do
LU
▁pay
▁jitqiegħ
250
▁rakkomandat
▁ħat
▁Għaqd
▁inkapa
ous
GB
▁Post
tjur
Universita
▁vantaġġ
▁tarRegolament
fertilizzanti
IM
sija
EN
żur
▁siguri
-2
▁Komuni
TERJ
wejje
▁55
wiri
ic
MENT
entitajiet
▁inhu
▁52
-28
abbli
oti
▁prezz
mar
zempju
tas
▁imni
poligoni
▁elf
po
▁70
▁serq
▁imejl
▁rappreżentat
ALI
Im
▁Ġermaniż
MA
▁Pr
▁għadda
▁liġijiet
▁dwarha
fiera
ejja
Li
mit
▁#
▁kunċett
tek
▁supplimentar
avukat
les
ational
▁tant
}
0,000
distrett
NA
mis
adatta
Għaqd
▁Ko
kkunsidraw
stanti
▁ton
▁Le
gwida
▁komplut
“
eġi
Kattoliċi
drenaġġ
▁42
negozjar
ikkonsulta
riflessjoni
▁Drittijiet
5,
jiem
rina
Kuntatt
▁"27
Rela
komparattiv
pack
warrant
18
żjara
Deput
sessjoni
kompożitur
ġebel
Franċiż
formoli
Kodi
George
Riċerka
Marsalforn
jogħġobni
rispettivament
proża
~
vokali
Lulju
hawn
morali
New
▁89/
iq
▁jitħalla
mm
▁segwit
▁but
ivi
ħab
▁1924/2006
▁dovut
▁jik
▁sostitwit
▁nkompl
▁protett
▁kompetittiv
▁Kopj
kompjuters
objettiv
Fit
-18
sotto
etajiet
01/
▁oral
▁preżent
mbagħad
isk
▁jerġ
istandard
▁tmexxi
▁Legal
distanz
taff
5%
kombinazzjoni
tor
ung
istabbilixxi
wieġeb
▁Onorarj
semma
▁imiss
▁0
▁teknoloġija
isfida
orbot
ejra
und
endikont
ettalji
Jiena
għod
▁Engineer
qiq
imperattiv
sala
▁element
▁2010-2012
▁nindu
issettja
laterali
▁teżisti
aratteristiċi
▁çe
ommunity
sekuzzjoni
ċarġ
parlament
bejg
▁Foot
awdex
Magħżul
▁powster
budget
erożjoni
perkussjoni
tkessiħ
≤
▁Ekonomiċi
▁Espressiva
▁Speċjali
▁għoljin
▁jippreskrivi
▁jorbtu
▁kundanna
▁numeriċi
▁parteċipi
▁prinçipali
▁regolarment
▁stabbiliment
▁tikkontribwixx
Mediċini
Ordni
istudju
▁eliġibbli
▁nippreferi
Teżor
kanċer
▁2006/6
▁konsekuttiva
ożonu
▁tircievi
rough
▁waħdieni
ORAT
▁grafiku
▁individwat
▁jiffunzjona
▁jikbru
isptar
▁drammatiċi
▁sottomess
privatezza
▁priġunerija
▁lqugħ
btajjel
Sibt
ispettru
▁diġa
▁kompletament
▁Fundamentali
kombustjoni
▁Paul
PSCD
fosfat
▁servut
qamar
Għarab
▁wrew
RSS
simulanti
▁tintlaħaq
▁organiku
▁raġonevoli
dieħla
▁orjentat
▁601”
▁organiċi
▁nibqa
▁Kulturali
▁jipprojbixx
▁jitjiebu
▁āimgħat
▁rringrazzja
▁murija
▁jintuza
energija
armonija
żerriegħa
▁jeżerċita
▁speçifika
▁jesperjenzaw
TÀ
▁ikkunsidrat
▁Magħquda
▁ngħidlek
▁jevitaw
ċirkolazzjoni
ajrudromi
▁immedjatament
istampi
▁niċċara
▁Carmel
▁estratt
▁jitwaqqaf
▁komponent
▁iservi
▁jinkorpora
▁Marija
▁ivarja
▁VIII
▁diffikultà
▁kritiċi
▁178/2002
▁Vella
▁Bus
▁graduate
▁applications
Kimi
▁magħluqa
▁speëjalista
SA
▁taqbilx
▁jidentifika
den
iġbor
▁ideas
nus
prudenz
▁inizjali
▁jgħinni
ibghat
▁iffirmat
allfin
realta
▁jawtorizzaw
▁niġġenera
▁intiżi
▁mistied
diġestjoni
▁serji
inġestjoni
▁niżgura
/2009
mir
▁Dwar
▁|___|___|
▁York
▁burdata
▁esej
▁aċċettati
▁għaxra
▁notifikazzjoni
ambaxxata
▁jippro
vez
▁EkoGħawdex
impenja
▁Che
▁Dak
ola
ann
▁tajn
▁nirċiev
4.
▁regolatorju
sostituti
likwidità
▁(“
▁jikkonsistu
Sistemi
ħarsu
▁maqsuma
▁Home
▁imperattivi
▁tnax
▁distinti
tturi
għir
▁SF
▁mehmuża
▁jintl
▁200
▁blokk
abbiltajiet
▁Dokument
issimplifika
▁(*)
plott
▁nid
▁kondizzjonali
▁impost
▁koordinat
▁mono
lim
mail
▁kompetittivi
degrada
▁erbg
▁seħħ
ster
ras
▁mistoqsija
▁ħieles
innegozja
▁rakkonti
▁versa
▁djar
cosa
▁antik
investiga
laq
▁dwal
▁dokumentazzjoni
tiku
▁evitata
ivil
Russu
inbid
▁festi
kriżijiet
erċe
▁ċifri
▁privata
hay
▁51
itwettaq
▁esterna
konfin
▁ġusta
of
▁semma
infrastrutturali
57
▁appoġġat
▁email
-2000
▁Għandh
▁kors
turistika
ħallsu
▁jafu
▁jie
▁ppreżentata
logħb
osservazzjoni
INTERVISTAT
qarre
sti
▁kundizzjoni
irc
▁jo
▁€2
▁rutina
sensi
▁imperfett
▁magni
▁tinħar
daqshekk
▁użi
rija
go
▁du
▁Pla
voti
▁tbassir
▁parteċipanti
▁jagħż
dux
-8
iffaċċja
▁4,
▁bord
▁Waq
▁kummerċjant
lok
-21
▁New
▁kulur
▁garanzij
▁periklu
▁pożizzjoni
▁ħruġ
kor
▁Qafas
forn
▁smigħ
▁netwerk
PE
▁Direttorat
▁dinamika
▁0,5
▁saħa
ħita
▁prevenzjoni
ety
iedi
▁56
tomi
ILL
fin
tika
▁ħażna
lokok
▁għandh
▁ħanut
▁ċertifikati
▁raġuni
▁okkażjoni
iġbed
______________
appreżentanza
▁13.
▁De
▁medjazzjoni
rom
istati
KK
▁xandir
marka
▁bien
tax
gar
bdew
▁Ch
▁FI
▁nħall
eżamina
▁bar
▁jirri
sett
▁inklu
gi
▁Mo
▁das
▁ċittadini
▁bank
abilità
DI
▁piż
ieli
referenzi
ago
56
allokazzjoni
roga
ġdida
▁pri
▁Ŝ
6,
ideali
▁jaqbe
-100
daħħal
▁tlieta
60
▁talpolitika
voluzzjoni
▁jitil
qsim
unità
det
7
fidi
▁analizza
razzjoni
hol
15
▁interpret
▁amministrat
ET
delega
22
Y
kummerċjalizza
▁qa
ikkunsidra
servi
ispi
gg
ort
▁proporzjonat
iddeskrivi
kar
▁dur
Es
▁xagħar
▁ġab
ibertajiet
Komunita
impenj
similarit
appell
profili
▁ĠU
▁nagħ
▁estern
pussess
ajjar
Numr
▁baħar
ħaq
żjoni
▁Y
eżerċizzj
▁isaħħ
bajja
▁Naq
imgħa
▁ikompl
attitudni
Musulmani
massaġġi
LRM
qies
▁innovattiv
batterji
nitroġenu
ambaxxatur
solidarjetà
żwieġ
daqstant
irrifjuta
interazzjoni
▁infurmat
96/
tabakk
tiftix
▁kampanj
▁kis
feedback
defiċit
ħżin
ristorant
▁jqis
ħlasijiet
ħeffa
estrazzjoni
mixj
▁wassl
projbizzjoni
addatta
pjattaformi
korruzzjoni
singular
ċifri
komuni
intervent
residwu
intervista
għamilt
prattiki
Fiżika
rendikont
Novembru
reliġjonijiet
minimu
ekwivalenti
adegwat
prattiċi
IE
Membru
jagħmlu
fo
uffi
Kien
ġra
disinjaturi
Nru
tagħha
▁not
alternattivi
▁fuqha
Ġenerali
▁awto
artist
jiġr
marda
aqgħu
ón
għall
▁indirett
ee
▁informattiv
▁assoċjat
aġġettiv
arranġament
fikazzjoni
▁prinċipal
provdi
Prodotti
Fis
31
tina
▁trasferit
▁mifrux
vittm
▁sejħ
nin
▁ippubblikat
▁ins
res
▁sportiv
Għadd
Tliet
mili
▁€1.
▁favor
tejn
▁hij
inklużi
kumpens
rutini
iġġenera
qtugħ
itjib
▁avvi
▁jgħix
▁ipproċessar
nd
ivvaluta
▁verifika
irrevedi
Qas
ikkonċerna
▁2012.
▁lid
pattern
amel
intbagħat
iddepend
40
nvoluti
istrieħ
ixxu
”)
biex
▁miksi
reliġjon
▁xogħli
siġill
kumpass
▁qieg
ustizzja
▁kul
gozo
▁ippro
č
DIRETT
univers
bijotiċi
IEĦOR
Lussemburgu
Sikurezza
Trattament
batterju
denominatur
detenzjoni
finanżjament
għelieqi
immaġini
isterjotipi
mobajl
rilevanza
simplifikazzjoni
storbju
▁Aquilina
▁Eliquis
▁Indipendenti
▁Individuali
▁Kollettiv
▁Konsolidat
▁jinbnew
▁joqgħod
▁kosteffettiv
▁madankollu
▁mitfug
▁muftieħ
▁nirranġa
▁possibli
▁simultanja
▁sperimentali
▁teknoloġika
▁titjieb
----------------
PŻE
accord
▁Issue
▁dalwaqt
▁pendenti
Nadur
intrapriża
ċellola
▁Beit
▁nżamm
Klima
▁bbenefika
▁komparabbli
widna
▁mmarkati
▁invest
▁nikkombina
Appell
berries
▁tinġabar
▁elettrika
▁jaċċetta
{{
▁grazzi
▁tmur
-2017
RASFF
▁nimmaġina
▁ġenetiku
Xagħra
▁Republic
▁rreġistrat
▁eligib
Istħarriġ
gravità
▁Mallia
gazzetta
▁realistiċi
▁Martin
saqaf
▁fossili
▁jiss
▁indispensabbli
▁2006/1
▁strada
socia
▁aċiduża
eph
▁intensiv
2+
▁āewwa
weġibiet
▁hlas
▁individwalment
qtil
COM
▁jħossuhom
▁mmirat
(2015)
empati
qadi
urbanizzazzjoni
▁jintwerew
▁jappartjen
pjaċir
wieġbu
▁jbigħu
SIR
▁jinqara
▁Food
▁Tiegħu
▁etiku
IKEL
▁seħħew
▁jħobbu
▁taghz
password
-14
▁awtomatikament
▁ttellgħ
materji
daqqa
▁tinforma
▁baqa
▁jispjegaw
▁arkitettonika
▁tweāiba
▁auf
▁mgħallem
▁Nagħmel
▁żbilanċ
▁timtela
ieqaf
ekwilibriju
issettjar
▁mandatorji
▁jipproteġi
▁lIskeda
▁listi
▁iżgħar
razzett
istokk
konklużjoni
▁IVA
▁14(3)
eluq
▁igawdu
▁direzzjonali
Jiżviluppa
▁nikkonferma
▁rapida
▁DVD
▁eżekuttiv
▁kjarifika
▁konservabilità
▁premium
▁software
▁probabbli
▁ċellulari
▁modali
▁ssib
xbie
▁programmar
▁Standards
▁bilanċjata
▁mwaqqaf
illimita
▁jixh
▁identità
truf
▁jikkontrolla
▁jirreaġixx
▁osservat
▁tond
ħadem
▁PC
Roam
▁platti
▁argumentattivi
suffissi
▁notifikat
▁iħaddem
▁_______
▁minuri
proporzjonalità
Inizjattiv
▁Russa
▁JE
UŻ
▁möchte
▁frodi
▁mobbli
▁м
▁Umani
▁għalik
▁5(1)
▁immarkati
▁taqsimiet
▁reġistrazzjoni
stika
▁komparattivi
allsa
▁twissija
▁ingredjent
▁props
▁nej
▁1(
▁trijangolu
additivi
espożizzjoni
▁tranżazzjoni
▁kompetenzi
▁tifel
▁linolejku
▁kantanti
▁Reklamar
indku
▁riabilitazzjoni
▁seba
▁2001
▁Insegwi
▁nħares
ieba
▁rendikont
▁tipproponi
▁ċelebrazzjoni
▁pjanta
ċittadinanza
▁Nista
▁jimpon
▁Regol
ċans
▁Kundizzjonijiet
▁apprezzament
▁ANN
▁għaddejj
gradjent
istatistika
▁operazzjoni
▁inpinġi
tisbiħ
▁sodi
pazjenti
▁konne
▁preżentat
▁inċentiv
▁evita
▁flessibbiltà
▁xoljiment
sk
▁(9)
▁mmexxija
▁qligħ
▁validi
adal
▁popolazzjoni
jet
▁ġieb
▁mibdula
▁nadifa
ċerimonja
▁konsiderazzjoni
ittadinanza
▁riflessi
▁sistematika
HO
▁sseħħ
▁(10)
▁passatempi
abitat
▁trade
uit
▁44
▁identifikata
▁sotto
ilbies
ċirkwiti
▁Barra
▁eżami
▁Kontroll
▁ffissati
▁Kodi
▁SML
▁tadDeputati
▁saffi
▁poter
▁imsejj
ert
98
▁pjattaformi
▁korruzzjoni
Ħaddiem
gen
▁assi
eco
aliha
▁Deput
▁under
▁RE
direttur
▁deskritti
festa
▁Riċerka
LA
ass
Yo
kosta
OP
▁udjenzi
▁riżoluzzjoni
kons
▁twelid
▁George
liċenzja
Cy
▁stretta
▁As
-9
▁64
-2013
-6
▁sentimenti
▁Materjali
▁EN
▁organi
assi
▁jirre
▁tisjir
▁eletturi
ene
▁libertajiet
▁à
▁Dikjarazzjoni
▁esperimenti
▁dmirijiet
▁futura
▁uċuħ
tre
▁reklam
▁materja
):
▁Bank
jonijiet
non
▁"30
pju
elle
los
nità
ato
▁jidda
1)
▁karti
home
kis
▁ram
għallem
▁ori
ev
▁kontenitur
ood
▁osserva
▁ho
▁settur
▁jiāi
▁zjoni
▁regolament
▁ruħ
▁kontribuzzjoni
cation
▁com
pla
37
▁konservazzjoni
skambju
fronta
bilixxi
▁verifikat
tista
▁tfittex
)(
▁like
ispeċifika
Koordina
biddlu
▁wettqu
▁eżaminat
▁provduti
kambju
▁nif
▁immexxi
▁kunsinna
sew
luf
1]
▁fornituri
ġixxi
sual
lasijiet
għaddi
▁mediċini
men
lemin
Numri
35
▁Cor
1,000
_____________
viċin
▁mewt
artikola
Ko
▁artikol
eā
unita
uta
sezzjonijiet
▁Funzjon
▁utenti
influwenzaw
oic
▁imn
ħassar
sib
ard
▁als
▁ssaħħa
▁ġimgħa
▁Respons
akk
ħx
fuq
▁sħana
▁trabi
▁Ewropeja
▁introduzzjoni
▁mer
▁ten
żż
▁laboratorju
▁ġe
ler
-23
pp
per
RE
▁Korp
ilbsu
hi
reati
CO
1/
intom
▁"5
orsi
lef
abbozzi
ppa
▁volum
▁emenda
...';
irx
ame
waqt
kompla
▁reazzjonijiet
ds
tag
uk
ipprova
konfront
▁par
▁mmaniġġjar
muskoli
esprimi
▁jagħmil
▁nkluż
▁band
ets
La
tat
▁fajl
matur
▁Con
ħalli
▁ig
vis
▁Tra
8)
▁lok
ger
ax
mb
Pro
MANI
sur
ifikanti
Ŝu
mid
sar
-2006
vel
iera
▁Kur
iema
▁esperimenta
200
pat
lett
▁_
▁ħabi
Por
ibertà
▁neditja
▁viżjoni
kumitat
rekwiżit
adattament
fattur
kunsinn
▁Ra
KA
.7
▁jeċċed
rima
distribuzzjoni
eżami
Ministri
Kuwait
għonq
fuħħar
simbolu
qamħ
segment
ospita
▁kkontrollat
▁avvanzat
д
sidien
doża
awto
Livell
dixxiplini
не
gazzetti
inġenj
mogħdija
matematika
influwenzi
akkomodazzjoni
▁effiċjenza
Kontroll
▁ipprovd
ssjoni
ks
dwal
tħassib
dover
miżura
ħelu
Victoria
drawwiet
Kristjani
SML
1999
ċirku
+
mappa
kwantitajiet
ħwienet
revi
Mejju
zokkor
Ottubru
massimu
ekonomiċi
IX
ibdil
Eko
▁interes
dokumentazzjoni
frażijiet
preġudizzju
jista
__
▁konness
ċertifikazzjoni
pieni
media
uniku
rispost
▁agħti
tqiegħed
ten
Teatr
▁Kon
opera
▁ATT
▁Agħ
Materjali
▁immaġinattiv
▁Global
komposti
mument
Impjieg
6]
pazjent
proċessar
▁dikjarat
▁espressiv
agħmel
kaxxa
preserva
▁awdjoviżiv
▁121
EX
uman
▁€0.
▁mehmuż
dinj
anni
▁Monetarj
insab
▁miksub
▁Minim
Għarb
▁kollettiv
ornituri
▁wasl
Profess
frazzjoni
ingredjent
TS
torji
inġustizzj
▁Materjal
avukati
ħul
spirati
▁awtoritajiet
iddistingwi
inkorpora
iftiehem
nazzjonali
▁emerġen
seminar
ivvjaġġa
lura
web
ħtiġi
▁jipparteċipa
atrimonj
irezzjonali
▁Officer
▁rakkont
issodisfa
franka
uffiċj
ersonifikazzjoni
ilqugħ
nerazzjoni
immaniġġa
own
▁02
ievi
normi
ipji
▁350
Muż
ilha
annabis
▁āew
venzjoni
militar
Sit
▁jintbagħ
▁rekord
41/
tmien
addotta
у
conditioner
я
Agrikultura
Bijoloġija
Forzi
Irlanda
KOSTITUZZJONI
Karintja
Kurrikulu
Munxar
Tunis
XANDIR
Xewkija
apparenza
derivattiv
espansjoni
evaporazzjoni
immodernizza
ippakkjar
ispettaklu
respira
surcharge
ħardwer
▁829/2007
▁Bosco
▁Ewlieni
▁Gauci
▁Number
▁Pharmacist
▁Pubbliċi
▁Sawdit
▁Xjentifik
▁computing
▁cultural
▁diverġenti
▁garantit
▁ikkapuljat
▁inferjuri
▁irrigazzjoni
▁kkonsultat
▁kumpannij
▁mgħaġġel
▁mhedda
▁nillokalizza
▁nħawi
▁obbligatorji
▁preventiva
▁rikorrenti
▁strateġik
▁tipparteċipa
▁tissupplimenta
▁vijabbli
▁по
Folklor
Kabinett
PARLAMENT
▁isegwu
▁jikkostitwixxu
▁nieqes
▁reżistenti
▁ġeografiku
ġrajja
▁BISS
▁fiżjoloġiku
▁nniżż
Prinċipal
▁Grech
▁essere
▁solvut
barrieri
rotot
▁immodifikat
Baħar
▁burdati
alkeni
▁ħmistax
▁empatija
▁tletin
(11)
Ambaxxati
alkani
▁nilqa
▁follow
kwestjonarju
ratorju
eċċess
produttur
uthori
diossidu
enzimi
pereż
▁stabbilixx
akkużattiv
▁world
rabja
▁elementari
▁Imqaddsa
▁Mediterranji
▁Team
▁tislim
Ħiliet
▁uffiċċjal
ecogozo
rëiev
SMEs
Teor
IĠI
▁jgħaqqad
▁status
▁mixtrija
▁5000
sengħa
umanità
▁jixtri
nikkomponi
▁demokratiku
Chairman
▁mejor
▁menus
sussidjarjetà
▁Karm
klassifikazzjoni
ċarġis
ikkopera
▁vitali
▁ETS
▁fiŜi
verità
▁iservu
għajn
KAK
▁2003/
ortografija
▁32(1)
Roaming
▁tiāi
▁jeżisti
▁niġ
raġonevol
▁jipprattikaw
▁klinika
▁iħossuhom
▁jogħġobhomx
esplora
KULL
sekli
▁1000
zji
▁stħarriġ
lamtu
▁simboliċi
▁assenjat
WC
▁riflettiva
▁jitħassar
▁Governattiva
▁interattiva
paid
▁ħamsa
multiplikazzjoni
▁term
▁case
tifla
▁addottat
▁ghas
▁ilKummissjoni
Imħallef
▁staqsi
▁marittimi
▁foloz
▁25%
scale
▁día
▁Don
etniċità
▁whe
▁tikkonforma
premju
▁jħallsu
▁jipprevjenu
nëer
medjan
▁Introduzzjoni
▁ħruq
▁diplomatiċi
▁jivvaluta
▁assigurazzjoni
▁present
▁jogħġbunix
▁bilaterali
▁000
▁Bord
mlieħ
▁tnied
▁jintbagħat
▁Kristjana
▁vitamin
oħolqu
▁Bankarja
▁magħrufin
▁nisp
▁jammonta
▁msejħa
▁Kattolika
interoperabbiltà
ewwie
sbuħija
▁gradwal
▁kelli
▁works
▁Finanzjarju
▁nibde
terremoti
▁tranżitorji
▁jordna
▁flejjes
▁2.1
▁Privat
▁Arma
▁ssimplifikata
Ŝmu
ilsna
▁Kontr
▁libera
▁jħares
▁inklużiva
▁infermier
artifatti
▁qima
▁Kriminali
▁Ċipru
▁Ġestjoni
▁Ġesù
▁ħżiena
▁likwidu
▁projezzjoni
▁kartolini
▁AVVI
▁porque
▁arrest
▁riveduti
▁está
▁tener
▁reġistrati
▁frażi
▁Ikun
▁over
Dinja
ifikati
▁Cross
jor
tikkettar
▁eine
ġarr
▁block
▁jisma
gé
personalità
varjazzjonijiet
▁Metodi
▁jaqra
urisdizzjoni
▁ċċelebrat
▁jintwer
2006,
ilmenti
▁jasal
sħubija
istix
IKA
▁rajt
▁korrispondenza
▁molekuli
▁pjattaforma
▁għaġin
Negozju
eur
▁ristoranti
▁ppubblikati
▁studjati
▁ħadt
▁life
▁naħat
ocal
▁board
▁kkontrollata
▁Ċiniża
▁Dott
▁jinkoraġġixxi
ppoġġa
issottomett
▁MISTOQSIJ
▁ġojjellerija
▁xaħmijiet
Peress
▁day
apparati
▁xita
60°
emica
▁vettura
▁twettqu
▁imposta
▁kant
▁jkopri
enter
▁awdjoviżivi
▁tħalli
▁kkontrollati
nsit
▁revoka
▁loġika
karatteristika
▁riċetta
▁kompitu
▁pagamenti
▁karboidrati
lità
▁kwalifikati
▁!
▁GĦA
addie
▁ġustifika
▁ich
Gran
▁kreditu
▁mon
▁58
▁nipproteġ
did
rali
▁korrettiv
cher
▁stress
▁Franċiż
▁drammi
▁bijoloġiċi
▁kuntent
▁industriji
▁addittivi
▁segwiti
implikazzjoni
ġir
▁depo
...............
▁ISO
▁perċentwali
▁kostruttiva
▁anzjani
orth
▁approvata
▁jivvota
▁akkomodazzjoni
▁influwenzi
▁matematika
▁pieni
Bil
▁ffirmat
ghandek
▁appart
▁alla
▁bħar
bra
jgħiduli
United
▁intensi
▁sħab
▁estiżi
▁kumpens
▁jitni
▁projbizzjoni
bert
arraf
isq
pol
▁formoli
out
proviżjoni
prepożizzjoni
▁bdie
MID
▁kumitat
▁jiem
▁ħadid
new
ref
▁espressjoni
▁poteri
skrivan
amm
▁kompiti
▁TFUE
▁offerti
▁nip
▁ktejjeb
kun
▁Sie
▁jiddeskriv
CE
▁konxj
Tul
wer
irrifletti
▁estim
▁konċentrazzjoni
▁Fond
ikkoordina
▁messaġġ
ċivi
▁uniformi
edi
▁kas
istru
(1)(
▁kunsill
għadam
għar
▁rimi
▁tu
▁teng
▁bajd
▁...'
▁(2
polimerizza
illa
▁lokalitajiet
appella
▁Fi
▁kamp
edimenti
▁melodij
botti
ġenzi
▁format
▁influwenza
▁kandidati
partit
ara
▁doj
fundament
abbilità
▁kisb
vulnerabbilt
Gre
awwar
▁aħse
▁triq
EL
▁indirizza
jiddeterminaw
▁Int
▁maturi
pH
cal
bejt
▁san
JIET
▁pparteċipa
▁żejt
28
▁trasferiment
▁ħdej
tubi
ipprepara
▁kliemi
ezzjoni
▁lilek
IR
reg
▁fissa
▁66
vii
ENT
fra
▁aw
...”
irrikonoxxi
razza
▁nippreżentah
karatterizza
▁jikkomp
ding
-2008
▁sfond
▁inb
▁tadDirettiva
то
1.4
▁form
kali
0,
ħejji
ern
34
ction
▁Uni
▁Avviż
▁eli
kli
▁sod
tir
light
▁res
▁analizzat
▁għaqda
PL
▁inkompl
▁Imp
ith
lit
ov
pilastru
bijo
entità
▁profitt
▁ru
▁pan
saw
oddi
▁Ambjent
wett
spazju
▁da
biż
▁kwalifikat
▁out
▁parteċipazzjoni
▁Ċiniż
AF
▁Ġie
ear
suffiċjenti
▁Qat
▁Fis
rif
metaboli
▁lokalità
ä
bla
▁nipprov
No
form
era
ediment
neħħi
lavur
▁bilanċ
ilħ
▁esibizzjoni
▁konsumaturi
master
▁huw
ors
▁jig
(2),
Ka
ple
superfiċ
mon
▁āo
organizza
▁eskluż
LI
ŜŜ
▁ak
dum
▁lillKummissjoni
zzjonali
Kummis
▁gassijiet
▁kompjuter
____________
gluko
ze
6)
89
▁jsostn
▁au
▁qui
adattamenti
▁36
gri
almu
vjaġġ
ssi
▁nikko
skond
▁Għarbi
▁tgħinn
7/
eri
zja
rja
▁Spe
▁unit
idu
propjet
ARD
▁$
installa
xorti
saff
▁95
għandhom
▁Univers
ċe
enes
ture
anin
▁Diploma
ena
dixxiplina
/1
ici
▁issue
dattabilità
▁sin
▁jqabb
ory
hix
▁date
IL
▁istituzzjoni
▁moral
▁temperatura
lag
irdi
▁vera
Mill
applika
bir
23
rċevuti
ltaqa
▁Cu
▁tik
perċentwal
dir
iltà
Bl
esperiment
QAR
ħallas
▁jpoġġ
Prodott
▁festin
komponent
IT
ebbħu
▁issaħħa
▁ristruttura
ado
GĦA
▁"8
modifika
▁Pulizija
rew
laboratorj
responsabil
evita
▁Fr
lic
elevazzjoni
kondizzjoni
idrokloru
raġel
żrieragħ
JN
▁Kun
.4.
▁separat
gli
multiplika
assessjar
merkanzija
fenomen
esklużjoni
alkali
rota
shampoo
systems
▁imħass
motivat
dibattitu
nqas
Kemmuna
free
azzjonali
Billi
Viċi
process
Eż
votazzjoni
assoċjazzjoni
Tkabbir
Professjoni
teknika
industriji
anzjani
addittivi
kuntent
kreditu
ISO
likwidi
intensi
mistoqsija
cate
ħieles
inugwaljanza
Festival
emend
ħaxix
vaganzi
nofsinhar
kunċert
Oħrajn
kitbiet
SMS
kieku
poeżiji
dewmien
Marzu
kcal
pożittiv
kuraġġ
xeni
tajjeb
passatempi
nnovazzjoni
ksur
tpinġijiet
avverbji
patterns
emerġenza
waħda
65
Natur
bijoloġiċi
operazzjonijiet
prospett
biċċiet
fir
▁del
noti
erija
intwer
minerali
▁jf
▁mandat
agħtu
▁Ke
▁Cou
reli
▁żviluppa
Universit
▁mibni
▁jiddiskut
hine
iplomazija
kopj
▁140
▁protettiv
motivazzjoni
▁impenj
▁reċent
▁operattiv
dem
għoli
lejl
kolu
ispjega
kostitwent
alli
alfa
▁detenut
▁produttiv
iffirma
▁akku
fdal
titjir
▁inkonsistenz
▁deskrittiv
▁intitolat
79
▁arja
▁maqsum
RI
▁dehr
AS
frekwenz
▁Ter
pinġija
▁sħan
żejjer
▁nutrizzjon
▁Setg
▁ħamrija
stress
▁ħut
bility
tter
irrelata
mim
kaŜ
avigazzjoni
intalab
istgħu
rappurta
▁proporzjonali
emmen
jieda
estawr
ssa
intenzjoni
soċjeta
iffranka
POS
▁jakkumpanja
lokk
▁jippreżenta
ggjar
conductor
Learning
espandi
sperjenza
bilit
▁jawtorizza
▁An
health
ore
andiera
ustifika
morru
ġġib
ADD
State
oloġija
▁jittratta
udizzju
elettroni
invers
design
ublic
koreograf
й
▁jinvest
ttost
ncil
rrispondu
għasafar
aris
б
Alġebra
CHOGM
Erbgħa
Fontana
Istrateġija
Kompjuter
Letteratura
Lvant
MCAST
MCCF
MEUSAC
MINERALI
Riyadh
Salmonella
Westphalia
Xlendi
abbrevjazzjoni
aċċidenti
boxxla
ekwipaġġ
glandol
grawnd
inugwaljanzi
ispettakli
knisja
maskil
mobile
petrol
produttività
ssembly
xellug
xorrox
ħobż
ī
▁2023/2006
▁AMBJENTALI
▁Eċċessiv
▁FORMTEXT
▁Hotel
▁Juncker
▁Partnership
▁Proċeduri
▁Refalo
▁September
▁Spanja
▁System
▁alfabetiku
▁aljeni
▁allotted
▁attwalment
▁audience
▁dipendenti
▁espliċitu
▁furketta
▁globalment
▁governattiva
▁imparzjali
▁imwaqqf
▁jitgawd
▁koerenti
▁lajv
▁manjetiċi
▁miftiehma
▁morfemiku
▁multimedjali
▁mwaħħ
▁mħallta
▁neqsin
▁nifhimx
▁nirriproduċi
▁ntużaw
▁proviżorj
▁sakazakii
▁strateġiċi
▁titneħħa
▁vinkolanti
▁voudrais
▁Ġiljan
▁Ħelwa
ebusija
istitut
kadmju
modifiki
momentum
sintassi
uniċipali
▁diplomatiku
▁ibrid
▁jixtru
▁nāabr
▁razzjali
adolexxenti
immaġinazzjoni
iskadenz
ispori
pitravi
riżq
trigonometri
ý
▁Paper
▁abjad
▁tyrosine
▁vertikali
CBL
palk
▁"(12)
▁Club
▁integrali
▁jħallu
▁klimatiċi
▁original
▁ġġenerat
▁āejjin
USDA
fjuri
ž
Għid
baqar
▁figurattiv
▁inqis
annotazzjonijiet
avoir
▁taqbiliet
okkazjoni
▁poetiċi
▁jittiekel
▁likwida
jodju
▁EWROPEW
onestà
▁attendejt
▁enerġetiku
▁€50,000
▁naqdi
xebba
sajf
futbol
çomb
▁psikoloġiċi
difiża
▁nikkwalifika
raġunament
▁Aqua
▁lingwistika
▁domestika
▁gusta
▁ekoloġiċi
▁sekondarju
▁skolastiku
biċċerija
Europol
qawwa
▁kompressjoni
▁irrekordjat
▁Day
▁apprezzat
▁kubu
resident
Rebbiegħa
▁ekoloġiku
▁quand
kojl
▁stabbli
▁miksur
▁propert
▁Ħass
▁tikkuntattja
ostakli
palm
▁kmand
▁għex
komposizzjoni
más
▁awtomatizzat
▁validu
▁jintalbu
▁demografiċi
▁għamel
▁qeg
▁transizzjoni
▁jirnexxilhom
▁solenn
▁whi
segala
▁ħadmu
▁each
▁jiddaħħlu
▁Ltd
▁jinħare
▁aċċertat
▁jintlib
fermentazzjoni
▁suppost
jonji
INTER
aċċettazzjoni
prosperità
▁Żbilanċ
ART
▁kumpassi
▁neżegwixxi
▁Grima
FRF
▁osservatur
ubbidjen
▁tieghi
ġudizzju
▁naql
▁pajjizi
▁jinkiteb
▁preparatorj
koppji
▁tools
NET
▁cut
tanġent
▁iġġenerat
▁dinjija
▁btala
▁bijosimili
ħela
▁rigal
▁ppreparat
▁naqb
▁Niddiskuti
▁Konverġenza
▁jippreserva
▁federali
▁paragraph
▁rtirat
trakk
Maġistrat
▁fuljett
▁timxi
▁DAW
▁jintrab
▁Punt
Portugall
għotien
▁mgħallma
▁immaġnijiet
▁inversa
▁jispiċċa
▁distinta
▁allinjat
interdipendenza
-11
▁Jista
wiemel
▁Somm
▁imħaw
▁138
▁rotazzjonijiet
▁jinfurmaw
▁proprji
▁ddisinjati
allsu
jaħsbu
▁artifiċjali
▁interattivi
▁communi
▁iħossu
▁Care
▁sejjer
▁inneħħi
▁jirrispettaw
▁jillimitaw
frizzjoni
deco
tfaddil
▁turistiċi
▁razzjonali
▁jesplora
▁jissottomett
▁ġenerika
▁jipprova
▁jħalli
▁teżistix
▁Officers
raġġ
▁Trans
▁Formuli
▁skrinjar
▁Board
▁effect
▁parentesi
▁parlamentari
▁perpendikulari
▁piramida
▁sekwenzi
▁lealtà
▁naġġorna
▁CBF
▁nissostitwixxi
▁jikkostitwixxi
▁LEGAL
xejr
▁raāuni
▁aċċessibbli
għomor
▁metri
▁Sannat
alkemm
▁76/
oniċi
▁Aċid
irħula
eżamijiet
▁diġestiva
▁kronoloġika
▁inklussiv
▁6(2)
▁jsibu
▁jikkorrispondu
▁delegati
IMPJ
togħma
ikkalkula
▁nilbes
▁grafikament
▁iswed
ways
▁jħeġġ
▁ninstalla
▁personalitajiet
▁eċċezzjonali
Reġjuni
▁mediëini
insetti
inkluŜ
▁jiċċekkja
▁tinbe
▁kumulattiva
ippubblika
Attivitajiet
Iżlam
▁nħarsu
▁istru
manteniment
olo
amsa
ning
▁ġurnalisti
long
ary
mewġ
emo
▁filgħaxija
▁kanzunetta
▁Strasburgu
▁meżjonin
▁infezzjonijiet
▁snien
▁għamara
▁rikreazzjon
▁manwali
▁passati
▁saqajn
▁ritwali
▁improvizzati
▁importati
baħ
▁doppji
▁tiswija
▁train
Implimentazzjoni
▁2010-2012.
assenja
▁famuża
▁TAS
▁jgawd
▁intermedjarj
▁Uża
▁EW
polz
poteri
▁tqabbil
avviz
1990
▁imħallt
▁nisti
saffi
▁affettwata
armonizza
UNA
koabitazzjoni
▁separata
ken
▁ġurnal
▁timla
▁Vb
ISP
▁intitolata
▁Istanbul
▁reżister
▁analogu
▁Investiment
▁ħasil
▁Account
▁jgħidu
ġara
▁Etika
▁4(1)(
ċeramika
▁insibu
koreografija
▁any
▁Frott
▁nattivi
pprogrammar
▁evalwati
▁websajts
jgawdu
▁imtell
tħeġġi
▁kejbil
żija
Qortin
▁OF
mos
▁3.2
▁Kwal
▁ċaqli
▁telefonata
▁saħħtek
▁konso
▁ħeġġe
▁magna
żarma
▁Press
▁jiddiskuti
ożizzjoni
Emergen
▁munita
▁kompluta
portal
lokal
▁segwita
low
Sej
ħux
▁kunsinn
proċessur
ilbes
▁Ġermaniża
▁"48
▁91/
▁Pit
▁bids
▁nevalwahom
▁laboratorj
IKU
3,
▁kamra
▁penali
▁tweġiba
▁tħassir
interoperabilità
▁indiretti
▁food
▁El
▁reliġjuża
▁fformat
▁tisma
▁jidhirl
entant
▁immedjata
tikament
▁japplikawx
Prof
hy
mag
▁ver
▁sostitwiti
Or
▁Tkabbir
▁patterns
▁process
▁meine
jaw
abbozzar
oy
100
▁entità
jin
▁HS
jen
-4
▁Taljan
▁ekoGħawdex
▁1999
nder
▁awdjo
▁gazzetti
▁inġenj
▁не
titoli
óm
abilitajiet
▁ġusti
▁sodisfatti
▁pakketti
▁iqa
▁nutrijent
propjetajiet
org
00
▁ħeffa
▁rela
LISTA
▁pussess
▁kultura
▁reġjun
nutriment
IDJA
erjas
waħħal
ference
▁kkunsidrata
AĦ
▁kar
▁frazzjoni
pensjoni
▁seta
▁kompożitur
▁ġebel
▁kom
ġenerazzjonijiet
▁tlaħ
Kat
▁stadji
▁*
volontarjat
▁kwart
sessi
▁aġġornament
▁ċirkostanzi
bel
▁kollaborattivi
ite
▁1.2
▁ekwazzjoni
dis
haben
▁SM
▁kuntrast
▁logħ
hud
▁naħ
Bla
Ix
▁NGOs
54
▁introduċ
▁2008.
▁Lisbona
Mard
Siste
sodda
▁verd
▁nstab
ssistiva
▁iva
▁atmosfera
ttakk
▁para
este
var
msajra
▁attivita
▁taxxogħol
tad
▁ħajt
bru
.11
kandidati
êI
▁jsebb
etter
▁viżitaturi
51
DIN
▁Dar
▁ħażina
UN
▁għeruq
▁formola
ixka
ella
▁nazzjonalità
hiex
IP
tradizzjoni
għaq
▁Politika
ama
TT
▁sosten
▁Rapport
▁widien
▁Dipartiment
...?,
▁time
Drog
nijiet
▁Ħaf
AN
7,
▁adatta
▁ġeneru
▁Konsl
Aw
NU
JA
mas
▁nisa
▁estrem
ano
▁Grupp
ise
▁karta
▁59
▁mitt
ifforma
unur
▁Jun
onn
bbil
aħdem
Med
alla
isforz
▁Nota
ec
▁ħar
narja
▁esklużi
▁kodiċi
▁Taqsim
his
banda
avur
400
▁Ar
immarka
hr
▁Nin
▁ting
▁karozzi
▁tessut
▁JI
kap
igħ
man
enzi
ahar
▁vers
▁"(3
▁disposizzjoni
għna
ik
skont
meta
▁jes
WEL
xtraw
rajn
▁MB
ren
obilità
up
5(6)
ute
Għalliema
que
ieq
▁poly
▁melodi
▁bliet
▁taħse
▁tid
▁11.
sejjes
▁partitur
▁artikoli
▁Qu
ieb
cho
Gra
▁ca
del
stor
dur
rka
▁rappreżentattiv
4.1
essa
sports
Tri
kolonni
▁marka
cing
▁inklud
▁kompl
5]
▁taxxa
trama
.6
▁taxxi
▁6(1)
istabbilizza
JI
Sala
...?'
▁ħsiebi
▁st
▁basi
▁ë
▁2:
▁nintegra
ía
ast
▁kompetittività
▁ngħatat
ting
▁sh
▁sc
sslu
sistenti
kwi
▁kreattiva
press
fiċjali
▁To
kriminali
ibbaża
nut
▁jift
▁attent
▁1:
▁mħar
xog
nħolqu
że
wel
▁1)
▁talkonsumatur
▁ideal
▁temp
▁pu
▁Es
amina
bio
▁Tal
▁1.1
▁dinji
▁laħqu
▁sta
otte
▁espressa
pressjonijiet
▁2007.
āā
▁jkoll
▁ċitr
entrat
nkludi
front
ożi
▁kawżi
fis
tajr
▁installa
don
Ist
mut
▁LED
▁tqa
polimer
sc
onds
▁Eco
nza
▁rat
ġu
axxa
▁Man
▁no
Kont
erre
▁karatteristi
qet
itu
Funzjona
▁Ro
AL
DA
sjonijiet
5/
▁ce
▁kompli
▁ripetut
meti
▁Internet
Kur
▁imnaqq
▁salvagwardj
eko
▁indi
olari
▁ind
GĦ
uski
vertebrati
▁interazzjoni
vjazzjoni
▁Ca
inkluż
mikro
▁Po
▁ostakol
kan
app
gura
0000
kuntrasti
ities
▁ospita
ġera
war
▁respons
annimal
amministra
biltà
ubb
otto
т
struttura
vit
verifik
azza
▁taħ
vitamin
ipproteġi
▁fija
dwar
Lisbon
▁nsaħħ
tnaqqas
skema
ages
bniet
ħalq
Tal
▁Ġn
-2012.
rabt
element
sekondarji
che
▁"1.1
Minister
klorur
implika
dimensjoni
▁domand
▁Ver
▁studjat
ikali
Persun
▁rikreattiv
▁jink
▁IP
operazzjoni
NGO
▁jikko
▁dil
Ħad
pitch
▁ppubblikat
rappre
energy
Żebbuġ
għajxien
rivista
medium
Portal
drapp
taħwi
kalkol
konsolidament
Għat
ċikli
leġittimità
salvagwardj
tisqija
integrità
gdid
ensemble
beħsieb
▁kkonċernat
possibbiltajiet
▁modern
▁Ad
neg
paraguni
Moviment
dehra
Qabel
Żgħażagħ
elastiċità
Di
ġebla
sensittività
wajer
▁affettwat
prekawzjoni
ripetizzjoni
kamra
tweġiba
sjieda
Nota
penali
▁ġustifikat
tħassir
kompitu
riċetta
flessibbiltà
qligħ
Kwal
indipendenza
inċentiv
benefi
Ver
xoljiment
eletturi
Lhud
graff
imsemmi
Għajnsielem
(10)
għamlu
varjabbli
grafiċi
dizzjunarju
theddid
suġġerimenti
primarja
sentejn
ġeneri
ktieb
(9)
quddiem
qbil
sostenibbli
Għawdxin
suppożizzjoni
partikolari
ġar
żgħar
drammi
biljun
ġon
eria
serq
udin
unika
▁39
direttiva
manifesta
▁massim
IV
azzar
mono
konsiderazzjoni
karboidrati
HS
vapur
dott
▁mo
konfigura
trattati
▁sse
ping
raffiku
jna
ġen
▁Għol
implimenta
istaġun
setting
00000)
Fattur
żbalji
JAR
mexxej
(2)(
eżenzjoni
▁soċjal
istiku
▁ħarġ
▁evalwat
▁talParlament
ole
familjari
▁jinkoraġġixx
▁ippruvat
kittieb
pagamenti
▁viżiv
kwalifika
í
▁suspett
▁Tuneżin
ĠĠ
▁olistik
▁sospiż
▁insostn
83
laqgħat
konsenj
aġna
▁tbidd
▁jinqal
▁determinat
talb
iljun
▁asso
▁dmir
draw
ettur
▁priżm
sing
ellem
stru
▁Żi
rqu
▁ekwi
Iċ
isked
▁jżomm
pen
side
irrispetta
lawsol
▁Pawl
▁simulat
istrett
ivo
▁cas
aġixxu
eżekuzzjonijiet
finanzjat
▁BI
▁jġib
migra
▁Finanzjarj
▁120
▁servi
ejjer
▁kuntestwali
▁professjoni
Kapitol
▁laħq
ega
▁63
▁etniċi
▁Award
16
▁jinnotifika
ikkja
▁jikkawża
▁djalog
nġib
▁Deputat
evoli
loud
Portugal
▁station
vilupp
avża
stituzzjonali
irrikorr
lokazzjoni
ehem
ntlaħaq
▁right
istennija
▁jissej
ippruva
Sant
iff
omponent
petizzjoni
▁cont
ċċellenza
Afrika
peaker
▁jirrispetta
â
femminil
▁tfiss
▁maqbu
qlub
immani
▁jitpoġġ
ajnuna
▁solida
л
terapija
akkużat
ú
▁mañana
avvelena
ożmo
rkija
▁immediate
Agrikoltura
Bangladexx
Bibbja
Codex
Impiegi
Kroazja
MEZZ
MHAG
MSU
Mexxej
Olanda
Ramallah
Sagramenti
Soċjeta
TSCG
Vienna
beadwork
demasiado
eurobills
fotosintesi
fotosinteżi
fumigant
ibħra
ispiżjar
jissupplimentawh
kongruwenz
konkrit
kummissjona
locus
manganiż
miżbla
personaġġi
traspirazzjoni
ġnub
Ħasselin
ħlejjaq
ить
▁552/2004
▁Ammont
▁Girgor
▁Indefinido
▁Irlandiż
▁JISTG
▁Luċija
▁Muscat
▁OASI
▁Pollakk
▁Procurator
▁School
▁Semitiċi
▁Valentin
▁amount
▁ddedikat
▁dgħajfin
▁dibattiti
▁elettromanjetik
▁engineer
▁experience
▁ffukat
▁grafiki
▁idjomatiċi
▁impliċiti
▁indiġeni
▁indoqq
▁jgħallmu
▁jiffukaw
▁jimlew
▁jitneħħa
▁kilogram
▁kkonsultajt
▁kkontaminati
▁kompromess
▁kontemporanju
▁konċiż
▁manjetiku
▁mekkaniċi
▁milwiema
▁multiannwali
▁multikulturali
▁mġedda
▁mħassra
▁office
▁operazzjonali
▁prevedibbli
▁rapidu
▁repertorj
▁residenzjali
▁settimana
▁simultanji
▁tittikilx
▁trażmess
▁voglio
Kristjaneżmu
Ramallaħ
abbundan
devoir
konvinzjoni
ġenittiv
▁Kampanj
▁Sptar
▁cutters
▁ekwu
▁iħallu
▁tazzkuk
Ekonomija
MCA
Polonja
SMIGĦ
š
▁alimentari
▁arkitettoniċi
▁manager
▁skadenz
diskrepanz
sinteżi
▁86/36
▁FORM
▁sekonda
ntraprenditorija
rapidi
▁ortografiċi
▁āurnata
Danimarka
ċirkonferenza
▁dalgħodu
▁jisfidaw
▁nifhimhom
bhejjem
▁assistit
▁tirrigwarda
▁ddikjarat
▁impossibbli
▁kredibbli
urvey
▁inkanta
▁plc
▁rriklamat
▁jirkupra
mobbiltà
▁skedi
fokus
▁litterali
aspettattivi
▁Estern
▁gibt
▁insemmi
▁kardinali
▁mħaddm
ingrossa
offerta
▁jikkwalifika
▁rinovabbli
Imġarr
delitt
manjier
▁passaġġi
▁mitmugħ
ħjata
▁capita
▁stressanti
istadju
▁Kalk
Madwar
▁komplementa
nominattiv
▁endemiċi
▁mismugħa
▁jittaffew
▁rċevew
▁emerāenza
saħħitna
▁Building
▁jintlaqgħu
Valur
▁pluriennali
▁analitika
▁meħtiega
ożju
▁oriġinarjament
Finanzi
SEMMI
▁standardizzati
▁€7
▁narrattiva
Ħajja
▁85/
istonku
▁jistudjaw
▁jinftiehmu
▁impersonali
pedament
-1965
▁90°
▁Opera
▁maniġerjali
▁wżat
▁65(2).
▁full
▁nibgħat
Nisa
ipparkja
EDUKA
▁tibgħat
▁ehmeż
▁monoteistiċi
▁Protettiv
kalendarji
ekoloġija
▁kellimt
FATTUR
MINIST
▁superlattivi
illus
methyl
isfruttament
▁nikber
tgħaww
▁jinqalbu
uddie
▁price
voicemail
▁miżmum
▁rebħ
xitwa
▁aggruppata
▁posso
dinamiċi
unerija
▁faut
fertilizzazzjoni
konvertitur
▁settorjali
NCF
▁delitti
▁reattivi
Kooperazzjoni
▁kalm
▁drammatika
▁beans
kosteffiċjenza
fissru
▁hacer
▁siġġ
▁ċċarat
Prezz
passaport
negazzjoni
▁briksa
trasmess
▁jfixk
▁sono
fawna
Kbir
INALI
▁jestend
▁qdiet
dejjaq
▁inkarigat
▁imdaħħl
assra
maqlub
ODI
▁Noir
▁jintef
riċiklar
▁Nippreżenta
▁impurtat
▁Industrijali
elabora
alterna
▁laħaq
Warrant
ilanċ
TALI
▁folkloristik
▁persważiv
partiċipji
▁jmexx
hob
▁elef
llibera
▁Mediku
▁jifhmu
▁MILL
▁Tekniku
▁korrelazzjoni
▁materials
▁Bee
green
oeżjoni
0,01
▁Dalli
▁Aġent
▁ritmika
SKK
▁jillimita
▁dannuż
blockwork
bdoti
titjiriet
Tiene
disponibil
▁ġabet
▁żball
waqtha
▁decision
konsulent
▁sehr
▁ëar
alfabett
lementi
Iskejjel
▁koperattiv
▁ikkonsulta
▁ippreparat
parċmina
āogi
Governanza
monossid
▁inġib
▁makroekonomika
Reliġjonijiet
kafetterija
▁tivvjagga
▁ġuridika
▁bbilanċjata
▁ikkontrollat
▁respiratorja
▁jibnu
televi
▁"“(
▁bitte
liāi
▁tħabba
▁jikkonferma
istaffs
▁wasal
▁qablu
▁tieghu
▁ATTIVIT
▁jiffokaw
▁illeġittimu
▁jġorr
manipulazzjoni
De
msemmijin
▁jitmexx
▁bijografiji
▁frekwenti
▁rumanzi
sussidji
▁Mic
▁jirrapporta
▁fait
tixji
▁nlesti
▁strip
▁jippubblika
aloġeni
▁moħbi
apsi
durata
▁fibra
ittratta
subin
▁kejbils
▁jiffirma
ospitalità
▁jorganizza
serata
turbini
estetika
▁jappoġġja
▁poli
▁totalment
▁rimedju
▁kkoreġut
entru
esplorazzjoni
▁jbiddlu
▁2133
▁jintgħaż
mulin
▁affidabbli
▁kunfidenzjali
▁policies
▁Bethlehem
▁Kompetittività
▁SUSTANZ
▁jassistu
▁stafilokokki
▁ħodor
▁aċċessorji
▁Clerk
▁Farming
kumitati
▁ħajjithom
▁troppo
▁Produzzjoni
assumi
▁Ħalib
kisser
▁inħarsu
▁jittejjeb
▁appuntament
▁stqarrijiet
▁mfakk
▁jakkumpanjaw
▁customer
ċji
Cuánt
▁point
▁jadatta
▁jimpenja
Policy
▁nimplimenta
7333
▁akkademika
▁charts
semmiegħa
▁sservi
▁saturat
ordnijiet
▁jinnota
▁jolq
▁demel
entazzjoni
▁jitgħallem
aċċellerazzjoni
▁jiċċelebra
▁iżuru
▁MAL
▁dokumentarji
▁10%
itmexx
ipali
▁"·
CH
ground
AM
▁unions
▁reflect
sound
▁muri
▁dubju
kem
lectronic
▁leġittimi
▁sur
pulmuni
▁veterinarji
▁ġudizzjarji
▁makro
ibliet
▁€6
▁jitla
▁famil
ose
image
mkejla
▁Clau
klawsol
her
▁Wel
▁jivverifika
ksib
▁niġbed
qraba
▁poetik
▁pjanet
▁tirrikonoxxi
▁dire
ería
sponsabbiltajiet
▁nisfida
▁riga
juda
▁jqajj
▁91
ll
▁prototipi
_________
▁jiddikjara
ekwità
▁jenfasizza
▁jinħallu
voy
▁jelimina
▁jiswa
ipelagu
inventarju
▁с
ikkwota
/2006
▁future
▁Chair
▁mormi
inċi
▁jinter
emil
▁Nurse
▁viżibbli
▁Düsseldorf
▁Kwistjonijiet
▁PRODOTT
▁Riskji
▁kunjom
▁akkumpanjament
▁ġirien
▁xbihat
▁video
▁skali
▁prokuratur
▁niekol
mqiegħda
▁DC
▁Formol
▁konġunta
PS
Medi
▁mio
RIJA
phone
▁imb
ssigura
kabbru
▁kwantitattiva
▁ċarezza
umanisti
Għas
▁ffurmat
▁salvata
butir
▁Res
▁Tekniki
▁iddedikat
▁tipiċi
▁alle
▁karkassi
indiċi
25)
▁(18
Protokoll
▁sospiża
▁boards
intergovernattiv
Summ
▁Jiġ
Ilma
▁niddefen
LOD
▁hand
▁komplet
kma
▁nqassam
▁course
▁riklami
▁konġunti
utti
bilitazzjoni
smart
29/
▁intqal
▁gie
▁miz
search
Sovran
oniku
▁ċifra
▁isimhom
▁Anzjan
▁kwotazzjonijiet
▁Analiżi
▁Mandarin
▁makkinarju
▁qodma
▁artiġjani
▁twissijiet
▁Coca
▁qatgħat
▁ħleww
titjira
▁Assistant
▁prassi
▁PRO
▁organiżmu
▁Lisbon
zer
▁vjaġġ
ipa
▁sup
ħir
bad
▁afforesta
▁48
cue
trop
2050
negozjanti
▁saturati
▁Ske
▁rikreattivi
▁madwarna
▁mtell
▁Franċiża
▁Minima
▁Naħ
▁bajda
ason
▁avvanzata
▁nesten
▁imsaħħa
▁kwalita
itti
Għażla
▁irriċerka
ott
son
▁112
erais
raġġi
▁jimx
▁mifruxa
▁innovattiva
ys
ittadini
▁jinfluwenza
▁qiegħ
▁poster
▁aluminju
▁Awwissu
▁gaskits
▁kalendarju
▁telefonati
▁parametri
▁sanzjonijiet
▁Irrid
▁pajpijiet
▁bieb
▁rigali
divid
▁serva
▁Talb
rixx
▁jseħħ
ibqgħu
pprezza
▁trasferita
▁Ġene
ikun
▁itemm
00,000
flora
▁dikjarati
riħa
▁kriminalita
kara
▁japplikax
▁prekawzjoni
▁ekosistema
▁wajer
▁Qabel
▁elastiċità
▁Żgħażagħ
▁Moviment
▁ġebla
▁ripetizzjoni
▁ħarġa
għatu
kenn
▁jwettaq
okra
▁sensittività
▁ristorant
▁identifika
▁diskussa
▁imm
▁sodisfatta
ering
▁skopert
▁tie
ogh
unijiet
lter
▁......
▁Lhud
diplomazija
▁kondizzjoni
36
);"
awar
▁xjent
ALL
jazzjoni
▁flok
26
irrapporta
Programmi
▁Kemmuna
allot
▁Viċi
▁konklużi
▁kuraġġ
tent
ador
▁assoluta
lika
terapist
▁assessjat
gress
oss
impo
▁tix
▁isib
nderstanding
▁Mod
▁end
hora
▁multiplika
zmien
ġni
▁bus
▁fdal
istrazzjoni
EHI
hx
koordinatur
▁dixxiplini
▁Livell
vati
une
▁eżerċizzj
BIL
▁ippreżentati
▁paraguni
▁tiddetermina
▁jaħ
▁Ex
▁nesperjenza
▁tħoss
▁dehra
MD
Salm
film
less
iġ
▁Dom
▁idd
oma
▁IX
▁tiftix
▁ħżin
▁tabakk
▁eco
▁estrazzjoni
▁defiċit
▁Ġu
▁terza
▁feedback
VI
już
car
▁wid
▁għalina
▁preskritta
▁jittell
▁fihx
▁aspett
▁IR
▁radi
ditti
sesswalità
col
Trab
▁Kuntatt
▁warrant
għti
▁pack
▁dipartiment
▁"50
ħħala
43
emails
mperattiv
▁kaxx
jenza
sedut
ank
okk
▁TAQSI
▁61
▁kol
ses
sigurta
jku
▁ilmenti
▁issubartikolu
irċevuti
▁ac
▁Regola
▁49
▁9)
epi
▁ġewx
mark
Pa
▁Propos
▁ħallas
▁riflessjonijiet
baġitarju
▁EU
▁iċċekkja
/2008
▁spi
sju
kritika
sisti
US
▁Te
tes
OC
▁dvalj
06
▁jiddaħħ
end
Cor
buttuna
enn
vja
vin
previżjoni
▁melħ
▁obbligu
▁Rappreżentant
▁kapital
manufattura
▁uffic
fitness
▁role
nger
stqarrija
▁lkoll
LEN
▁sodisfazzjon
▁toroq
EZZA
▁niż
niet
kuntratti
trument
Ġn
▁ras
▁mħaw
TV
▁Ul
Fest
ner
▁approvazzjoni
term
▁preferenzi
▁cent
▁ħbiebi
ċertezza
xtara
fora
▁leġislazzjoni
▁ċirkwiti
▁prin
▁approċċi
▁ħabba
▁media
rea
▁profil
▁kostitwenti
27
kant
▁chi
addi
▁fornitur
amministratur
▁tikketta
erci
▁abitat
ġorr
▁għa
-17
9,
iffriżati
għhom
▁ara
għadis
▁ST
kriminal
zzati
issues
▁enfasizza
▁forzi
▁minfu
frazzjonijiet
▁Bi
▁he
kollok
▁fatt
▁Ambaxxatur
otta
ble
tivitá
provis
-75
Bażi
iŜ
▁kuntratti
▁filmat
kordj
ives
8:00
par
'25
▁Va
fabbrika
integraw
Kun
TAR
▁gra
iro
▁poligon
Dw
how
▁fiduċja
enni
Ħam
▁ċċ
Eżempju
hadd
kontradizzjoni
▁jinħaż
▁2004/
live
▁und
▁jingħadd
▁ħolq
rin
3/
aturi
bil
▁Ċert
aġixxi
fors
ther
ave
3(1)
bat
▁rati
żer
-199
pers
▁addatta
▁tirri
▁paragrafi
▁Direttivi
▁qgħad
▁aħħari
▁rikor
emmi
▁żomm
klamar
oranz
▁respect
▁Er
Unit
▁medjatur
formal
onot
▁MI
ikku
40000
▁qalb
▁des
▁taqsim
rità
▁serja
▁idDirettiva
indi
IEN
uz
nach
▁Tn
atej
▁jim
come
▁klijent
▁liem
rawm
itter
▁2(1)
▁kondiviż
▁vis
RU
pu
▁pprovd
▁dem
JALI
fax
▁tkellm
▁0,
dizzjoni
tog
07
▁Gha
traffik
ħbiberiji
Ara
kellmu
ejjed
strument
63
fużjoni
▁aħ
▁adattament
▁3:
▁napplikah
inja
CC
riċi
Kel
▁puliti
▁ġenituri
?............
tiġdid
▁sezzjoni
Ŝa
▁polyu
oz
▁iffissat
17
▁Ab
▁ċe
5.2
19/
▁rekwiżit
ät
▁def
iddiskuti
lekomunikazzjoni
oter
▁involv
▁Bħal
▁Ingliż
eux
St
dija
sion
▁debit
▁Lej
solventi
OX
▁sad
iting
zo
▁jitfass
itazzjoni
tniżż
.10
RF
▁fertilizzant
Log
▁inied
ëemp
ice
▁Ċerti
2008,
ware
▁"23
HT
▁jaħt
▁iddiskut
▁app
▁mlie
ever
▁add
▁snini
kie
flo
▁Belt
negozja
ни
▁Żon
ino
▁ħoss
▁kunsens
ban
mozzjoni
▁Wal
▁08
Ch
▁pubblikat
aritajiet
▁ġon
qan
▁jif
pin
▁nużah
partiti
▁nit
▁jirnexxi
restrizzjonij
fajls
rika
uŜa
OS
▁jiddetermina
garanziji
reġ
fast
eu
ect
kat
edhom
dist
alitajiet
▁imf
▁kelliem
tic
nell
cm
fest
attivi
tro
rena
Imper
30000
iniex
▁mall
▁cru
▁strett
attijiet
qof
▁PRI
74
ieħdu
għad
▁ħabb
.12
▁divert
NUT
edja
faċilit
jazz
vo
▁hin
tografika
▁Opinjoni
ó
▁prop
ċm
▁attend
enten
gni
qdi
cjali
ngħataw
▁1(2)
Brassica
rent
Torri
▁kollabora
miċi
agħżel
▁kal
▁tivvota
▁demostra
▁disg
mmexxija
▁53
▁ffirma
▁Applika
▁92
▁netta
▁tikko
ISTA
pja
spett
iċeviment
▁(17
daw
irrakkomanda
kondizzjona
rba
temm
ffaċċja
akkomandazzjoni
▁niddeskrivih
nota
27)
żibe
▁kriżi
▁jist
▁browser
▁pos
▁jingħa
fuljett
2020.
ritorn
rakkont
liċi
▁2.4
privat
ayer
▁jintroduċ
sinjal
imo
”),
▁assolut
avviż
netika
profitt
razz
żj
iġġield
iġi
riżors
Deputat
45
▁profond
▁1,2
ejriet
profil
istu
qot
sosten
posizzjoni
adu
▁sf
▁mimli
kbir
▁jinstem
fittix
▁tne
▁propjeta
ografija
biegħu
ixxer
▁astratt
55
▁adotta
estra
qiegħ
ves
ġudizzji
ħabb
umi
▁dekorattiv
serva
iegħed
munita
muniti
sbu
900
fajl
kwalita
▁konġunt
lijiet
Mużika
qagħda
Octob
ventilazzjoni
glossarj
hacking
passiġġieri
potassju
restorant
inflazzjoni
rendiment
browser
▁inhi
jogħġobhom
link
trasmissjoni
intier
Hawn
Par
titli
rekords
board
fortifika
obbligazzjoni
mportanti
ción
għada
Ħar
Tuneż
kompatibb
ippakkjat
kafè
virtujiet
xmajjar
HSBC
pajjiŜ
għargħar
Dik
▁inbidd
dgħajjef
fetaħ
City
mixi
tilqim
Cola
attributi
porting
NI
Awwissu
gaskits
kalendarju
istituzzjoni
aluminju
parametri
sanzjonijiet
saturat
arkitettura
Test
uħħa
pajpijiet
Irrid
saħħtek
ċaqli
(13)
tensjoni
muturi
San
▁sensittiv
loġika
kejbil
kriminalita
MISTOQSIJ
xaħmijiet
91/
ġojjellerija
medi
vettura
ommijiet
multa
Kundizzjonijiet
apprezzament
telefonata
Dokument
eċċezzjoni
telefonati
konsegwenza
EkoSkola
tabelli
friski
distinzjoni
iehor
ANN
JEW
enzjonijiet
(*)
Hague
mapep
edukat
Proċedura
figuri
International
Tipi
esperti
destinazzjoni
elettriċi
nixtieq
pestiċida
mwettqa
gwerra
ħaww
Jannar
attrazzjoni
araw
Ewropea
Ewropew
Brussell
japplika
jistgħu
sigaretti
konso
Tista
talbiet
por
diġitali
bħalma
naħse
films
96
ħmi
Huma
Mid
weġġa
periti
Taħ
Kemm
▁volontarj
ingerprints
ikkonferma
permezz
lbies
iżda
tkun
0°
kalkula
▁erbgħ
Lista
▁żj
għandha
ajruport
ery
ewġ
ġew
▁urban
▁kg
ù
pajjiżna
▁ferruż
▁inferenz
▁ippjanat
rigal
proporzjonijiet
▁paragun
▁tqabb
motiv
aċċerta
matul
▁parteċipant
▁Au
nisma
vvjaġġar
▁Uffiċjal
imsemmija
▁"(2
▁armonizzat
pittur
nfiq
Wo
koraġġixxi
▁sabiħ
tossin
KOLL
esplo
leġiżlatur
▁ppruvat
pagament
▁tqil
General
kundizzjonal
bejn
TM
▁miġbur
▁suppliment
▁ark
pprovazzjoni
▁Pre
ispir
vuċijiet
▁Unif
▁natural
▁kejk
diskrimina
...',
▁Portugiż
▁determin
▁use
▁organizzattiv
▁nie
poġġ
▁illimitat
▁divers
inkluża
kanal
aħriġ
▁dawr
abella
▁bon
ele
ċer
iċċaqlaq
day
difi
uqqas
▁Metod
ġenb
xenarj
▁jagħ
għaj
aqbilx
▁sieg
▁jikkorrispond
▁jikt
▁nikkum
jalogu
▁Act
perċezzjoni
▁express
▁jinghata
▁qab
awtorita
▁titfa
▁Ingli
alissa
▁bikri
iggarantixx
Liċenzj
▁emozzjoni
▁union
À
ngeli
teatr
▁ppre
▁jsib
nëident
▁ġenera
terminal
▁kostrutt
nħatar
▁mein
▁sinj
▁Rep
▁entita
▁awtomatika
ażżjoni
ustomer
▁awtomati
klama
rojbizzjoni
umpless
▁stabili
▁jħadd
▁profess
arrokkjali
ло
ations
kills
Awto
ħerq
ontinental
erfecto
impieg
opra
▁voice
▁ammini
farmaċ
possessiv
waqqfu
porzjon
▁mnaqq
▁deċiż
ebbiegħa
kalamit
reserv
fruntiera
▁klein
▁Colle
▁sinteti
impuls
traduzzjoni
ασ
folklor
oogle
ь
Konsul
▁médi
ă
ARTIKOL
Affaires
Assessjar
Awstralja
Demokrazija
GWP
Greċja
IAEA
Iżvizzera
Londra
Quiero
Ramla
Rinaxximent
TAĦDIT
Twemmin
VITAMINA
Vatikan
addoċċ
deprezzament
dwejjaq
filatelija
galassji
gwadann
implementa
insulina
kieket
kubrit
landfill
lipidi
mmanipula
nalysis
nomenklatur
nukle
obeżità
pantoten
pouvoir
rikkezza
ropylenethiourea
silenzju
solubbiltà
sopravivenza
ttajpja
Ä
ëanga
ì
ą
ġinnastika
żbroff
żebbuġ
акой
▁(22:6
▁182/2011
▁1882/2003
▁853/2004
▁AQRA
▁Aurora
▁Cachia
▁Chambray
▁Channel
▁Elettronika
▁Emanuel
▁Gozitana
▁Hamad
▁Kompetenti
▁Kunjom
▁MIŻJUD
▁Method
▁Musical
▁Ontario
▁PROGRAMM
▁REKLAMAR
▁STOCK
▁Tikketti
▁Venera
▁Veterinarj
▁WAĦDA
▁WIEĦED
▁Xuereb
▁addebitat
▁aerobiċi
▁approprjat
▁belveder
▁brejsijiet
▁dgħajfa
▁diagrams
▁ethical
▁fraġli
▁gustaría
▁ikkumplikat
▁inbiegħ
▁innifsek
▁interdipendenti
▁interrelatati
▁intuwittiv
▁jalloka
▁javvanzaw
▁jdoqq
▁jiffavorixx
▁jwarrdu
▁kibret
▁kiesaħ
▁kūdikiams
▁maitinim
▁management
▁mgħaġġla
▁nilqgħu
▁nirraġuna
▁nissimula
▁nodfa
▁opinión
▁ppakkjar
▁ppakkjat
▁ppropon
▁projbit
▁questions
▁recognis
▁restaurant
▁rranġat
▁sintattiċi
▁spettakli
▁stimulant
▁sukrosju
▁technique
▁teduka
▁tixjieħ
▁tnalji
▁virtwali
▁xfafar
▁|__|
▁āimagħtejn
▁įved
Barraminhekk
CAC
Evanġelj
insulazzjoni
kromat
lattosju
salmura
▁1991
▁Deutsch
▁Inspection
▁Kejl
▁Leġiżlattiva
▁Saħur
▁Taqsir
▁ansjetà
▁dsatax
▁intestinali
▁patoġeni
▁segwenti
▁sesswalment
▁trouve
Banek
Estoy
escribe
impjegabbiltà
interċetta
kurrikulari
roŜi
xjuħija
āiegħl
▁Rurali
▁forwarding
▁gehen
▁ikkulurit
▁indefinit
▁jikkuntrasta
▁jiġġedd
▁kkonklud
▁maħluq
▁mentalment
▁minsuġ
▁numerika
▁ppublikat
▁ħlejq
▁1:50,
▁sħuna
▁6(3)(
▁Appoġġ
▁Bijoloġi
▁Raāuni
▁indafa
▁jistaqsu
▁papildom
LMR
aċċelerazzjoni
diesel
intervisti
kliewi
kojenecká
rapprezenta
▁2006/5
▁July
▁infinitivo
▁nbidel
▁nerfa
▁problems
▁Ġwann
Angoli
▁supplementari
diffużjoni
landscap
ся
▁CSS
▁Tmiem
▁approfondita
ehtieg
omatiċi
procedur
ый
▁apoloġija
▁arbeiten
▁ipotetiċi
▁mħabba
▁warm
saldjar
▁LCP
▁pillol
▁Kummerċjali
▁jġagħ
▁stallat
impjegabilità
▁prevalenti
▁qliezet
▁āenerali
▁ħassieb
▁animazzjoni
▁negħl
▁viŜt
▁mmarkar
▁ĀENERALI
▁jiġġustifikaw
▁steel
▁QSK
▁vandali
superfiçi
tagħbija
tifkir
toqgħod
▁ddeterminati
▁inizzjattiv
▁klassifikat
▁ċentimetr
▁iebes
▁tmiss
▁ëëekkjajt
▁jassisti
▁jinqasmu
▁ferriku
konsulat
romotion
Soci
▁Nofs
▁drammatiku
▁newtrali
Turkija
minorità
▁skwalifikat
▁irħas
idral
Ċittadini
▁kkulurit
Pariġi
ropodi
ħafif
▁traduzzjonijiet
▁jżur
▁nassigura
GĦAś
▁JINTU
▁weld
▁jgħarrfu
ispeċjalizza
▁Politiċi
▁lenses
Eva
Qaddis
▁jixti
▁Organika
▁taghhom
▁distruttiv
plumbing
▁kullimkien
▁profiċjenza
bieħ
▁iddefinit
konversazzjoni
kwaŜi
▁vverifikat
▁fsada
▁JAPPLIKA
▁France
▁9000
▁naqs
▁stedin
▁rregolat
▁loġiku
▁Marc
▁jinġabar
▁ħass
JRC
Istudenti
FOI
Jazz
kwestjon
atteġġ
▁Earth
▁tagħmil
ekoturiżmu
zione
▁żifn
diżabilità
▁Raġunijiet
▁sostnut
nizzel
▁Inklussiva
Diversità
Faċilit
▁veux
kurrikulu
▁Skedi
▁identiċi
▁bbuljar
▁tidwir
▁nixrob
employed
▁Director
▁Pack
▁għalxiex
morfoloġija
▁jitkomplew
▁Principal
▁Newton
Toroq
falliment
lacquer
▁kkwalifika
▁ruħek
riċiklatur
▁awtomatiku
▁ortodentist
▁sintetiku
▁tanġibbli
▁Portelli
▁META
▁mmodifikat
▁nagħż
astro
DELI
▁key
uono
ropineb
ITO
▁imniżżla
atomu
▁jinħarġu
▁mnejn
▁kwadratika
▁spirt
āajt
▁‘¿
half
▁dixxijiet
iskwalifika
perimetr
▁nuza
▁jitwess
▁Perfecto
Germanja
▁awtentika
▁grinder
▁tiftaħ
▁Friends
satellita
Tradizzjoni
karbon
▁amminiċi
ikkonkludi
▁Application
ftaħ
▁rinforzat
▁tinqal
axix
etimoloġi
▁monumenti
farm
▁Feed
continental
▁ikopru
▁imħejji
kkummerċjalizzat
▁terminali
▁inkluŜi
▁ibbilanċjat
▁valutati
▁kofinanzjament
▁Ŝmien
▁amini
irrestawra
BIS
ferol
▁1,5
▁Nitgħallem
manuvrar
▁ffrankat
▁inversi
▁interactiv
akkwa
▁Nevalwa
▁clos
How
▁regolata
GPE
▁nnotifikat
▁attitudni
▁square
Ispettur
▁inbidlu
lossy
biċċeriji
crui
tuberi
▁Borg
▁evaluat
similarità
Kord
▁Mediterranja
▁bikrija
▁enormi
▁saħq
▁mandatorju
▁jiżvolġ
▁tgħaqqad
ewtika
▁ssiġilla
uft
▁tikkawża
▁idjomatiku
▁jinġarru
▁thereo
▁jevalwa
▁jivvjaġġa
auction
▁Mediterranean
Fiji
▁jevita
estetiku
▁tornaviti
▁sottoparagrafu
abri
▁klassiku
▁60%
97
incent
▁eżotermiċi
▁coll
▁siew
▁vol
▁Dov
▁March
warrab
ĦO
▁Area
▁value
▁riferut
▁ipparteċipaw
hematic
▁inkitbu
▁sugar
teleskopj
akkumula
push
Komunikat
axxar
pretensjoni
fatturizzazzjoni
▁jissorvelja
▁jissospendi
▁Amerikan
▁Għarbija
▁jittejbu
Ruman
▁jiġbru
BAR
▁dixxiplinat
▁imsejħa
▁ikkonċernat
Uffiċj
▁inëident
▁jirritorna
▁miksija
flie
rbija
▁nonfoq
▁nifhmu
perċentwali
wegħd
▁heat
▁Referenza
defini
pornografija
▁daħl
▁kompjuterizzata
simulazzjonijiet
▁maħżuna
▁konkreta
▁jimmira
▁income
ifikatament
▁Cassar
▁Laħam
▁number
adeżjoni
▁ogg
▁miftiehem
#-#
▁Tob
▁jiġġenera
▁primi
▁imsemmijin
fjura
▁lejh
▁riklam
oriku
▁INTERESS
▁aġġustat
▁jkellmu
▁kkollabora
imx
▁tawtorizza
/2013
▁tqassm
▁leġittimu
▁jogħġob
▁jkabbru
▁opti
▁jmissni
▁jimplika
▁possibbil
▁kollegi
▁riproduttivi
LAS
▁konċernati
sillabi
▁12:00
▁esportat
maħfra
▁nominali
kurżit
metafori
▁minimizzati
▁speċifikazzjoni
lgħab
▁Film
▁place
▁inkorporat
āa
▁ġenitur
▁stations
/13/
ekol
▁13(3)
▁konklu
▁jappoġġjaw
qfa
ormoni
▁favore
hable
▁nattiv
▁ëert
▁Web
▁maniġer
▁sarit
raft
▁jappella
conductors
deto
▁rrappurta
▁ikkoordinat
▁diviż
▁varjati
nders
tarji
▁falz
istaff
▁tifdija
▁4(1)
binj
▁forms
▁niċċaqlaq
nitarju
▁jipprepara
▁katali
▁different
agoni
▁Ġew
▁pproduċi
▁gastronomi
ħrug
tempji
▁601
▁tippromovi
▁dijametru
▁emozzjonalment
▁reputa
▁vizzji
▁ħloqt
▁Clearstream
▁ICER
▁Sajf
▁chairman
▁deċentralizzati
▁kostumi
▁qarrej
▁OĦRA
▁Valuta
▁Skola
▁krema
▁KOMP
▁Saliba
▁nicht
▁Mudell
▁inċiżjoni
▁ivvota
▁jirregola
▁MHUX
▁fibri
quer
▁kwadrilaterali
▁мо
tidwi
▁stimol
▁1989
outs
▁jispeċifika
disa
Gaudium
kkettjar
interaġixxi
LAZZJONI
▁ingħatat
▁1994
sieb
▁sagra
ipprevedi
▁rċiev
▁volontarjament
▁jikkonsulta
▁solu
lqu
torri
▁kaboċċ
▁4.2
istand
Ugwaljanza
▁moderata
ġurat
▁ikkontribwixxa
▁sejra
1997
▁MEDI
lei
aqtgħu
▁jinqab
sessiżmu
▁ntiż
issolv
▁Hand
▁midbiel
▁fotovoltaj
karità
ĀĀ
ĀE
Istandards
aqda
▁Manage
udika
▁Lago
▁server
▁jivva
actor
▁jiffoka
▁regolatur
traww
▁tattika
ift
Persunal
lapes
Was
Qli
▁01
▁oġġettiv
▁jimxu
▁parte
▁fakk
▁librerija
ergonomija
▁Waħdi
xfa
▁(16
▁scusi
▁pittoreski
▁maġġuri
tube
approfondi
▁ħarġu
▁700
way
▁Lott
librerij
zoni
▁Niż
Int
▁tintalab
▁passata
sman
akkademj
aħħlu
▁mifhuma
▁maqtugħa
▁akuta
▁tonijiet
bok
kejkijiet
sensuri
▁iżur
sco
:“
▁jħossu
▁tħallas
▁jirris
▁nservi
elsien
RIG
Bajd
▁mnaqqas
reasury
▁ssetgħa
▁nipproteġu
▁jużawhom
ëimiterj
▁riċerkata
▁edukatur
▁veru
!!
ups
niċċa
ġurnali
▁jixprun
▁76
iggwida
Miri
▁kilo
▁Architect
▁Galea
▁infliximab
▁joints
▁reċiproku
▁riċeventi
▁selvaġġ
▁tribunal
▁vorrei
▁chard
▁folji
▁fjuwil
▁vojt
▁back
▁avviŜ
▁kundizzjonali
▁sigħat
▁year
▁Laqgħa
▁dawra
▁armi
tiswir
reus
▁tqila
▁Forum
▁reġa
▁sind
▁sensittiva
▁stokk
dativ
▁2000/
▁Arka
ħtija
▁88
ikkomunika
▁jidhrux
7.
▁ħw
▁tannegozju
Partit
▁jħoss
pli
▁Fin
▁AC
ĠUL
.7.200
rrak
SET
ulħadd
▁olistika
raz
▁ppubblikata
▁rnexxiel
iħ
▁ħamra
KRI
▁Indikazzjoni
amment
termina
▁nirrispettaw
ordinat
▁ferrużi
▁jiskopr
▁dekorattivi
▁idro
▁tipika
▁rate
Segretarjat
▁midd
▁other
▁terġa
ieqa
▁Brussel
▁pajji
▁dfin
▁Read
▁jissemm
opin
▁mtella
▁inferenzi
▁profondi
▁kaw
▁cap
▁progressjoni
▁għassa
jut
▁uŜajt
▁tappoġġja
▁Donat
▁mħarrġ
▁prospettiv
▁tkabbar
varjazzjoni
▁Ippjanar
▁Louis
▁karburanti
▁être
▁żrigħ
▁kalċju
▁uġigħ
▁Restrizzjoni
▁ditta
▁oqfsa
▁PROTE
▁isfar
▁nutar
▁jedd
▁politikament
▁annimal
pitturi
▁PCB
▁00
istimula
anten
▁final
▁tbati
insult
▁Fatturi
▁Għoli
KJAR
iffer
Ross
▁jagħraf
▁jinstemg
▁kollettiva
visit
▁motivat
stabilità
ONTE
itwaqqaf
ITB
▁dominji
▁indikatur
cons
▁xol
▁2.2.
▁Engineers
▁Prattika
sein
suba
▁Wett
▁Tuneż
Tlieta
/14
rays
▁perċentwal
iskali
▁tensjoni
▁show
għax
▁dgħajjef
▁kafè
▁ippakkjat
▁xmajjar
▁multa
▁HSBC
▁muniti
▁pajjiŜ
▁arkitettura
▁(13)
urg
▁comment
XIII
▁City
▁virtujiet
▁għargħar
▁Charl
▁jni
▁2007/
▁sigaretti
RJA
▁issolv
▁tilqim
fda
▁Cola
▁jipprovdix
▁vuċijiet
▁serer
▁oġġe
▁jigi
▁pont
Semitiku
vibrazzjoni
poe
▁mqassm
ides
▁ġobni
portafoll
▁kap
▁Non
six
▁xogħolijiet
IS
▁espressivi
▁jitf
▁NGO
▁ordnata
▁sis
Impjiegi
mkien
itlaq
Ŝew
▁Strateġij
▁muturi
▁integrità
▁tisqija
▁ensemble
▁possibbiltajiet
śI
▁klorur
menu
▁beħsieb
▁madwarhom
ejji
▁riħa
▁gwerra
acts
qmu
▁clip
▁reġ
▁jinbiegħ
dif
FIN
kranj
.........
impriżi
▁jghi
▁Partijiet
nding
▁"54
ERTI
▁dovuti
CT
▁jer
ester
▁merkanzija
▁votazzjoni
▁iress
▁assoċjazzjoni
▁(4
▁draw
▁esklużjoni
▁shampoo
▁Billi
▁assessjar
▁fenomen
billi
żola
▁dibattitu
▁systems
▁motivazzjoni
▁ippropon
fonemi
▁Bra
otossin
vision
parafraż
ico
avallerija
▁integrata
ATI
agro
▁SO
tig
▁cam
▁ipprovduti
▁Lei
▁magħ
publik
onsultations
konsu
komplew
▁este
itt
▁Far
determinat
ign
ingle
▁д
▁sidien
▁doża
▁ċertifikazzjoni
▁€50
▁mument
▁revi
▁introdotta
2.
▁definita
▁Għat
▁IT
▁għallkonsumatur
Le
▁ċart
Eine
ogni
▁Professjon
BE
WIE
kuk
▁jqisu
▁Master
▁immedjati
iżjoni
▁daqstant
▁ippreżenta
twa
▁żwieġ
▁batterji
▁Christ
▁solidarjetà
▁ambaxxatur
▁6,
▁Ed
▁qies
▁nitroġenu
RS
ifikata
▁sostn
▁regola
intéresse
▁Kopji
abor
DL
▁abbiltajiet
ambizzjonijiet
▁mors
orum
▁definizzjoni
ispiċċa
▁ħlasijiet
▁Til
▁ġenerazzjoni
▁tqarr
▁infrastruttura
▁pastor
▁kombinazzjoni
wk
dón
old
PER
mus
▁free
SES
1."
▁"42
vent
▁aġġornata
▁sus
nde
▁Human
ock
aminat
▁Art
▁tarde
cio
appo
▁kmamar
▁kompetenza
▁SAĦĦA
▁arloġġ
div
▁progressiva
▁Atti
rok
▁Kultura
għżel
▁dev
popli
emp
SI
faċċata
ntix
ħan
ox
▁Stabbili
▁determinati
▁Fe
fred
prevalen
tixt
▁table
▁fruntieri
Dipartimenti
importa
▁tipjip
tqanq
logic
mmarka
▁tqiegħed
▁Durabilit
▁Ol
raq
sqof
1.8
▁toni
AGĦ
versa
karatteristik
▁vidjo
té
such
▁vultaġġ
▁faqar
rag
▁ġra
▁xena
,300
▁modifikata
▁pip
▁fehm
eħ
zomm
▁navigazzjoni
MEL
▁avukati
ghaj
onte
▁Korri
pariri
ERR
chen
988
qatta
▁Mu
Ilmenti
baxx
▁nġabr
cs
orju
▁enfasi
▁raħal
▁oriġini
▁ospitat
▁tiene
▁devjazzjoni
dawwar
▁kompatibb
▁Pe
tif
APPLIKAZZJONI
regolarità
ramel
▁skambj
sed
▁proto
▁traċċa
mpl
▁Reġistru
tara
▁teatru
▁waqf
▁Spezzjon
ejun
▁jissuġġerixx
▁fażi
ikkoopera
diskorsi
▁kann
▁iffoka
interpreta
▁salvagwardja
suf
Pr
2012
▁tig
▁gass
▁weraq
passes
8.
ħobb
jara
rack
.14
ink
▁Inħo
awgurat
▁Sch
ssni
▁link
pag
preparament
▁offr
oso
anche
Qualit
▁għajnejn
eża
ulied
odda
yard
▁45(3)
▁Tas
▁Assen
▁srie
ismu
▁internet
▁simulanti
▁Mediterran
okali
glukos
immira
kalkolu
▁jkopr
▁għoti
▁qasam
▁Sul
ARI
sidrat
mlu
▁grammatika
ħejju
zz
▁reli
▁ewro
▁lilha
▁sum
он
▁preferenz
▁site
▁Sal
cot
▁assen
uego
law
Ap
▁cit
▁organizza
▁base
▁obbligi
.8
▁CE
Aġen
▁em
siment
arji
▁Komunikazzjoni
▁sigura
▁ś
pply
proporzjoni
▁Sar
▁ħinijiet
Pjanti
▁segwi
ams
▁benesseri
▁nirri
▁come
Real
vij
tima
▁Ġdid
kkordina
▁massa
żjarat
stag
▁miljuni
bżie
▁sinifika
dry
5.1
tne
CS
War
▁Kol
niżżl
▁radju
▁muskol
▁referenz
analizza
▁vuċi
burg
ners
ange
▁car
Bini
▁belt
108
rop
▁rikk
▁każi
holder
▁għalliem
▁salad
inforza
▁reg
ang
▁nefqa
ikkonsidra
▁Assist
iffissati
cul
mate
▁Wir
▁attenta
użjonijiet
PART
▁raw
Assisten
ces
lite
nique
-196
2."
iem
biet
▁eŜ
▁negozj
għand
ratterizzazzjoni
kellem
▁moħ
DR
ity
ars
pprova
fx
ritt
Għandh
▁Bot
▁tnedi
dre
▁Link
fon
▁flAnness
ingwa
▁influwenzat
bsin
jur
ani
▁jitlest
eżi
riklam
lil
▁gh
ffu
gers
▁publik
▁blat
ste
ARTI
ight
ipproċessa
rappreżentattivi
ards
▁pilastr
▁adozzjoni
aqqas
elfa
lato
anas
og
loq
▁spo
etiċi
▁setting
ML
kur
▁Għalliem
ġija
▁creat
IC
▁spezzjoni
ondo
▁if
the
ferenzi
tilwim
ins
mano
ille
▁banek
▁Cli
nen
lezzjoni
▁spa
▁accepte
qal
▁għo
profitti
sajjar
▁distrett
irrakkonta
nto
ikka
77
itrat
▁inklużivi
▁nutri
JONI
ġenda
▁matulu
qanq
▁Eżempj
MISS
▁ppreżenta
▁sedut
norarju
ikkordina
for
mba
▁197
▁adult
konsolida
▁dell
▁esklussiv
għol
ated
QA
mum
Para
DU
▁affettwa
Per
rmonizza
alità
poster
mazzjoni
▁contr
nġu
▁hat
▁lukand
utli
iġri
pej
▁irri
pprepara
abilħaqq
karjoti
dju
▁perijod
ippromovi
itudnijiet
2002
fun
▁Lang
▁Sol
take
zur
▁Arti
bass
liet
▁imwass
▁Per
▁2004/1
▁belie
blokok
livel
adid
2030
irreċta
tiva
nurs
onika
15)
liċenzj
nes
għadek
issuġġerixxi
▁iffriżat
ling
▁Ass
▁sk
għaż
agh
▁net
▁€0.1
▁fai
ingħajr
erne
▁tisw
▁inklużiv
bbiltà
▁Th
9/
kisbu
▁għani
▁erja
nunzja
ittu
ractive
85
Mr
qui
▁43
metri
jenti
estim
▁baqgħ
▁Eż
DS
ħadd
integra
ligi
100,
ispett
roj
litiet
▁buttun
run
84
▁interpreta
qat
aġ
¿
92
▁On
istors
▁informat
▁leg
determina
lawt
MP
300
eww
awm
ezzjonijiet
ettati
ċar
tanza
OTM
▁nagħt
▁Sin
sostenib
tilfu
ons
abbona
▁awgura
ġe
ĀI
eau
kontamina
oco
▁laqgħ
omiċi
bbe
▁Lo
▁progressiv
20,000
korre
superfiċj
ħażen
Pe
▁card
onijiet
ssin
qabbad
DAR
▁ħol
lease
▁eżamina
swa
sulf
TP
▁Funzjoni
▁47
▁Russ
nja
ħubija
affaċċja
▁3.3
▁ass
▁vari
▁inno
iġijiet
On
▁jitħa
ktu
▁aċċessib
▁skeċċ
▁jingħ
▁plast
ejjes
▁ku
ful
▁CV
eħid
ye
kolari
val
liċenz
zzata
orr
ions
addiema
▁ambizzjoni
003
▁136
kop
abilitazzjoni
2020
Kavall
▁allo
yo
▁komparattiv
Bid
▁drill
idejh
ixxa
oloġiċi
pubblika
abib
▁taqbe
Għan
aħam
estijiet
kompli
ġie
▁imq
zzar
miet
omb
▁neces
oj
rips
3.2
priża
▁Go
Regol
ach
▁jidde
direttiv
▁ħalla
ġenitur
ħnu
żin
prova
Materjal
▁rec
▁sempli
kompost
ffrankar
ġurnal
46
tessut
▁DI
sottomett
robot
trattat
EG
esponsabbiltà
uffiċjal
Sotto
abbuż
stima
ieren
▁jitqieg
riċikla
llega
▁preside
astronomi
▁€1
jati
▁polimeri
▁Intern
kampanj
tafal
solv
▁immirat
karatteristi
▁Organizza
waves
nishing
▁rivedut
superfi
05
▁Inter
ches
kelliem
Brussel
vulkani
ċilindru
villaġġ
doppju
minoritajiet
alliterazzjoni
onomatopea
riëetta
|
żebgħa
fniek
dgħufij
workshop
Hands
ġibjun
sostenibilità
Gvernatur
tqala
fonetika
paġni
aqta
Għar
kompo
distilla
pajji
type
immaġni
animal
Sup
lukand
immudellar
sult
tgawdi
mertu
Għad
▁aċċettat
Kopji
Prattika
Restrizzjoni
Ippjanar
kalċju
karburanti
uġigħ
Engineers
PCB
żrigħ
Louis
ditta
PROTE
gio
Strateġij
être
segw
oqfsa
▁ki
Master
ault
mħarrġ
isfar
ghan
artiġjani
Analiżi
Assistant
Coca
Mandarin
makkinarju
prassi
qodma
Anzjan
twissijiet
isimhom
ħleww
erbgħ
organiżmu
kwotazzjonijiet
▁rota
Istanbul
analogu
reżister
jagħmil
ħasil
operati
Link
ekosistema
epo
molekuli
life
tlaħ
korrispondenza
pjattaforma
Account
PRO
▁ray
nutar
membrana
ċifra
kompetenzi
linolejku
▁Għad
tranżazzjoni
Investiment
jinfluwenza
Reklamar
Home
tnax
diżastri
qatgħat
Etika
hand
€
Dak
Riżoluzzjoni
rrapurta
skars
favorevoli
urġenza
tarde
Rapid
▁nqabb
rotazzjoni
magna
tifel
trans
riabilitazzjoni
eċċellenti
previst
mistiedna
91/414/
legalment
irrevoka
April
Valletta
Governattivi
informali
Ġunju
Vitamin
Sekondarj
Diċembru
Eżekuttiv
Settembru
ATT
Ewropej
qawwi
viżiv
deċimali
responsabbli
4(1)(
inklu
differenti
soċjali
terzi
lesti
▁ci
tiegħi
▁Br
jagħmel
estern
ħarġa
▁Nik
Nista
dimensjonijiet
kienet
ġuris
▁differen
food
(2,
subparagrafu
normalment
ttestjar
mant
issepara
azez
▁kit
rbu
logo
orjenta
▁jippreved
dokumentat
stop
▁trijangol
▁verifik
▁ċikli
tkompli
▁ġeneral
ffurmati
ossidu
kontinent
għaġin
stħarriā
kkar
▁mwass
sakemm
tħalli
▁personal
jedd
Sie
isien
rimedj
ispezzjon
▁liċenzja
teore
▁approssimattiv
kienu
▁ap
▁teżawr
nista
ritratt
uniċi
fluwid
newron
▁sofistikat
▁Mater
zzjon
▁Viż
▁iddikjarat
prospettiv
hace
▁improvizzat
▁Offe
terina
dé
additiv
▁kondizzjonal
any
inkoraġġi
viżitatur
kwota
pjaneta
▁sussegwent
Deċi
negozjant
istudent
pjanet
▁Uman
jaraw
kantant
▁tre
ibbl
▁faċilit
Imperat
▁tessitur
kartun
▁jintrem
▁vast
sto
ü
▁ntitolat
ssjonijiet
▁territorj
▁mifhum
▁ghan
TUR
▁fiduċj
▁Ippro
▁kumulattiv
▁bru
wtorizzazzjoni
▁ġenwin
▁Rappreżenta
▁monetarj
strumenti
aħda
other
▁Protokol
Aġenzij
▁kwalitattiv
▁ssimplifikat
jarat
pajjiżhom
▁akut
ĦDA
hall
▁ttrattat
biss
▁112.
innova
tratta
▁tippro
lier
kantanti
islazzjoni
▁ħajj
▁Work
pjanta
isjir
iċċiet
iċċara
Manag
▁importat
bour
ritratti
erbufos
▁stqarr
aŜin
▁ċilindr
▁introduttorj
▁oblikw
▁nnegozja
attendi
ч
premj
ikkonforma
Uffi
kittieba
ippresjedi
▁jipprevjen
▁jiddeċied
▁kummer
ispazj
▁abbużiv
omeri
▁ħaddiem
finanzj
RATT
Asse
Mer
▁Inb
▁Dis
KAM
kettjar
▁eduk
▁intermedj
tratti
kumdita
▁tpinġi
eżerċita
Dis
ibbilanċja
simulazzjoni
ħarfien
formaw
▁Effett
cookie
▁shape
ebsajt
klabb
▁jinfurma
▁tqal
▁jirrigwarda
alfabet
irnexxi
ecision
▁stud
issorvelja
issospendi
▁speçifi
pell
miegħ
▁probabbil
migħ
istipula
ttwali
ctive
akkett
errej
fletti
ristruttura
koagula
mpjegat
▁music
pinġijiet
nfurmat
nvoluta
propjeta
aranzij
Kapit
istoqsijiet
▁Mediterranea
kompeti
ifdija
/2007
videnza
▁xokk
impurta
tifsil
Industri
▁lavor
custom
▁assess
ministrati
▁boz
kategori
weġib
arkassi
EMM
rieragħ
riterji
ċċettabbli
acebook
ritrasm
riends
▁awtenti
ò
mpja
iridossina
▁filosofi
ам
▁preċed
superlattiv
▁Termin
fossil
▁Raġ
ninstall
ossidj
rilaxx
▁aëëe
reazz
ortelli
▁ingħaq
ecurities
ogramma
▁mismug
Raġuni
▁skrin
dettal
▁klor
з
ENERALI
xklu
posiz
ер
ы
Degree
ρ
▁хо
SIGUR
veloċit
εύ
рав
▁Għeruq
▁jipparte
issintetizza
▁comunica
MASSIMI
Popolazzjoni
electromagnet
platz
tribwixx
▁arakidoni
▁involontarja
▁Добр
Belġju
Boston
DEPUTATI
DEĊIŻJONI
DKSE
Dublin
EATMN
EJJE
Estonja
Euratom
Finlandja
Floriana
Għawm
Indirizz
Infermiera
Inġinerija
Iskedi
Isvizzera
KONSU
Karnival
Konv
Liberty
Loġoġ
Lunzjata
MQF
NIZZA
NUTRIJENT
Nixtieq
Nutrizzjoni
PLASTIK
POLIC
Prestazzjoni
QFP
TELEFON
TELEVIśJONI
TIMSS
TRATTAMENT
Tajjeb
Umanitajiet
Vittorio
adoloxxenti
alveoli
ammonju
azoxystrobin
brassica
bronż
buprofen
carnitine
counselling
denominazzjoni
depożiti
digriet
dijanjosi
dranaġġ
electric
endoskeletru
follikulu
frejm
gliċeridi
ikkontrobilanċja
ikkumplementa
illixxar
impermeabilità
inftiehem
interlokutur
ispeċifiċità
kkolonizza
kolonizzazzjoni
konnettività
krediti
ksenofobija
kuntrarju
lizjesk
mammiferi
mjlk
muskuloskeletali
ntenzjonalment
periferija
protoktisti
purslane
sarkażmu
soċjetá
supplent
tfulija
tikħil
tlestija
transformers
tħassru
vakwu
vanillina
±
Ċelebrazzjoni
ċirkulazzjoni
Ġebla
η
во
ехать
ё
▁"(14)
▁1609/2006
▁ADOTTA
▁APPLIKABBLI
▁Access
▁Afirmativo
▁Amity
▁Applicants
▁Boyle
▁Camenzuli
▁Company
▁Cremona
▁DISTRIBUZZJONI
▁Duminku
▁DĦUL
▁Elettroniku
▁Esslingen
▁FORMULA
▁Farrugia
▁Galileo
▁KOLLHA
▁Kummenti
▁Laburista
▁Lawrenz
▁Liżbona
▁Lützowplatz
▁Maastricht
▁Maqgħuda
▁Marsaxlokk
▁Ngħożż
▁Numeriċi
▁PRIMARJ
▁PUBBLIKA
▁PUBBLIKU
▁Palestinjan
▁Probabbiltà
▁Problem
▁Quisiera
▁Reliġjuż
▁Sankey
▁Spettur
▁Spiteri
▁Stadium
▁Strateg
▁TWEĀIBA
▁Temperatur
▁VITAMINI
▁Vassall
▁abitwali
▁akkoljenti
▁amikevoli
▁amplifikazzjoni
▁analoġij
▁analyse
▁aneddoti
▁angolat
▁applicant
▁avail
▁awditorja
▁açetiku
▁bijoloġiku
▁biŜŜejjed
▁calculat
▁corrida
▁cuisine
▁demografika
▁depilatorju
▁didattik
▁domenica
▁espliċita
▁espliċiti
▁etnika
▁evidenti
▁experiment
▁größer
▁hätte
▁identify
▁idoqq
▁ikkunsmat
▁immaġinarja
▁immaġinarji
▁imwielda
▁intelletwali
▁isometriku
▁jassimila
▁jgħaqqdu
▁jiddistingwu
▁jikkonserva
▁jikkontjeni
▁jimtlew
▁jinteressawni
▁jinxef
▁jinħatru
▁jirriproduċu
▁jispikkaw
▁jittieklu
▁jittolleraw
▁jiċċaqilqu
▁jobbliga
▁jokkupa
▁jonq
▁kardjovaskulari
▁kiesħa
▁kkonċentrat
▁kodifikata
▁kompassjoni
▁komunement
▁konsekuttivi
▁kovalenti
▁kwestjonarji
▁mekkaniku
▁mmonitorjat
▁mpieg
▁mutatis
▁niexef
▁nippermett
▁nitjieb
▁omoloġika
▁parzjali
▁pilota
▁piramidi
▁possible
▁ppermett
▁pprojbiti
▁prezenti
▁pritkuni
▁qwiel
▁robust
▁sfruttat
▁stabbilizzat
▁subborgi
▁tbenġil
▁technology
▁tiddeċiedi
▁tingħalaq
▁transceivers
▁vaskulari
▁vessatorja
▁veġetarjani
▁voluntar
▁wesgħin
▁êentrali
▁Ċeċilja
▁ċirkolari
▁Ġobnijiet
▁ġrieħi
▁Łódź
▁żbaljat
▁брат
▁ник
Litwan
eachers
grilji
irefox
riżerv
sottomarin
stranġieri
waveleng
▁2004/787/
▁550/2004
▁RELAT
▁above
▁awtobijografi
▁dahhal
▁diżidratat
▁gradwata
▁jissintetizzaw
▁jnaff
▁kjosk
▁length
▁ntużat
▁transizzjonali
▁würde
▁ħerġin
Attenzjoni
Kompetenz
Kostruzzjoni
PROFESSJONI
Reġistra
fútbol
groß
mejtin
nonverbali
opponi
plawżib
ponta
presepju
ċensiment
ċipjenti
▁Qamħ
▁ambigw
▁mżeww
▁ornamentali
▁sikkina
▁straight
Pulzija
insalata
kostituzzjoni
kwoti
trakea
▁Għodd
▁Marittim
▁ikkl
▁ppjanar
▁€3,000
▁€660,
Kremisan
TRABI
equilibra
kulleġġ
siefer
uffiëëj
ġmiel
ς
▁549/2004
▁Għot
▁Speċifikazzjoni
▁demografiku
▁environment
▁movement
Minflok
aċċent
forestrija
gideb
▁diplomatika
▁jirrapreżenta
▁perezempju
▁strofi
▁tittiekel
▁€660,000
Klassifika
LCM
rraporta
▁1,000,000
▁MSD
▁Sesswali
▁Struttura
▁batterjali
▁biljetti
▁letterarja
▁poġġamani
Riskju
▁Alloys
▁histori
COPD
Interpol
arbon
asmine
eżadeċimali
Ħbieb
▁dbielet
▁drift
▁mikrorganiżmi
▁ndirizzat
▁ntqal
South
entemente
sweet
▁Bażika
▁inkartament
▁visitar
Fjuri
Isfel
entużjażmu
ibbukkja
sezzjonar
▁Massimi
▁avec
▁diskriminatorj
▁idjom
▁personas
▁ħdim
imluħa
qxur
▁LEĠI
▁Malte
▁irreġistrati
▁jeżiġ
▁meilleure
▁omiċidj
▁propagazzjoni
▁tennis
Sajd
VRT
▁kostitwit
▁Konsum
▁Reġistrati
▁giusto
▁irnexxiel
▁firewall
somom
ġobon
▁comida
▁domani
▁frazzjonali
▁jikkommetti
iddisponi
▁bilingwali
Arikolu
Aħjar
Kondott
Residw
htm
racias
releases
ез
▁Korre
▁iġegħ
▁kartolina
▁source
Premj
ewtralizzazzjoni
Ŝiemel
▁Weekend
PISA
▁1/8
▁Metalli
▁Outcome
alpha
gluten
▁1999/2
henyl
▁iddisinjat
▁ittestjata
▁performance
raggruppa
▁Woche
▁jaċċedi
▁naqas
▁organell
Kontabilità
▁College
▁dedikat
▁Peresso
Events
▁interpersonali
▁kkontestata
satisf
▁screen
▁vetrin
▁Klinik
▁cameriere
▁Patric
▁kburi
Kommunit
nkuraġġut
▁ċikliżmu
▁284,
▁kommess
▁volere
child
▁jirrappre
uffiċini
▁enċiklopediji
▁konservat
Kartaġni
heavy
▁progetti
▁tqum
ikkommett
▁Kinder
▁mħalls
▁Cordina
▁January
▁Wettke
▁inġust
▁well
onimi
▁ikanta
bosk
diżil
manje
obesità
elettrożi
▁Sportiv
▁rettoriċi
irtù
kkunsinnati
fosfru
tfar
▁jhedded
▁multinazzjonali
▁termika
▁nimmodifika
antibijotiċi
deheb
sarrfu
▁Medal
▁glazing
▁learning
▁psikoloġika
DIRETTIV
▁Leone
▁Steph
▁conditioners
▁pasado
kożm
valvi
▁konfużjoni
▁dopo
▁missirijietna
mamma
twieldu
▁korpora
▁kkund
Delega
▁jiddelega
▁rutella
▁tħossok
▁ivvjaġġaw
nġerit
▁ddelegat
▁sinjuri
▁1:20
▁Corps
Arċisqof
ŻLA
▁you
▁piacere
Injam
équi
▁ffrekwentat
▁capacit
▁folja
▁ikkonċentrat
▁ottuż
exxun
nnounce
▁keine
superviżuri
EFSF
istedin
istidina
▁tterminat
Papa
kkuntattja
▁jikkontesta
▁lessikali
oċjokulturali
▁osservajt
1985
▁immunta
▁Ott
▁effikaċi
▁novelli
▁ddefinit
▁alkoħoliċi
▁jistabillix
bennej
▁lejhom
wejter
ftiehmu
▁2004#1
▁ċirkulari
Apparat
▁Statistika
▁stajt
gaġġa
▁annullat
50000
tossiċità
ddizjonali
▁deċenti
iżvela
qarrejja
addition
▁twildux
ONN
▁Direct
▁qalbek
nizzanti
▁tikkundanna
daqqiet
roġenu
Gluko
fête
▁jibqg
ndividwa
▁apple
tbol
editjar
▁Chate
▁graf
▁qbiż
marketing
▁scanning
▁risponsabbli
▁fornut
PAK
veġeta
▁konċe
lakuni
fusna
▁Project
▁2017
fattibbiltà
ively
▁white
Zaka
komunjoni
▁sottil
▁kalamita
awrina
▁jitwaqqfu
teżor
▁Tazzi
▁Alimentarius
▁facial
▁fondut
▁Rumana
▁pprattikat
EFSA
ħnieżer
▁pluralisti
Konsol
▁allura
farmaċija
▁inorganik
▁Naċċetta
▁85/3
werqa
▁tefa
▁nstallat
-1993
▁order
▁inclusive
▁initiative
▁ippastorizzat
▁jaqg
▁sptar
rampa
▁impenjaw
▁45(5)
fieldwork
▁stilistiċi
▁filosofiċi
repetizzjoni
▁polimeriċi
▁niflaħx
▁Ammortament
making
LPG
▁jikkomplementa
Motivat
▁cover
▁Espert
▁jniġġsu
▁jitkompla
3+
ière
▁Fundament
▁workers
ovini
▁arma
▁dominj
▁jimpedixx
▁jisfrutta
▁jistħoqq
▁jinġieb
intestatura
▁jimmonitorja
▁fattibbli
duction
Slovakkja
Sagr
▁Facebook
▁amigos
irkant
▁passaporti
▁Mons
spostament
ekodisinn
spaces
▁trova
jorità
▁hour
▁jiffriskaw
▁€100
▁jinqabeż
▁korporata
âte
Innu
ifiku
zvilupp
▁sptarijiet
▁Artik
istennijiet
eneriku
xrob
Permess
▁salute
viluppat
virga
▁buen
▁investigattiv
▁mistqarr
frust
noche
▁isometric
▁Helen
Mediċina
▁jitħarsu
▁kontanti
querer
Ungeri
Settur
għasel
bijoteknoloġija
▁vjaġġar
mastru
phyl
inski
OLA
▁jikkoreġ
▁wera
Ungerija
kompattazzjoni
▁għaqli
▁community
elling
▁battal
▁mieg
koppja
▁Tele
portabbiltà
▁bueno
▁lavoro
▁imdaqqa
▁jingħaq
▁Bonn
ontempora
konoxxenz
▁viżwalment
avviżi
▁subien
eħel
kitbu
kaħħal
▁inħarġu
ĦU
(2016)
▁imexx
nawti
▁mizjud
herita
▁riċettiv
TH
▁Tiġi
weil
▁għaxriet
verbji
▁positi
nebbħ
▁jitkabbar
▁hoy
▁spazjali
▁team
.01.
▁kodi
▁SUS
text
▁karbu
uffiċċj
▁tittie
▁Anna
▁Regolatorj
śU
▁ngħarblu
għolli
▁ppu
▁eżerċitat
YRE
▁29(1)
▁interpretata
▁tinqix
▁Strateġiku
▁jittrasferixx
▁maqtugħin
lerazzjoni
Vjolin
migranti
içidi
▁rappurtat
▁Bened
Millen
ocu
▁Stadju
▁Passi
▁immanifatturat
vizzju
▁kkoordinata
▁4.0
▁raża
▁classes
fenek
▁Trevi
▁haces
▁prattikabbli
▁moħbija
▁Compl
▁relate
similitudni
Fungi
oft
virus
garr
▁juzaw
owers
▁Riforma
plus
▁plan
▁jisfa
▁għaddih
katal
▁Rand
▁Jean
kapitlu
reŜenta
▁mpenjat
▁kubiċi
▁centr
▁donazzjonijiet
▁agħar
▁iffurmati
bexx
▁75
▁xkiel
banju
nyl
▁paċifik
▁civili
mases
▁liberi
▁SKED
▁suite
Hay
zajt
▁żejtni
HOM
▁MRLS
▁perit
daħla
vetta
▁IVC
▁Medika
▁jibbilanċja
veduti
erë
▁Sitta
detri
▁implikat
fabbrikazzjoni
▁jistaqsini
▁applikab
▁klassiċi
erste
ctual
mowbajls
▁interpretati
klabbs
avou
▁41(2)
▁tempo
ESD
issalvagwardja
▁insajjar
▁jispjega
▁janalizza
▁notevol
zkuk
▁Station
ssussidja
▁djarhom
▁information
tijin
▁Preżenta
maniġ
▁avżat
▁egoi
▁seħħet
▁imniżż
sheet
▁Joy
▁terzjarji
malta
▁ħadra
veġ
illoggja
emblema
monument
▁jidhrilha
HCF
▁nervuża
▁misruqa
▁campagna
Regist
▁eleg
▁Liċenzja
▁jiggarantixx
appijiet
▁realistika
▁jtemm
cante
▁todo
fiëëj
intraprenditur
▁indut
mowbajl
▁preservat
ddisinja
▁Sport
QMA
sensorjali
▁isometrika
▁xprunat
VER
▁numbers
Kawż
roll
▁avis
gurat
▁denn
▁uŜat
▁bnad
▁6.1
ehealth
▁practica
eklu
▁iħallas
▁cross
▁ġeneriku
pher
▁ensu
kabbr
▁bikrin
▁Ash
▁spontanju
udio
▁mattina
▁ġuri
indukra
▁SKON
▁naqta
▁jinfe
▁pub
emissjoni
▁Norma
emed
▁ċatt
▁interessata
▁(12)
omos
▁stazzjonijiet
triqat
▁Prin
▁106
▁von
IstatiMembri
Foresti
▁jamministra
okkaż
▁ivvalutati
Gwardjan
kondutturi
ittikettar
ixkafef
telespettaturi
leġġendi
Dentisti
▁cre
duty
▁4(4)
▁rights
▁jitħejja
odes
▁premji
▁multilingwi
▁vende
ometrika
▁arg
▁maqtugħ
Bżar
▁rav
▁iħalli
▁"""(
ngħaraf
1964
brow
polymers
▁jinnotifikaw
▁tirreġistra
ebbu
LEAF
▁jespandi
▁Emendi
1996
fwied
▁TRA
▁appoġġjat
▁reċiproka
▁rrispetta
▁pá
deforestazzjoni
toq
kontrazzjoni
ormalment
juz
affermazzjoni
▁1070
pusta
▁mucha
strate
▁konsul
▁rispettiv
ċanga
▁meħ
▁cine
▁pinn
▁jgħarr
▁jintbaght
▁tippresjedi
▁privatament
xamm
▁rich
fiesta
▁fahren
▁ntemm
▁aħħarija
▁nindirizzahom
bandiera
▁introduttorju
▁oblikwu
▁magne
▁sinerġi
▁resistor
▁viel
ħams
OLON
▁nimmira
dahar
▁15:00
▁smig
▁share
▁waħ
▁EDIT
▁Clear
▁Simple
▁imrietel
▁ttikkettjat
▁NUMRU
▁bijoloġika
▁mitigazzjoni
▁period
▁vouloir
▁÷
▁Chamber
▁MEMBR
▁Prattiċi
▁Young
▁aerobika
▁influenza
▁kompetituri
▁lossless
▁mammogram
▁mġieba
▁pueblo
▁BADGE
▁algoritm
▁Child
▁Entschuldig
▁Konsultazzjoni
▁Venez
▁avere
▁jintilef
▁multiċellulari
▁intestaturi
▁narrazzjoni
▁kondom
▁protokoll
▁ċrieki
▁Micallef
▁Forensika
▁batteriji
▁jivvotaw
▁thinking
xaql
▁Department
▁jinħtieġ
▁kofinanzjat
▁Stili
▁kelm
▁что
▁Total
▁nobbli
▁proklama
KATEGORIJI
▁plastiċi
▁reġim
▁High
Karrier
Form
▁jsej
▁Di
kiel
▁trail
GH
assorb
▁jissimplifika
iemel
TA
glob
▁jitwassal
Sen
▁pest
▁kultiva
▁jitpoġġew
▁setgħetx
▁piŜ
878
▁legisla
▁beau
ermitte
pesti
agna
▁kubiku
Tim
▁149
printer
▁hel
▁frammentat
▁mister
▁kummentarj
▁sfurzata
▁żvelata
Mosta
orgen
▁salud
▁0.9
▁biz
▁jgħodd
▁NOT
▁109
Fatturi
LET
żaq
▁centre
▁kur
▁maġenb
tqaj
Gha
riċiklat
doss
▁madwarek
▁DIS
lju
istampar
▁tmut
ikkup
trasportazzjoni
▁spp
paper
▁jtell
▁toro
▁skars
intqal
▁futuro
888
Xaħam
MU
istaqsini
▁78
imprendituri
▁aber
infinittiv
intrapriżi
seħ
▁abitant
▁kwadrati
ikola
riċe
▁Frankofoni
dwiefer
demeton
Uffiċċjal
▁marid
▁folkloristiku
▁jisw
eads
▁medji
Nomin
▁floku
▁provviżorj
▁eter
avventuri
diverġenzi
estar
oġġi
▁aggregati
▁arbuxelli
▁għaqqiedi
▁mmaniġġjati
▁riċevuti
▁ċċarġjati
▁konjittivi
▁prezzjużi
▁digitali
▁taxxandir
▁jispi
▁kalkulat
▁immarka
QED
mentari
cos
▁passivi
▁independent
▁privile
▁0.2
iġbru
Khal
dge
jatura
extra
Kuntest
▁jegħ
rim
▁taql
▁intra
▁torn
sapproprjazzjoni
▁ġibjun
▁abita
both
▁Simon
arkati
emerg
itfaċċa
Tra
▁ntitolata
▁immarkat
▁kwalitattiva
▁immirata
▁jsemmi
▁stand
▁reġistrat
SSO
▁isbaħ
hydr
▁jissostitwixx
tituzzjoni
gat
76
ebsa
esperimenti
ljan
▁informata
toe
▁Nindirizza
ilhaq
kij
▁angle
▁liċenzj
ief
racks
▁ordinarja
xchange
MTA
▁Mis
agħmlu
▁Sho
kel
imnixxfa
NFORM
diedu
ETTI
Dru
▁Fol
▁log
▁torti
iebu
▁tlestew
▁nibbenefika
*:
сам
▁oriġina
newroni
ottomissjoni
usse
▁aqta
elsi
▁tħejji
▁Bru
leqq
▁Industrija
▁jintemm
▁traëëabilit
subregolament
▁epossidi
▁iħoss
viment
▁Hab
▁aġent
▁narrat
dixxiplinari
orgni
ħolm
inputs
▁tres
Meditterranj
▁mutwalizzat
▁2)
▁esebit
▁inkwiet
▁yoga
▁1925/2006
▁SESAR
▁affermattiv
▁mistednin
▁twassil
▁tħaffir
▁vakanza
▁whisking
▁ħajjitna
▁snajja
▁firmatarj
▁guard
▁tonalità
▁konferenzi
▁żarbun
▁Telefonat
▁0.5
▁sfera
▁nominat
▁inżamm
▁Titol
▁molekulari
▁vanta
▁mużajk
1800
▁issitt
▁Konnes
▁dmirijietu
▁7(1)
▁Folk
apert
▁tassazzjoni
▁“(
▁bnadar
▁tiġbed
▁abbużivi
fluwidi
▁illimitata
▁splussiv
▁cer
▁Portugiża
POST
▁immirati
▁skarsi
▁sofistikati
▁pour
▁awtonomija
▁dekorattiva
anell
umas
▁tlesta
▁segui
▁Natura
▁800
▁miżżewġ
▁Nirrispetta
sterilizzazzjoni
▁intejbu
▁semi
apter
▁gejjin
IFO
▁tadatta
GD
▁imissu
▁ninter
▁rispettati
▁kompila
▁2003/8
▁Għar
▁liċenz
▁teor
▁inċertezza
▁box
▁Pul
▁divertenti
▁finde
-2004.
KS
Vanill
veloc
▁King
▁ova
ipp
Investment
▁3.1.
Qass
uris
▁park
AĊI
LIMI
ċċerta
▁nkis
Bang
Ħas
lam
▁support
indaqq
▁Tuneżina
guid
▁rikreattiva
istin
ED
mazez
▁ċċekkja
kiri
▁mitħ
12/
orbit
▁teżawri
▁ppruvata
▁Worker
▁uniformijiet
▁bnin
Malli
▁naddaf
▁artrit
▁urbani
▁ġustifikata
▁statisti
▁kollezzjoni
▁xjentifikament
▁konve
▁korre
▁astratti
▁organizzattivi
▁gioc
qux
▁jintlaħqux
▁mp
▁ippjanati
▁immaġni
▁arre
▁nesprimiha
▁ispira
▁rimedj
▁Pres
30)
46.
▁sinjal
▁korda
▁lesponiment
▁prob
ċina
▁manif
HIS
▁Kla
Pass
ttura
▁imba
▁page
▁206
▁animal
▁kittieba
▁Sekondarj
▁Gvernatur
▁|
▁alliterazzjoni
▁immudellar
▁minoritajiet
▁onomatopea
▁riëetta
▁sostenibilità
▁doppju
▁villaġġ
▁dgħufij
▁workshop
▁fniek
▁irrevoka
▁distilla
▁paġni
▁type
▁żebgħa
50/
settled
bud
pprivat
▁fonetika
ker
Fingerprints
bati
▁mertu
▁bras
microwaves
Bidl
fals
ací
Te
▁jissaħħ
ree
▁tgawdi
professjonaliżmu
Vjol
ipu
cience
▁dimensjonijiet
roster
ingħaqdu
▁titn
▁Hands
7.0
▁stop
▁stied
▁vjaġġi
rivol
inkoraġġixxi
▁ffirmata
▁Bak
umen
▁tinkludix
▁4.4
▁83
▁2009/
reġi
Cam
imperattivi
▁FC
con
▁ċilindru
sum
inħtieġ
injora
isation
obotika
▁solve
▁2008119
▁jirrest
▁partner
▁membrana
▁Għan
benchmark
itati
aspira
▁tallega
▁hemmhekk
arten
▁jesperjenza
▁fisse
▁ekonom
▁espe
aħdmu
kreazzjon
egħel
▁skuża
▁iddikjarazzjoni
iddis
▁aç
▁(50
▁taqta
▁semplic
gamma
▁obbligazzjoni
ippreserva
endent
▁ikkonferma
▁jogħġobhom
irkwiti
Wirj
bet
▁Hawn
▁Taljani
▁SK
▁fetaħ
▁opin
▁portabb
▁ommijiet
▁restorant
▁passiġġieri
▁glossarj
▁potassju
▁inflazzjoni
▁rendiment
▁trasmissjoni
▁Octob
▁porting
Ray
Milli
▁hacking
▁ventilazzjoni
▁protettivi
▁ritorn
82.
vet
kisja
▁Mużika
zija
ulture
reġistrar
▁pitch
▁Dik
waslu
▁jnixx
argumentazzjoni
▁fortifika
▁vulkani
▁tqala
mblokkar
kits
▁qagħda
▁jiskorri
▁Minister
ifformola
▁pajjiżhom
▁waq
▁attributi
▁integraw
ħija
imlie
ċentrat
fit
▁igawd
▁dixxiplina
▁Ein
▁rotazzjoni
▁intier
ormona
▁rekords
▁minfloku
▁wasslit
▁Globali
▁immaġinattivi
▁gross
DF
inenti
kondizzjonali
kwalifi
XX
▁logo
▁irre
▁saff
?”
▁titli
żżat
▁APPLIKAZZJONI
▁Bid
▁kurv
abbozza
▁priżmi
Jiżgura
approċċi
▁veri
ising
għaxar
▁Ħal
ġabar
hma
tħarriġ
▁rappre
▁rivista
▁energy
▁għajxien
▁Żebbuġ
▁Portal
▁artist
▁kollok
piens
▁"}
▁pjaneta
ħajjiet
▁azzar
▁leġittimità
permessi
rawżers
▁(23
▁dimensjoni
▁drapp
milja
▁1(1)
ittejjeb
Wie
▁ditti
▁medium
▁iffirma
gles
Ce
▁rendikonti
rregolamenti
issru
istampa
▁rispettat
Dr
▁links
▁jiħ
▁ffaċilita
▁stazzjonat
▁miex
▁taħwi
▁NE
ażin
▁это
▁sjieda
cca
ILO
▁Ħar
▁jiġġiel
▁periti
ikkaratterizza
spon
87
żizzjoni
▁lines
▁1924/2006.
▁trop
▁paj
▁gdid
anz
tradition
▁ELE
▁konsolidament
▁Dei
▁indipendenza
▁insibuh
alib
▁Ef
onija
▁dé
jani
piritwali
(20:4
Films
▁Bidl
wieā
talent
▁kompluti
▁intwer
▁direttiva
▁riferit
▁layer
Taj
▁raġel
▁alkali
▁żrieragħ
▁trip
tenna
▁low
raj
żgurata
idad
▁bniet
rex
▁Mill
chenge
▁tkejjel
ultati
▁pprov
enja
▁tins
irritorna
▁og
section
Ing
aled
▁solde
superviż
▁ċiklik
▁cons
ergo
▁Mer
▁то
▁connect
jissejjaħ
▁Sam
▁"45
niku
BEJ
Ħaf
6(3)
ahh
.2003,
tlettax
segu
▁qamħ
▁Kuwait
▁għonq
▁Ministri
▁fuħħar
▁simbolu
Deh
▁segment
baj
-2015.
▁jaħż
38
▁inugwaljanza
▁(6
ducation
▁kompo
▁Com
bread
▁mus
AID
▁charge
5,000
▁jissejj
konve
rrifjutat
QK
ixxandar
▁Generali
▁mogħdija
abbonat
king
bż
Azzjoni
▁imaginati
anijiet
start
▁festa
lfat
▁rima
vvanzat
lizzazzjoni
▁Musulmani
▁massaġġi
▁LRM
▁ikoni
moi
ries
rana
▁explor
ejta
▁warajh
STAN
ħal
▁qsim
▁daħħal
stiċi
jeteti
infirex
demostrattiv
nada
amil
Awdituri
tung
rettangol
ebg
▁Mil
▁jeċċedu
elease
ector
5.0
▁jaq
▁simil
▁ifakk
▁Ze
Les
ikkorrispond
roċ
▁idrokloru
▁Kattoliċi
▁drenaġġ
▁negozjar
▁traspos
▁Interes
▁Mid
ġa
iëina
г
Mej
▁jinxt
▁lado
FERM
xien
228
▁plott
▁jpoġġi
▁Cho
ibbiltà
LAN
irreġistra
imal
▁qalz
▁rotazzjon
tneħħew
ilitajiet
cards
▁Sir
▁mater
▁disinji
▁Pretér
▁CAD
▁Milied
▁Amministra
ubject
▁nimx
xandar
kurrenti
Avukati
rek
komplet
__________
▁0,1
frotta
▁tolleranza
lita
▁elevazzjoni
erra
OT
▁ħsiebu
WI
kla
geb
1.12
EDU
itħassar
▁realtà
▁intervistat
▁ora
▁dipendenza
▁inħobb
▁You
ggrad
▁14(2).
-2002.
▁vidjow
ssostanzja
act
▁ripetuta
Figur
▁laqa
▁dokumentat
▁liċenzjat
artijiet
ċċelebrat
rther
delegazzjonijiet
▁Speç
▁pic
▁tirre
▁kaz
▁suffiċjent
INA
▁saħħti
▁kontabilità
▁atomi
sen
lari
affida
▁soċjoekonomi
▁proġettat
_____
kejj
pos
▁jissu
porter
tendi
▁rkupru
luta
▁fergħa
▁metall
▁verti
▁PRIV
storsjoni
▁ottim
▁ter
▁ittrattat
▁radjazzjoni
tata
wed
▁filkummerċ
refracti
nklużi
▁96/
▁ristrutturat
▁jivv
ittrasforma
festini
rico
▁droga
Nikkunsidra
▁Bar
▁xott
tlieta
▁Ya
▁katalist
rite
▁<
▁tixrid
ntifika
immon
Che
wiċċha
▁"(15
▁nar
▁supplimentarj
kien
▁safe
▁filklima
▁inċi
▁pjanat
▁see
issellef
▁limi
intraċċ
aster
vità
▁millbniedem
filtrazzjoni
▁mirRegolament
olvi
▁jibgħatu
▁allerāi
▁ħoloq
naw
riferenz
vice
ursing
IFIKA
▁45)
LEDs
▁direttiv
tiv
ċjal
▁FIH
▁sko
▁taqb
▁rieżami
▁parl
ħdu
▁cab
▁filKomunità
Bul
ес
pazju
▁demokrazija
▁injam
page
jjel
ami
▁verb
dio
▁nistħa
▁tasSaħħa
naddaf
pj
għinni
47
▁5:
diver
van
▁"53
latitudni
bilħaqq
jana
għas
▁Berlin
▁Soċjetà
▁modifikati
▁nom
elo
▁polimerizza
Kummiss
innu
ħolqu
NC
ional
diversifika
▁jagħmilh
udu
partitur
▁proporzjonata
▁Ħad
bijoma
asb
kaxx
▁Ilma
▁kurrent
iżolati
lesta
▁gut
laħqux
▁compr
hip
aliżmu
▁185
▁Natur
korda
aëëess
▁For
nqal
▁inġabr
ddefend
lla
qabbe
gwardja
rita
jilbsu
▁5(2)
▁seklu
dentità
ates
▁gern
Ŝul
▁Sup
blow
anzi
Wir
▁cad
IMMA
duzzjoni
▁Maria
jabilità
▁accept
SM
▁comm
osserva
▁€4
7.5
FU
hija
▁tilwi
otazzjoni
maxim
6,000
uner
tniss
rreċta
bur
AA
nev
offiż
enzja
▁rif
hoo
tifikazzjoni
▁Wi
nkitbet
▁sab
En
▁mixi
gati
▁nibd
rum
esibizzjonijiet
BC
etaboliti
TAN
▁ttestjat
titudni
wat
2008
injur
Dur
Applikazzjoni
AMENT
unċert
▁trasforma
▁esti
ġur
qarr
orarju
▁cop
▁faċilitat
▁TI
-186
▁who
ntern
ngo
Xort
ehmu
1.3
mbru
▁"(4
fikat
ġjanat
zar
vedi
95
sakkar
eduti
tement
ttings
▁mare
arki
pplikax
inks
TER
▁ħbiberij
die
▁Bu
▁2012)
gel
▁Provv
illari
nte
▁tlaqq
Ċek
▁tingħad
▁ferr
▁jiġb
nsisti
forestazzjoni
onne
kazzjonijiet
tanti
▁prototip
Qali
CID
dentisti
mutaġeni
ljar
offru
▁ineħħ
kjarat
roject
▁sol
posthom
▁mol
▁(3
ssimu
possibilita
my
eŜist
Pres
0,5
▁attur
rst
nġabru
immassimizza
quet
unt
PA
né
nets
riġi
nita
.....
iġer
▁jagh
IDI
xxew
ring
▁jiddef
nst
▁nirr
avio
▁ġb
▁traffi
▁pens
▁restritti
120
▁infrazzjoni
▁...',
ajn
izzati
,25
ankijiet
MEDIĊIN
▁tram
sters
ajls
BA
▁bou
▁nsostn
ħobbu
▁Ħlas
afna
▁imx
pas
saħħu
▁jinqe
ummien
title
danza
dom
▁isaqs
▁iżolat
▁marRegolament
bigħ
▁tippermettil
sejb
INTERVISTA
ħdit
▁compra
2(1)
pparteċipaw
trav
tasks
rse
▁żgur
Po
▁etc
immanifattura
▁forme
irkupr
▁imfiss
estremi
kompila
ssen
ejk
odifikati
TAZZJONI
▁prepara
NB
ffabbrika
▁Komunita
hole
istħajj
▁45(3).
ality
2004
▁74
▁nqatt
33.
▁Bal
▁indika
▁Ros
pilla
▁"39
▁Mag
memor
ivitá
▁Kwalita
chas
2006
over
800
▁eżiste
▁inabilita
21)
zin
sellef
irħ
ħejun
Com
abra
oordinatur
▁Xinh
egwi
ekonomiku
eva
eħen
EH
arba
▁Fre
▁imnadd
ensazzjoni
El
Don
katalista
uva
kifemendata
nuri
▁tipprov
Pour
99
▁10(2)
▁rriżulta
għraf
enzija
illo
KU
▁impor
rjament
SK
04
endere
nqassar
eħħi
kontributur
manufattur
▁Resourc
2005
▁jintbag
20000
onġ
▁dekorazzjoni
sajra
dett
BS
▁derog
2006/
nstabu
2013
nek
sostanzja
peçjali
▁"49
dvalji
▁pie
▁liż
FE
▁sever
ezzi
▁Kr
PI
▁SPE
molekulari
eëë
spezzjona
61
▁call
ogic
▁swiċċ
UL
ftakar
▁tranżizzjon
▁ghad
▁tħaw
▁jittras
kku
parassiti
URA
2000
Xej
▁mqeg
▁110
42
▁nidd
BO
ottimizza
cina
osso
Dawl
rrispondi
▁nann
▁japp
▁jsemm
metriċi
▁tikk
ssage
▁tossi
0,8
pronom
Propost
Er
▁nirre
pastorizza
ngredjent
▁"61
ċċekkja
spiċċa
OD
▁Jan
fjamma
bint
frażi
essibbli
riegħ
Referen
Max
▁indivi
REST
▁Chris
▁Z
part
preferi
mmonta
mmissjoni
tary
▁immaniġġja
rem
anali
▁tras
irtir
versali
tiż
▁viżwal
▁charg
MMAR
ece
connector
▁GĦAND
zjat
lettax
tagħ
Frott
licin
entali
▁jixxand
laħħa
cchi
▁cha
▁sem
▁emf
▁miss
reċtar
mponi
qas
▁str
▁Assis
▁relattiv
▁Għa
▁intrinsik
mlie
scriber
kordina
mais
от
servu
▁Cau
lessi
oman
▁vec
▁imp
▁assessja
arc
▁ntlaħqu
▁jirnexxil
kwantifika
▁ħaj
kredibbil
pecial
ack
koeffiċjen
AND
għla
ffirma
kombina
▁twaħħ
▁riferi
▁jidd
▁ssuġġer
top
brawż
▁Domesti
▁vien
naddf
▁eleva
▁Stabbilit
notifik
ghad
▁mqass
▁allowance
▁jaġixx
sura
rritorna
magħhom
infezzjoni
tore
istqarr
ritwali
▁jidhir
konnett
▁81
▁action
organiż
▁meteoroloġi
▁2.5
▁effic
▁portafol
▁prend
ipend
▁mfiss
sap
▁Seg
▁jiskorr
kurva
imblokka
▁Buon
pien
ġenera
▁1/10
▁orto
abitazzjoni
▁́E
acci
▁acc
▁router
inġu
ssenja
nterface
rfigħ
Uffic
asp
Om
fittxija
▁għarri
xotta
▁inwe
ojl
▁idaħħ
kteb
nazzjon
▁utilizza
kwal
vola
kkomunika
▁jitqegħ
dutt
witi
NSAB
ables
assorbit
▁XXI
▁prijorita
с
vanta
rjetajiet
ky
rajt
tallazzjoni
▁conve
pront
59
▁naħd
▁issu
jolenza
armi
metti
qiegħda
Modifika
ħażn
qegħid
▁arke
ranżizzjoni
roni
▁quell
▁We
dominj
files
dam
impjega
▁Inawgura
▁aggrava
tagħna
▁Negozj
ON
perit
adhom
▁mic
esponiment
▁leġisla
kommuni
Ŝajt
▁disposi
Diploma
mogħdij
msemmija
RIZZ
monitor
bijoloġija
djenza
▁sost
mineral
aller
stokk
ottim
▁PER
▁jirr
kirur
pes
▁settle
ipprogramma
sekondarja
Stock
fertilizzant
legali
urabilità
JONIJIET
record
vantaġġ
kuntrast
evalwa
▁Spirit
approprjazzjoni
▁jitfa
▁fundamental
hl
esporta
domand
qassm
mposti
mpatt
inżamm
qfie
▁Tip
otro
back
preparat
alternattiv
koabita
TIVI
bliet
profi
itba
▁star
DIK
aggio
stili
ê
microwave
▁npoġġih
verti
iċċ
territorj
▁prezzjuż
iffriża
twess
Bron
tnixxij
Z
dispon
Kwalifik
responsabbilita
▁bilanċjat
Mir
enefiċċji
Parla
rebbieħa
habite
field
Sost
(2012)
simpatija
Betlem
PVC
White
gwerer
kanċellament
twieqi
ċekkijiet
giorno
Komponenti
oriāin
vivir
ċavetta
ħjiel
PDE
Raħal
plastiçi
fuels
umdità
xelter
Telf
digital
metafora
Futur
black
printing
supply
Bask
morfoloġiċi
ssokta
calci
tolleranti
Polic
Nutar
minoranz
Preparazzjoni
menos
reżiljen
āimgħa
prosekuzzjoni
ëëekkja
▁titla
attur
filtri
▁limitazzjoni
viżwal
konjittiv
mediëin
apte
donazzjoni
konġunzjonijiet
▁AĊ
zjonali
ambizzjoni
mikroskopj
dmu
madum
maturazzjoni
4/4
Qadi
liem
drill
flat
oriġina
fjuwil
pilastr
Opinjoni
Funzjoni
dipressjoni
STIs
ferħ
impressjoni
privile
▁kumment
divertenti
1925/2006
miżżewġ
awtonomija
affermattiv
mistednin
twassil
tħaffir
ħajjitna
vakanza
firmatarj
tassazzjoni
▁skal
Folk
snajja
bnadar
inkwiet
▁Her
SESAR
konferenzi
ipote
żarbun
yoga
mużajk
guard
esebit
nominat
Work
Titol
Konnes
tonalità
fortunat
prototip
riga
whisking
▁ningħaq
▁Char
ħolq
▁omofobi
78/
▁Kristjan
sfera
passiv
Sim
Nirrispetta
0.5
vorrei
Architect
Galea
infliximab
joints
reċiproku
riċeventi
selvaġġ
tribunal
Laqgħa
avviŜ
ħamra
esibizzjoni
vojt
Industrija
Kul
xbihat
Promozzjon
grid
Metod
Char
simulat
Tekniki
Chair
Düsseldorf
PRODOTT
kunjom
Riskji
akkumpanjament
video
▁Inq
Nurse
ċarezza
storiċi
sigħat
salvata
prokuratur
grafu
sigur
chard
ppreżentat
intermedjarj
Strasburgu
famuża
filgħaxija
kanzunetta
meżjonin
ċċertifika
dium
festin
snien
IJA
ġirien
karkassi
melodij
AVVI
Forum
cable
Kriminali
Ġestjoni
ħżiena
kartolini
likwidu
Ċipru
Ġesù
arrest
▁tlaq
infermier
porque
viżibbli
trijangolu
frodi
möchte
700
eLearning
Kwistjonijiet
rikreazzjon
|___|___|
Legal
Rappreżentanza
year
York
niekol
Kerċem
jixtiequ
mużiċist
Inter
mnixxef
solidi
▁jintem
saqajn
tiswija
PRIV
minuti
mobbli
REGOLAMENT
dijagramma
multipli
Midwife
kelm
għamara
Anniversarju
Proċess
preċiżjoni
volontarju
sekulari
rettifika
doppji
governattivi
kwadru
reliġjuż
żgħira
MALTA
props
inċertezza
asse
ħxejjex
eżempju
vaganza
kanzunetti
inċident
bankarju
fhimt
Forom
burdata
block
reġjonali
Komunitarju
Żvilupp
pour
primarji
awtorizza
Skeda
ħaġa
tekniċi
qima
hinn
tajbin
ekonomika
fosthom
Konxju
maħsub
jkunx
xierqa
adottati
▁ippre
kumpless
ħaddieħor
ssostitwixxi
miftuħ
tqabbil
kard
priżm
twil
jiġi
jiġu
ħażin
ewlenin
deter
elettroniku
effiċjenti
projezzjoni
elettronika
infezzjonijiet
diġà
jirrappreżenta
personali
▁feno
Arka
Uffiċċj
Ikun
▁jinħall
▁leġittim
▁Fun
tajn
hydra
armoni
otba
Dwar
anteniment
mingħajr
Pien
reġistrazzjoni
embo
siderazzjonijiet
arri
jiā
▁jitħadd
irregolari
kapaċi
▁nteress
eŜ
Telefon
boards
uskoli
folji
links
narrat
▁tingħaq
irrid
inkoraġġixx
EW
kkademj
blokk
▁televiżiv
kolo
imejl
embrijun
ewtro
esej
lobalizzazzjoni
disturb
▁treasur
narrattiv
disk
cort
wasl
▁ikkontribw
HR
Stati
Cross
▁Segretarja
dfin
▁arbuxell
▁għaqqied
▁mmaniġġjat
▁riċevut
avventur
diverġenz
show
reklami
▁ċċarġjat
rends
nvestigazzjoni
Imma
▁pittoresk
▁mutwalizza
Uża
▁mutur
tiġi
pulmun
▁ġudizzjarj
▁veterinarj
▁maġġur
edagoġi
▁approva
karboidrat
ġjene
▁scus
Reġjun
▁jogħ
:________
м
▁emer
taqsimiet
▁doc
sensittiv
Ġeneral
suffiss
▁intrins
▁sentiment
disinjatur
sostitut
raġun
▁ambizzjuż
Kummissjon
▁Jib
terremot
▁konsiderevol
▁Edukattiv
▁ippjana
▁Segretarj
▁konvenzjonal
▁riċent
▁konsistent
▁argumentattiv
▁partikular
▁niddefinixx
▁relevant
▁tradizzjonal
▁microwave
pproprjazzjoni
▁preċedent
▁internazzjonal
▁nesprim
▁diġital
litru
aġent
▁niddiskut
▁kreditur
sland
▁tranżitorj
▁spon
mein
dispożizzjo
▁fotovolta
▁rebbieħ
▁assigurat
▁manwal
está
mgħa
·
razzjonalizza
▁niltaq
erāija
▁jibq
sons
▁żvelat
▁Kul
ivorzju
▁ordinarj
with
▁jinbieg
▁Licen
enituri
▁Prattik
Ugwaljanz
▁sfurzat
secu
wdjoviżiva
▁Inqas
0800
▁moderat
▁estr
etentur
Ċirk
▁kronoloġik
disturbi
togħm
sħubij
▁grammatikal
Waħd
agon
▁magħluq
kwadrat
nvironmental
▁iwieg
SPO
▁mġib
demokrazij
iskrin
nixxi
Infrastruttur
▁nqab
Cuá
mbitu
▁assistiv
▁evidenz
▁Fiżik
rever
990
audium
water
▁konsulta
bħar
penta
▁moq
mexx
Pre
▁ħidm
INVOL
għajnun
tbati
rror
oraġġ
ootprint
ġiċi
restri
infrastruttur
ahren
ratifika
priżmi
▁illeġittim
qabbil
Inkluż
ġina
▁semmieg
ammu
▁specific
websajts
taqsir
xjenz
▁tibg
Telefonat
▁104
▁imme
Iskri
▁pur
.11.200
oloz
amma
fasizza
eġġew
dominji
▁jibg
▁290
.21
▁maniġġ
▁intiż
gate
trial
▁jevolv
▁aggregat
estent
sservazzjoni
▁jaffaċċ
iżdied
voka
ifhmu
ċidi
▁dramm
renzjat
▁spontanj
nic
4/6
proto
narrattivi
oppji
ekwilibrij
read
▁INTERES
feriti
barometr
ëer
ofsinhar
mbin
OVE
▁awtori
imtela
plikazzjoni
igaretti
▁platt
lock
ġan
Preżent
▁speëjalist
onfoq
▁dub
ecesit
▁riżulta
lill
IZZJONI
▁milqu
▁program
istudja
nifisha
easure
Kollabora
apporter
▁esklu
igward
diġit
ibattitu
purċissjoni
kjesta
will
unċetti
istinka
kostitwen
istribuzzjoni
III
▁effet
▁stab
approva
ntagħż
bħall
▁meaning
ifferenzi
▁diffikulta
préférer
▁kontinwi
erriegħa
ownload
uniformijiet
▁diskret
skrizzjoni
otermiċi
▁classe
▁plot
▁jipprattika
lokalita
Istandard
kumpl
▁divi
▁material
ittrasferixx
itħejja
biel
▁oppo
▁Standard
▁application
qatgħa
involvu
ringrazzja
iżvolġ
vament
ritual
akkumpanjaw
infurmaw
Iśś
▁chart
itolbu
robbija
ruga
ntbagħ
sważivi
▁digit
intużaw
animat
itħalla
nħarġu
▁juza
iffissa
RAZZJONI
▁collaborat
▁Franci
ntervistat
ANT
iġà
ppartjeni
igrazzjoni
inqara
ffriżat
nbidlu
ilħqu
mdaħħl
▁indikazzjo
kulari
▁drawing
▁ekwa
nnovattiv
▁tħalla
▁tranżit
ndividwalment
room
tniġġi
Avvi
▁daħħ
▁Finanzja
kompatta
▁nivv
inkiteb
nfushom
IVE
tiene
Eduka
normal
ccount
ithom
unit
mressqa
kloru
GA
bgħat
▁Office
▁simpati
Sloven
▁(**
Slovakk
ċċetta
bout
▁membran
ecuti
frie
▁quddie
▁Kordi
Glob
ajpijiet
kkomplementa
ccepte
bbre
mmortament
żżejjed
rrikonoxx
ssodisfaw
akkomoda
▁tekni
fosf
OAM
miġġi
▁loġi
STI
jonali
▁performat
▁MAN
arteċipazzjoni
ombinazzjoni
German
▁Exc
gener
tosyl
annamieli
aragraph
▁suffiċ
apacit
erjodika
boċċi
▁sarkasti
070
ampjuni
employ
whisk
▁amplifi
kurriku
▁scann
onservazzjoni
tikett
ggruppata
Diversi
▁influwen
kontabilit
uperviżorj
effikaċ
▁jikkostitwix
▁laqg
tornavit
novell
ENZA
▁diġestiv
▁ħall
aggressiv
▁piace
Manifattur
ipprojbixx
vjeni
▁jfiss
wissi
ħtiega
▁ninte
realizzat
iżwalizza
orld
kunsidrat
rintenden
standing
▁Taqb
alvagward
aganzi
▁batteri
kkundanna
▁joħro
▁riżol
▁rinova
▁hack
Ġuda
▁MHU
▁punteġġ
Indika
▁psiko
▁EWROPE
bask
те
▁melam
fidda
morf
▁impossib
meilleur
cycl
Individw
▁βρ
kontroversja
ċċelera
κ
φ
▁oligofru
batterja
gricultur
▁(€23,
▁jdgħaj
^
nterfe
ε
ικ
ар
ру
▁esebizzjoni
ronika
infinitiv
okrazija
CFCs
Fußball
irrikonċilja
neċess
schmerzen
ł
тв
▁BATTERJOLO
▁Mehmuż
▁efect
▁giorn
▁hydroph
▁irranġa
▁kromosoma
▁solidarjet
▁trapezj
▁быстр
Elettriċi
Franġiskan
Propjeta
ibbenifika
idroklorid
konflitt
mdej
script
sovrapożizzjoni
vakanzi
▁Aëëeleraz
▁Emmanuel
▁Nutrijent
▁batterjolo
▁celebr
▁epidemjoloġi
▁juices
▁kumbinazzjoni
▁mestrwa
▁mqieg
▁pasticc
▁riċensjoni
▁sandwich
▁volontari
▁ċiberneti
▁ċkejk
/2011
16649-
21528-
31.10.2003,
ANZJA
APPLIKANT
ASCII
Albanija
Aprés
Attwalment
Bijodiversità
DMAA
DOKUMENT
Difiża
EARING
EKONOMIJA
EREALI
Elettromanjeti
Employment
Feniċji
Ferrovija
Filateli
Għażliet
Għeluq
ICAO
ICTGM
Identita
Iffissar
Intrapriża
Inċident
Ispettaklu
KONFORMITÀ
Kapuċċini
Konferenzi
Latvja
Limassol
MCESD
Madliena
Mellieħa
Menhir
NEGOZJ
NSAIDs
NZJONIJIET
Naskh
PIRLS
POTENZJAL
Pazjent
Préparation
Rodentia
Russja
SWMED
Sabah
Safrattant
Simboli
Synaptic
TARJU
Theddid
Tqarbin
Trasport
Tunezija
Ukrajna
XOGĦOL
YEI
adolexxenza
aerobics
aerosol
akkrexxittivi
anakroniżm
anġjospermi
appeler
ascensor
astinenza
autobus
awdxin
bullying
cava
channel
colourways
compression
condizionale
ddestinati
dekorat
dijabete
dimensjonar
diminuttivi
diżapprovazzjoni
diżappunt
dürfen
dħaħen
ecstasy
ekinodermi
ewsletter
eċċitament
eżoskeletru
fabbriki
fabrik
ffriŜati
furkettun
għanqbut
għelejjel
għoġobni
hallenges
harpsichord
ibbaġitjar
ibbliċjar
ideoloġiji
iffinalizza
iffjorixxi
immobilizza
imnieħer
inadempjenza
informatika
inkrimentali
iperbole
ipprezenta
isotop
iċċaqalqu
iġmla
jagonali
janjostikat
katakombi
kepxins
kloroplasti
kolesterol
koltivaz
kongestjoni
kontraċezzjoni
kopulazzjoni
kromosomi
kummissjonarji
kustilji
leġislatur
manjetiżmu
manuskritti
matografi
mauvais
mberfla
mechanic
medulla
metodoloġij
microcontroller
midwife
mitokondrij
miżbliet
mléčná
mobilizzazzjoni
moltiplikat
mparzjalità
nadaljevaln
nervituri
nġinier
okkaŜjoni
omeostażi
orrużiv
ożigoti
pantografu
parabbol
permakultura
perseveranza
phosphat
piraterija
porċellana
pożati
preċipitazzjoni
pubertà
referend
residenzi
resistant
riċevitur
rrakkuntaw
scaffold
schlecht
skeletru
skeċis
slots
taña
tbaħħir
testikoli
togħlija
traċċabbiltà
treddigħ
trejdjunj
tsunami
twegib
ultikulturaliżmu
veloëità
waterproof
wtomatizzazzjoni
ypropyl
začetn
zlazi
zucchero
|___|___|___|
§
å
çeramika
énergie
ítő
Ġgantija
Ġimgha
ġbejniet
ġnejna
ġugarell
ħajla
ŻEJT
żeffien
żrinġijiet
жно
крыт
оторы
ски
ший
ять
†
‡
′
√
▁(14)
▁(1966)
▁(20:5
▁0,75
▁14.11.2009
▁14021
▁1829/2003
▁549-552/2004
▁852/2004
▁93760
▁Affairs
▁Bartolome
▁Belgium
▁Birkirkara
▁Botchaften
▁Briguglio
▁Brincat
▁Brownian
▁Busuttil
▁Bäckerei
▁Committee
▁Computer
▁Cucurbits
▁Depożitarj
▁Dinenage
▁Elettroniċi
▁Falzon
▁Fenech
▁Grafik
▁INKELLA
▁INTRODUZZJONI
▁Indicativo
▁Inferjuri
▁KOORDINA
▁KWESTJONARJU
▁Kastilja
▁Khatib
▁Kontemporanj
▁Korporattiva
▁LOKALI
▁MAĦRUĀ
▁MOSFETS
▁Maldives
▁Mercieca
▁Mintoff
▁Monday
▁Mqaddsa
▁Newsweek
▁Olandiż
▁Ordinarju
▁Ortayli
▁Parametri
▁Portwali
▁Potočnik
▁Provdi
▁Ramusch
▁Regulation
▁SIMBIOTIC
▁Sapport
▁Smith
▁Soziale
▁Spanjol
▁Spinaċi
▁Spjega
▁Stefan
▁Subjuntivo
▁Surġent
▁Tevana
▁Umwelt
▁Universitarji
▁XJENTIFIK
▁Zahra
▁Zammit
▁adaptability
▁adekwat
▁affordabbli
▁aggressjoni
▁ajrunawtika
▁ancianos
▁annwalment
▁approach
▁appropriate
▁arbitra
▁asimmetriċi
▁aspect
▁assertiv
▁assigurabbli
▁atmosferika
▁awditjar
▁awżiljari
▁aċetat
▁aċċidentali
▁bijografiku
▁blowtorch
▁bodice
▁bumbardament
▁cabeza
▁carnicería
▁chamber
▁chiamarsi
▁chitarra
▁colazione
▁colegio
▁concept
▁conejo
▁côté
▁delizioso
▁derecha
▁deċennji
▁dinjituża
▁emikranja
▁endokrin
▁esibita
▁español
▁esponenzjali
▁estinzjoni
▁ezistenti
▁fajerwol
▁fashion
▁filPrivat
▁finanżjarj
▁fittizju
▁forensiċi
▁furzat
▁größte
▁guitarra
▁idrolisi
▁iffalsifikat
▁iffukat
▁ikkostitwit
▁importante
▁indħil
▁infrared
▁inkaljat
▁inkoraġġanti
▁intejjibhom
▁iperboliċi
▁ipprojbit
▁ippublikat
▁ippuntat
▁iŜŜewwiāt
▁jaċċellera
▁jindilku
▁jintitola
▁jintmiss
▁jippjana
▁jipproġetta
▁jirduppjaw
▁jirrekjed
▁jirrilassa
▁jissieħbu
▁jittawwal
▁jixtarru
▁jostakola
▁joġġezzjona
▁kalendarja
▁katalogi
▁kirurāija
▁kokaina
▁koloranti
▁kongruwenti
▁konsensus
▁kontinġent
▁kontraëettiv
▁konāunt
▁kosteffiċjenti
▁kpiepel
▁kremuża
▁kummiedja
▁kwotidjani
▁larinġ
▁lingwistiku
▁marijuana
▁martell
▁megħlub
▁mikroklimatiċi
▁mistagħdra
▁mistħajla
▁mitħaddta
▁mminimizzat
▁mpenġija
▁mrls
▁musique
▁mħassb
▁nalloka
▁negħlibhom
▁neëessarj
▁ngħożż
▁ninvest
▁nixtarr
▁nobdi
▁ntlaqt
▁numeriku
▁organigramma
▁oxxilloskop
▁paraxut
▁periferali
▁permissi
▁plaît
▁polideportivo
▁pourrait
▁pożizzjonar
▁pprevenuti
▁precedenti
▁prekawzjonarju
▁presidenzjali
▁preventivi
▁prossimo
▁proëessa
▁qarrieqa
▁qarrieqi
▁raġjonevol
▁recepcionista
▁request
▁revanche
▁rikostitwit
▁rilassa
▁riżomi
▁rraprezentati
▁segretezza
▁seguridad
▁sekwenzjali
▁sidrek
▁sieħeb
▁sikwit
▁sintattik
▁skorrett
▁sorveljat
▁splodut
▁ssettjata
▁ssodisfati
▁steak
▁sterjotip
▁storyboard
▁sturdament
▁submitted
▁technologies
▁telescopes
▁televiŜiv
▁tfixkil
▁threshold
▁tiempo
▁tiskadi
▁tittollera
▁tokoferol
▁tpejjep
▁trasferibbli
▁trivjali
▁twieled
▁täglich
▁umoristiċi
▁umoriżmu
▁uncertainty
▁ungesund
▁vacuum
▁viżżjoni
▁waħidhom
▁xbejb
▁āej
▁ġakketta
▁ħrejjef
▁żagħżugħ
▁бы
▁гриб
▁девочк
▁ламп
▁мяч
▁никогда
▁окн
▁при
▁тепло
▁хотеть

▁Caritas
▁Duca
▁MHz
▁Makroekonomiċi
▁breakers
▁corso
▁cuoco
▁jdejjaqni
▁jieqfu
▁menú
▁mħejjija
▁preferito
▁staġjonali
▁tranches
▁verniçjat
Avvenimenti
Kalkutta
Messikan
Pharmac
Thermo
amfetamin
arrfa
dgħjufij
dilettant
excelente
gliċero
insedjament
integrita
inċertezzi
irdoppja
kkurdati
merkurju
otorcycl
pieler
rejdmark
sikk
élé
Ġappun
▁15(3)(
▁551/2004
▁ALKOĦOL
▁Levac
▁PRINĊIP
▁STDs
▁Short
▁TEKN
▁UFFIĊJAL
▁azzarjat
▁bżonjuż
▁ddiversifikata
▁deliberat
▁finanzjari
▁habitación
▁hamburguesa
▁iddettaljat
▁ikkontaminat
▁ippettna
▁jiccel
▁jinfetħu
▁kawkaw
▁kontraċettiv
▁kremi
▁mgħollija
▁mħabbra
▁nipprintja
▁pellegrin
▁perché
▁shield
▁sostantiv
▁studiare
▁verniç
▁утр
Amato
Brassicacea
DESKRI
Jirre
Kolina
NOG
Riboflavin
aċċenna
dhury
iffiltra
ikalċiku
mutwaliżmu
simmetri
sojja
viżta
¬
êimiterju
ġogi
▁Agrikol
▁KOMUNI
▁Manoel
▁Pachino
▁afueras
▁aççetta
▁combinati
▁iffurmata
▁inorganiċi
▁inugwal
▁ivvjaġġajt
▁jirrikonċiljaw
▁maħluf
▁modulari
▁okkupazzjonali
▁oligogala
▁photo
▁popolat
▁riżervata
▁skimm
▁slogan
▁strategi
▁sustantiv
▁tnixxif
▁tunnell
Chinese
Iskart
KONTROLL
flessibilità
iffilmja
ikkapitalizza
inklinazzjoni
kesħa
perfezzjona
riŜultat
saving
wollen
ċensura
▁Deposit
▁Meeting
▁PERSUNA
▁PESTLE
▁Qoxra
▁Sacco
▁cambiar
▁elettroniëi
▁generalmente
▁hotel
▁jġiegħ
▁kkombinat
▁koeżiv
▁mogħni
▁mqaj
▁offline
▁standardizzata
▁tête
idros
▁informazjoni
▁iħaddimhom
▁kulturalment
▁trabajo
CRL
Fotografija
Induwi
IĊI
Pagamenti
Sellum
Xorb
kkonsmat
mikrofonu
rlaub
sigriet
xagħra
ört
ħrafa
ņ
ви
▁Konsulent
▁depilatorji
▁dħalt
▁emottivi
▁gradwati
▁hansa
▁ipno
▁jiggwidaw
▁jikkl
▁kontriha
▁kontrihom
▁llevo
▁memory
▁mieghek
▁nipprevjen
▁norqo
▁pescado
▁principa
▁redox
▁reċti
▁sociaux
▁tagħbijiet
▁tesiġi
▁uniċellulari
▁viaje
Belāj
Inkella
Perfett
arrikki
muntanj
prossima
sajjieda
▁MMS
▁bijomekkanik
▁caldo
▁farrad
▁schnell
GCEE
bolol
degree
жд
же
▁GUI
▁Hilde
▁Obblig
▁für
▁jissupera
▁ojos
▁structure
okkupazzjon
▁APP
isjoterapist
strofa
ëevut
сь
▁Dgħufij
▁HTTP
▁Niaċin
▁imqabb
▁jsarraf
▁kontinentali
▁prestiġ
FSE
Kreditu
OLITI
Vizzji
forward
helyettesítő
irbit
pendlu
počáteční
tejalapú
Π
▁Brother
▁Mendel
▁PajjiŜ
▁branding
▁intużat
▁kkalkulat
▁kontroversjali
▁manipulattivi
▁parallelogramm
▁ppremjat
▁море
1948
Buddi
deklinazzjoni
▁medalj
▁ottiċi
▁xxekk
Suppli
йти
▁Intervent
▁checkup
▁club
▁filantropik
▁jaddattaw
▁tanġentali
▁trumb
▁эта
▁TVM
ISTCE
ghazl
kolonja
kompressat
missier
zarole
▁09:00
▁kkaratterizzat
▁mentally
▁omoġen
▁poġġew
▁spaners
Forniment
erbivor
eruq
irkulari
numerat
▁Konformit
▁Pillol
▁Stein
▁adwer
▁clima
▁haloxyfop
▁jespandu
▁ohm
▁vacaciones
OECD
calliper
stantanj
stingwi
▁constructi
▁equal
▁meraviljuż
antiċipa
domain
oredana
▁plug
▁vokazzjoni
BERS
Quién
sintesi
▁Riċett
▁ayuda
Grieg
RISK
ispall
isprej
rizultat
тер
▁Dalam
▁banana
▁venire
obliga
▁bello
omandazzjonijiet
▁549
▁Mizzi
▁komunitarja
▁organizar
Centr
Sirja
assikurazzjoni
▁handouts
▁niexfa
▁tipprevjeni
▁eskluzi
▁psikologi
ilterra
mxaħħ
paċifist
▁grande
▁pudini
▁repeti
IoT
Traduzzjoni
venir
▁jħaff
HAZ
IBAN
awtomazzjoni
depożitaturi
▁unanimu
attrezza
▁21337333
▁Kuljum
▁kkonfermat
▁kollaġ
▁kontaminati
▁mgħarrfa
basla
smartphones
▁Frank
▁jaħsbuha
▁jeskludu
▁santé
▁skossi
Gudja
▁SPEĊ
▁grill
▁jimmodifika
▁pharmacie
ddomina
▁Patrun
▁stock
Massimu
ipperswad
tmosph
▁diskursata
▁nulla
RESIDENZA
musik
▁play
▁tirkupra
eberry
ísimo
▁bankarji
▁bażat
▁jirreklama
▁beef
▁Haus
ISSA
pantalon
▁Elenk
▁Hospital
▁gym
AFIS
ropical
▁bbazat
▁nafhomx
nċja
kolliżjoni
▁politic
▁razzjonalizzati
Ipno
kaxk
lismo
ooperattiv
▁Klassiku
▁jinġibed
partager
▁Familjari
▁hardw
▁konċentrat
drajv
▁barokk
▁lecture
diżabilita
irjieħ
▁short
tgħallim
mimmat
ти
▁IPPRO
▁jippos
aereo
clearing
raham
Editur
▁Pace
▁mural
▁mużewijiet
▁Kleid
▁jintlah
▁żort
tiġieġ
virgol
▁niktibh
inseg
CPU
immunità
irqaq
moins
nouvel
▁Bormla
▁Pestiċida
▁elegante
▁tirrappre
dijarea
suldati
▁deċiżiva
▁paghetta
▁primittivi
▁kleinste
ustard
▁makromolekuli
evuta
fiċjenza
soċjalizzazzjoni
▁arkeoloġiku
▁prendere
▁€100,000
lampi
▁driv
iskambja
marġin
▁moħlij
▁parque
▁radjuattiv
▁ċiras
▁similitudnijiet
ANTI
viŜjoni
▁psikoloġiku
lentijiet
mistax
▁dixxiplinarja
▁fibre
▁agrikulturali
▁ngħarb
▁Scout
▁molto
▁ġmigħ
▁€0.05
prendre
sodod
brand
▁imkessaħ
▁impres
Oppożizzjoni
▁Rappre
▁inadegwati
erlangus
tettoniċi
▁sokits
interkulturali
rivisti
▁micro
▁Waste
sehh
▁tastiera
88640
Mental
SODJU
prietka
bpt
house
▁gallariji
▁gaspill
▁policy
perme
▁Time
ardamom
użabbiltà
Ġudaiżmu
▁ksibt
▁lakta
йте
▁metalliċi
▁combien
▁politk
▁rakkom
reċiproċità
▁Medjazzjoni
▁elettrostati
▁ghalih
▁innovatur
istaġjonalità
▁fratell
unds
▁Transfer
▁organisation
PPP
raspar
▁treno
ibjuni
Tramuntana
▁aritmetiċi
Asja
fiżjoterapi
Pued
TENs
jammabbli
▁2294
▁jiskad
rabbi
Kummerc
kampjonat
▁fażola
Millieġ
finalizzat
▁suspettuża
▁jintwieġbu
▁mżej
nfisha
DPC
▁22.7.
▁Zim
▁interruzzjoni
▁seminars
owels
▁equipment
▁amino
▁ekoGhawdex
▁inkluzi
Missierna
desalin
ères
kmandamenti
lieqi
▁tentattiv
infieq
▁1978
▁officio
▁batik
▁ville
▁vizzjuż
adattant
ekkik
▁sientes
fusion
▁1942
▁ġeometrika
confi
break
▁tintemm
aerial
nonmetalli
▁qares
orizzaw
▁timmodifika
Volontarjat
ivvinta
▁2343
▁finitura
Suprem
▁romanti
otec
▁Manifattura
▁aggressiva
▁lattiku
▁Barokka
axxiżmu
ibersigurtà
Workshop
maħfen
kunfidenzjalità
GMO
ġenus
Barokk
Term
▁kollokjali
▁droit
▁sibt
▁Militar
masko
nazzjonaliżmu
istrip
▁jeħdu
▁pollu
▁rilaxxat
Appen
oxyp
Serenit
▁Eêê
▁Volu
▁jitħawwlu
awtoritarju
▁Programme
939
▁Modern
▁apprentistat
Iddeskrivi
▁immobbli
▁sproporzjonat
▁tromb
Bronż
eżisti
freddo
▁animati
ellissi
▁interrogattivi
mottiv
referisco
▁Bibli
▁imħallat
▁ħilit
▁patata
PSC
▁myself
▁669
▁Payment
identali
parafin
segund
Xama
ultraso
▁Residen
▁Umberto
▁iddivorzjat
istann
rasmus
▁vvalidat
▁jipprev
inizzja
▁Vater
KABB
▁opinas
271
▁xitla
egwejt
▁aħmar
▁culture
▁pluralista
▁mixtri
▁amplifikat
FEE
▁tissostitwixxi
▁tixbihat
▁position
▁liegt
urricul
ġawh
▁mwiet
▁trej
soppa
▁sarkastiċi
▁pubbliëi
Enter
MITA
PTION
bromur
▁parecer
▁préparer
▁diskorsiva
Monit
maskri
▁Solan
rüh
▁diāa
▁dominan
liġibbiltà
orah
rget
rgico
▁Park
▁waħdu
ktosyl
▁moniteraġġ
▁45(4).”
sardoni
etwe
difetti
plates
▁32(5)
▁konnotazzjoni
▁żamme
▁know
aāun
▁ammetru
▁distribu
interrogattiv
sottostr
ġamm
▁Marcelli
▁jinteressa
▁poner
remises
▁jintuŜa
▁altri
tnabar
għajnejh
▁verstehen
rmied
mxekkla
▁rond
DENZA
issapportja
kaufen
primer
▁Sky
▁blogg
▁Ġelati
ologiku
immudella
tehdid
stars
CSD
DSE
Normalment
mejo
▁rispettabbli
iskor
KAND
▁Institute
▁migliore
ewwieqa
▁ballet
▁voltmet
rofitta
▁ixolji
▁esperjenzajt
▁wave
▁Piridossina
propaga
koperaz
▁44(3)
▁Facilitat
ciò
▁Profil
regula
ċereb
▁sinerġiċi
ġenotip
▁drawwa
▁impulsiv
▁pré
evenu
▁jispe
▁laxk
▁nattira
▁7(2)(
▁realizzati
▁impiegi
alloys
irtill
tfisser
RSP
▁ripet
kontabbiltà
▁ghax
óv
▁preskri
▁Giordan
arbeite
▁Condi
ICSD
Medju
▁qlig
▁komdu
assiere
▁Wohn
▁Schwe
▁estend
ittikkettar
▁użajt
▁alko
ddahhl
▁tneh
sopu
temperaturi
nevew
▁komunitarji
Terminoloġija
għaraq
kowdja
▁jsawru
allarm
▁jannulla
▁ġita
▁1,0
▁dipartimentali
ĠUSTI
ificio
▁Securities
▁Kapital
Dejta
▁wav
ABB
(***
public
untistabbli
Funda
Filatelija
▁bijometri
▁mgħotija
Slovenja
▁inkluŜa
▁reżin
persważ
▁oven
▁lunes
Berg
consultations
▁relationships
portazzjoni
superfiçj
▁femminili
▁event
Żejtun
▁3.1.3
Quand
▁jitħabb
▁autom
oāāettiv
▁speëjal
ġibd
▁basket
▁aħdar
▁compa
▁piżelli
▁dakinhar
anizzat
dermi
▁Cap
▁esegwit
sinonimi
▁Identifika
▁cannabis
DEMM
▁innotifikat
aboċċ
għadma
▁nippro
ntrasta
▁choi
Beat
▁panett
żaqq
fication
▁Pinu
▁Klass
Ordinan
malnutrizzjoni
▁Koeżjoni
għandugħal
▁irriversibbli
▁Ġere
biela
Aliment
baħħara
▁ikkaratterizzat
securit
▁auch
dnub
ooling
nhanc
▁mgħoddi
▁07.
ofita
▁Skills
▁jitpo
evalwar
▁Nor
▁ndaf
▁parrokkjali
▁jdub
xerrd
▁duele
▁PEST
Platt
skoraġġi
iżelli
▁vjolin
Għasri
▁disgħin
▁tenis
▁jimmanifestaw
▁minqux
0,000,000
▁1999/31
awtosuffiċjenza
ġelatina
▁мал
▁interkonness
▁Gold
▁karbo
dejqu
▁Afrikan
niġġes
▁1,000)
ieles
▁ittestjati
▁ġeneti
esposizzjoni
inanimat
▁Xgħir
phishing
▁eċċellenza
schwi
Diret
HTD
▁inkatt
donna
pagna
OGĦL
shop
▁pued
▁pelo
loggers
tension
▁404
▁Kordin
▁duttili
▁Karl
vedu
tifsiliet
▁gaz
▁483
okratiċi
▁bisschen
ocket
▁kera
▁ether
stein
▁metrika
REG
▁Franciz
pace
▁nikkonċentra
tanol
▁collaborate
▁jbidd
▁Bejg
etanol
designing
market
▁intelle
▁tipper
▁rrestawrat
Ideat
▁imressqa
▁Psikolo
▁chain
▁gauche
▁valuta
écha
▁Allo
▁maqbuda
ticas
upru
▁riformula
▁Wales
▁sponsorjat
Seminar
beraħ
xcuse
▁esplussiv
tomat
trażmettitur
▁kompriż
piro
▁żortx
▁wohn
▁lessik
oxy
rimbor
▁imqarr
sulfossid
▁Naturali
Narma
êt
OPO
▁13:30
▁steh
inisteru
▁45(4).
żrar
▁syn
andament
Ċibersigurtà
qadim
integrar
▁Resp
dwana
IVF
▁jagħli
sormonta
ismek
▁167
nanoteknoloġi
▁86.
▁secondo
▁bliċ
▁akkumulat
▁God
jċi
▁tqattigħ
▁sejbie
noise
▁TAGĦ
▁Bene
▁topoloġij
▁Ffranka
▁komunikattiv
treġġ
ranch
▁Nipp
terjuri
▁29(3)
introjtu
▁çert
▁Sorsi
▁Hill
protezzjoniżmu
▁iddaħħlu
▁individwalista
▁préfér
▁ħolqiet
▁preistori
bench
▁jirrepeti
▁download
koagulazzjoni
evali
listing
Triticum
▁jixraqlu
newtru
preistorja
▁reċiprokament
thro
rooms
▁drawings
▁meanings
▁CDs
imento
ASE
gile
iggverna
▁ricev
gravit
▁CAT
▁susta
▁13(6)
▁inkwadrat
▁banking
▁caro
textur
▁5(1)(
Toro
▁razzis
ford
▁Eng
olqu
▁MIT
▁ċċertifikati
lewŜ
fatturizza
▁Dwarna
EZZJONI
frix
kwartili
ADI
OSKE
DGs
▁regolati
sunett
ctivity
▁iċċarat
ADDI
▁performattiv
▁direct
▁9(4)
dikazzjoni
▁laqt
▁"9.
▁Add
entanza
Patr
Flus
▁tidde
pdf
▁għafas
да
erkanti
▁jirreġistra
▁8(5)
uristiċi
lilhom
purċissjonijiet
▁Inżid
komma
IJIET
niċi
ntlib
▁xerrej
▁Gior
▁inviter
▁kalli
ħħarija
3);
splużjoni
▁kubika
▁ngħaddu
orizz
▁jirrappur
benefiċjarj
djun
▁idejk
internewron
▁Wieder
terminazzjoni
▁għotjie
▁kontro
semmiegħ
▁terzjarja
irqad
▁Nimx
▁mitluf
FSA
▁Niltaq
▁fipronil
wäre
▁tinkoraġġi
▁0.00
▁tifsirt
▁jilloggja
▁jattendi
▁verna
▁molek
▁mibd
▁2008.”
üt
itħa
▁jiċċara
Annon
RIF
ivenza
▁33(2).
ribs
▁repo
▁deber
▁inħatar
ixxemm
▁accett
ballata
▁juni
Eurovision
whit
▁нич
sour
cky
mantener
▁sanitarju
affinit
▁Super
cookies
▁22(1)
▁mpt
▁shapes
manuvra
irciev
▁tirk
valu
▁Barrani
robots
▁organiżżazjoni
▁9(1)
▁soft
▁agg
sponsorja
uttu
▁Krist
▁rriċiklat
dividend
▁hunt
▁sho
▁tinŜ
ssaport
Imbagħad
▁klassika
▁Indjan
kupi
▁Effettiv
▁spiral
ippur
▁nistinka
korriment
▁Statement
virgi
▁jitħaw
llaħ
▁nintr
▁Bibbli
▁nqabbilh
Ikoll
▁jinterpreta
▁regal
tossikoloġiċi
RAPP
▁pair
▁jiftaħ
ieldrin
Tnax
▁18:00
▁aġġudika
▁drop
arding
melamine
112
sulfon
▁97/
▁interferenza
▁Wasl
1992
agħġen
dentista
kite
rinforza
wahd
ultimed
▁diversifikata
kumditajiet
▁imkejla
▁ddiv
▁ekologika
▁preferuta
▁Brittanika
▁tettonika
ferrovija
▁insuffiċjenza
▁narċisista
▁encanta
▁kajmana
▁maħlula
zalza
▁MET
depożizzjoni
Marsa
memorj
onces
mmaġina
▁investigat
▁Imla
▁nagħm
▁offruta
▁jiċċaqlaq
terminaw
teknikali
aussi
▁jweġġa
żivi
Nikko
▁iffaċilitat
▁multipla
▁oħ
▁twaqq
▁Kors
regju
▁18(3)
▁nap
▁sottoċirkwit
81/
ikkummerċja
▁camis
▁tool
afé
furt
liwi
eptaklor
▁Ħab
terminals
▁definittiv
tfajl
ultaw
GAP
Qaw
▁jitne
▁singola
expan
▁separatament
INCO
près
▁kalt
▁119
vitro
kumula
1.2012
▁ticcekkja
EUROC
▁mistrieħ
Turi
▁daqqe
ozone
varji
▁jinghataw
▁jivvjaġġaw
▁mgħarr
▁jevolvu
▁Giu
Għasel
sseparat
Shar
switches
leabbli
naħat
awtoriz
▁ikkontribwixx
▁figura
▁ċellul
▁expression
▁āol
ċċar
▁CCT
▁alkoħoliku
▁Deni
olika
▁350.3
▁macchi
▁llimitat
door
▁partiko
▁Irreferi
▁Blue
ellen
perċezzjonijiet
rocco
Perikli
bronki
irziezet
▁rifjutati
▁rrekordjati
▁sussidjarji
▁staġuni
▁kklassifikar
▁respiratorji
eating
ispetturi
▁nikkom
▁brie
Sigurta
▁hands
▁Awards
▁gef
zagħ
portijiet
Midwi
▁qara
▁jghin
aderixx
▁sink
▁porċ
inerali
tjeni
preġudizzj
kannamieli
▁intimi
inary
▁eżawri
▁għallimn
ġibdu
▁pagabbli
riā
▁insuffiċjenti
images
ntibijoti
guest
▁"3.1
ixorbu
koloġiku
▁153
ARAT
ixtla
▁Nittestja
▁delegata
▁jitlaq
▁kru
fiżjoloġi
TALBA
rome
▁nzomm
▁(0.1
velo
▁timijiet
ċenti
▁job
▁Derog
Ġene
▁carta
▁jissejja
sione
abat
▁donn
kW
Ruma
▁WK
viċinanz
gage
arkin
ëjali
▁ipo
▁ĠM
▁jimmarka
bigħu
▁че
▁system
jalment
banketta
TF
privileġġ
battut
ISTAT
▁żbilanċjat
▁ġeografikament
kollu
▁jixba
▁pizza
ternalizzat
▁mistura
ropoli
kirurġi
▁jimmaniġġa
▁jinkoraġġ
▁footprint
tner
▁jiftiehem
ëittadin
ghin
▁jospita
specifika
▁Rebe
esser
▁perform
▁terbufos
2008)
▁esegw
▁allerġi
▁oligo
lyp
/2002
news
▁dispo
▁Nei
▁dubj
▁nirrakkomanda
▁Paol
▁jaffaċċja
kos
▁INV
▁espresso
éna
2012/2
▁5(3)
amijiet
ENTALI
duċi
arjaniżmu
impro
▁tinte
iller
29(2),
ġeġ
▁pajp
90/
granu
▁MSE
▁ве
▁ittrejnja
▁mmodernizzata
▁critical
▁ANNIMALI
▁BFDGE
▁Bżonnijiet
▁Prinċipji
▁computer
▁fastidju
▁għaġejjen
▁konduttività
▁kustodja
▁llamarse
▁mekkanika
▁mutandis
▁tgħammir
▁tixbit
▁ċwievet
▁żagħżagħ
▁DETTAL
▁EŻE
▁gimnasio
▁grilja
▁ippurgar
▁koerenza
▁oqbra
▁reklutaġġ
▁sebgħin
▁audit
▁kwaternarj
żolatur
▁kappelli
▁ewropej
▁immonitorja
▁corn
▁terroriżmu
▁Chrome
▁servew
▁ohra
▁Parir
▁Ħaż
▁kamera
▁Morali
▁Directorate
▁machine
▁insiġ
▁до
alossifop
▁komunikat
▁foto
vvanza
▁tobba
▁jiŜ
▁fallut
▁INDI
▁twarri
▁Interpreta
▁4(3)
▁traskura
▁preŜen
▁check
▁intimità
ká
Inħadd
▁ċomb
WAN
Maltija
kit
erred
▁preż
▁sabhie
▁eteroġene
▁xitel
▁tekonoloġi
ibilita
▁sets
▁Dritt
▁isqof
▁konġestjoni
XXX
▁inżur
▁0.1
UNIC
▁recordings
▁konjittiv
▁puedo
▁jqiegħdu
him
etters
▁jistenn
▁PJAN
▁ende
bjun
falsifikati
▁due
49)
▁toile
▁NIśś
▁tomar
▁pun
▁posters
ersonnel
▁187
hek
▁Cares
▁iħeġġ
abbuża
producer
munikazzjoni
▁Għaml
▁kwadrat
topografi
▁kontinwament
▁qrie
768
▁ambjental
▁XOR
moqri
▁202
iġenti
Fro
▁risk
▁Ġust
▁Aq
▁2294226
▁musical
▁mgħoti
irrazzjonalizza
tossiċi
▁158
Unur
ċertfikat
▁awditur
▁Gard
▁assigurata
▁mediëin
▁Marco
▁prezzjuża
ngħid
onomiċi
▁recycl
▁tind
News
▁ttemm
▁tikkomunika
▁internament
▁tintb
▁189
▁Exp
mogħoż
▁tirrakkomanda
▁Studj
▁isseminar
▁GĦALI
atto
▁radja
▁digital
still
▁grou
copy
walizzat
▁dderivati
ttività
▁ngħaq
nsetti
▁avi
sparixx
ntaġġjużi
▁emerġenz
▁colo
Mediterranju
▁minfuħ
▁irrappreżentat
▁mima
▁inħeġġ
▁assembl
UB
▁pop
jg
vid
▁imqass
777
▁elettronikament
pedagoġi
accessa
nikteb
▁ninterpretah
▁foneti
morda
▁eżentat
▁flushom
Um
▁mont
tessellazzjoni
▁"8.1
▁irqiq
rese
/2004
uther
outputs
government
▁nneħħi
echnician
▁aċċellerat
kkorreġu
alhekk
FOND
ggs
▁Kent
▁adegwatament
kwantifikata
BIO
▁internazzjoni
7000
▁leħin
araf
Qam
euer
▁tlaqqa
▁aus
▁ggwida
iccekkja
▁mogħdij
▁sanitarji
▁bijodegr
▁leħni
uble
imsa
fjus
▁fformaw
erv
▁nesp
▁Pawlu
▁kummerëja
2014-2020
▁portabilit
book
viċinanzi
baxxi
ġenerali
embrijuni
▁09:
▁ninsab
island
▁Buona
▁akkademik
▁specifici
▁televiżivi
semanti
▁monitor
RC
▁diskreti
▁dens
212
▁iffriża
▁spjegattivi
bankun
tarju
priva
Partijiet
▁ħażn
▁backup
▁Polic
qdu
▁mapp
▁vellu
▁personalizzati
rakkonti
Stop
fuljetti
JT
remot
▁kredituri
rrekordjar
langu
ony
▁€0.01
▁tattendix
egwixxi
▁ħejj
1,7
alfejn
konjugat
damp
osp
Reli
oloāi
▁frut
▁GC
webs
rizzata
▁Ep
ossidazzjoni
massimizza
▁xtra
kartuna
▁jintrema
eddu
file
▁qli
▁sensorj
tleti
▁jitk
▁riveduta
żira
▁ener
tanja
▁andare
▁tinda
pitching
▁SMSs
▁vasta
ommemora
juna
lines
eurs
ridistribuzzjoni
irqim
RAM
▁itself
ná
irfinar
istilel
carp
equenc
▁Interna
tituti
mind
▁All
attric
ugee
▁pero
usto
oroż
akku
2010-2012
aragrafu
▁mgh
▁machen
erapewtika
▁trażż
▁kommemora
fferti
”(
▁modes
▁Site
rifużjoni
onist
sted
▁kulinarj
lastik
▁nbdew
Jun
tavri
kappella
Acce
▁Waħd
▁pit
emendar
▁"¿
Ball
▁jezi
shar
▁vag
feed
Ben
ossiġ
omofobija
issons
luh
abbad
▁jinstema
▁lay
▁dejj
▁ikkonklud
għajjat
Farm
uld
▁150
▁donazzjoni
▁kummerċjalizzat
isponibbli
database
▁vier
Environmental
hur
▁wis
▁macell
cupcakes
displejs
▁āimgħa
ziell
siāā
▁Ek
Qadim
metre
error
▁stilisti
▁sseparat
gina
▁125
zata
▁Parla
▁tispi
▁Ph
▁ovvj
▁nejja
▁reklut
kommunita
mbert
IST
Kostitwent
▁ëëekkja
Batteri
▁kapa
▁kirur
▁tolleranti
▁ssokta
sabiex
▁umdità
▁Betlem
▁morfoloġiċi
▁ħjiel
▁White
▁vivir
▁PVC
▁konġunzjonijiet
▁twieqi
▁ċekkijiet
▁menos
▁gwerer
▁ċavetta
▁PDE
▁fuels
▁Komponenti
▁plastiçi
▁xelter
OLLE
▁printing
▁Raħal
▁Telf
▁habite
▁Nutar
▁(2012)
▁oriāin
▁maturazzjoni
▁supply
▁responsabbilita
▁jitqatt
ġurament
▁semmie
special
icence
▁3(
▁bilanċjati
▁Bask
▁sewda
▁ferħ
▁kanċellament
▁STIs
▁Bron
FC
▁spjegattiv
▁field
▁dump
▁iqarr
qbeż
▁Bur
▁approprjazzjoni
▁simpatija
▁reżiljen
▁Preparazzjoni
▁Ref
▁prosekuzzjoni
▁giorno
▁Rappreżentanza
▁disturbi
▁calci
▁approssimattivi
istħarriā
kontinenti
▁sabiħa
▁iddikjarati
▁water
▁(19
ekli
▁Uri
▁eLearning
▁Ħe
▁minoranz
▁saldar
▁astratta
▁twess
▁grid
ometru
1500
rrieq
żewq
▁stabbi
very
▁Interni
▁(7
zel
registra
qag
▁alkoħolik
idrossid
▁irrestrizzjoni
▁dipressjoni
elettro
aletta
79/
▁tessitura
ċelebrazzjoni
▁fortunat
▁(09
▁Sep
▁Futur
▁cittadin
ttijiet
▁black
▁191
ċri
▁temmen
▁object
▁suspettat
▁Promozzjon
▁(10
mikroklim
▁barraxa
1600
▁impressjoni
▁irtirat
▁jistenna
▁Kos
▁mikroskopj
▁metafora
▁CD
▁Ger
kilo
LO
▁meter
bis
▁bilmiktub
▁akustik
PT
▁filpussess
▁nformat
▁kad
safe
où
recorder
lula
osmeti
▁Setgħa
▁Bankarj
Konvenzjonijiet
▁nitgħallmu
issej
▁deter
mutwa
anno
kommemorat
Polo
liżmu
▁Hel
5%)
itata
2018
▁sser
etá
18,000
rauche
riev
▁(20
▁Taf
dakra
▁studjata
▁tradott
▁jinkuraġġixx
▁jiż
▁ippruvata
uprodottita
▁tnixxij
▁sug
▁dixx
arament
rrapporta
▁HR
▁aller
▁Wil
ssault
▁imweġġ
▁Edw
cement
▁(12
▁jinqala
▁motivati
ajruporti
urina
▁rebbieħa
▁vo
▁ét
impjegah
Rumani
▁teh
tranżizzjonijiet
▁diż
▁aggravat
▁passiv
rezzjoni
▁Inawgurat
▁Frankofon
▁hace
▁ismi
ATUR
proġe
MRI
fina
▁postsekondarj
runa
mqeg
NTA
▁organizzazjoni
fija
cones
ESSJONI
▁nejjin
ranju
ewm
▁astronomi
owerpoint
▁produttiva
leries
▁detenuta
▁cort
▁Kwalifik
iġar
cater
▁TIE
Stampa
tifi
rokuratur
ċajt
disfatti
oles
▁Sost
irrepeti
ċċi
▁jikklassifika
▁Stocks
▁mamm
▁waves
lich
▁oġġettivi
erta
lixxi
▁Blas
▁jikku
▁Jab
nkora
▁Abd
▁kutra
terrestri
unier
INSAB
quelle
onfigurazzjoni
▁intell
▁leħn
▁FE
ALLE
▁jaħra
Ħsara
▁Definizzjoni
▁nanalizzahom
vapuri
bdu
▁farin
polic
▁Way
hena
ċentralizza
eige
▁Pien
fus
tilizzazzjoni
odifika
465
▁tafal
▁riflessiv
▁Bert
PET
isakkaridi
▁Ser
OTT
▁imxej
parke
IMP
estación
ċivilizza
tik
appart
▁ON
ĦAX
issejjaħ
▁nser
irfigħ
gija
▁"00
LEM
indikatur
▁millista
prospetti
▁́Es
▁madum
cato
partiment
ppreżentaw
vaż
▁viaggi
▁matri
▁Maj
onvention
Importanti
kuntrattur
▁phi
▁Mand
aloġenu
▁pale
▁vjolen
SO
omo
401
▁2005/
dakkru
▁personalizzat
prim
/2010
▁fatali
arentela
dell
▁pubblikata
▁meteoroloġik
▁Domestik
ental
ATMs
▁jinqat
nam
hmeż
340
▁Ben
▁profe
▁appre
kkultiva
weā
▁tixxe
iegħek
empju
allowances
routers
imdew
ktie
▁suġġettiv
▁identi
▁tob
1900
▁az
dqa
tiċità
actions
organiżazzjoni
nett
ISC
▁finit
struttiv
▁Semm
LE
interface
▁filtri
▁BS
iëë
wle
ITA
Mg
293
volo
Frottta
rcole
jistenn
▁Darb
1530
▁TB
teroj
elni
Rama
ATTA
OĠĠ
▁necesit
▁jittra
isting
▁kredib
istatisti
▁mkej
68
▁Ap
▁metti
▁Lest
▁Sha
▁Blu
pollin
oces
idej
Kris
onalitajiet
▁Cour
user
Ihr
methan
▁tof
Casa
▁earl
▁bena
Taxx
▁atomik
illejl
gaman
ganza
aċetil
eine
▁cra
teni
prends
▁BA
itgħallem
▁dgħ
▁ħmir
-178
Ŝe
subscribe
Pul
overe
entre
▁quie
fisema
ASA
sting
labar
▁portab
Togħm
IEM
proj
formation
avver
▁preparat
3000
umaturi
midjum
RKA
iya
BOR
▁Sfid
kwenti
▁ifakkr
▁sagr
▁89/1
▁dist
▁skeċċja
▁Leg
CVs
Pja
▁Hos
drills
chino
fensulfozjon
ossi
▁Tam
wthorn
preferid
imetri
mqarr
?,¿
ssir
▁plasti
▁jaħb
sottodelega
▁Azzjonijiet
.12.200
▁intrinsika
STRI
▁ħabs
miŜ
rini
remu
rivi
tokk
fficcj
għŜ
▁ikkonsultat
nfjamma
żil
▁var
▁cable
ious
ġġustifikati
240
okkor
▁access
ndividu
Alte
▁(17)
Diese
litt
nformazzjoni
attivament
ajjiżi
▁Marin
evjazzjoni
orte
Twi
ular
anċ
▁Brassic
▁Jane
▁Torr
leko
333
weġ
▁riservazzjoni
MED
▁mexxe
ħala
scher
kromolekul
▁riserva
Għaddejj
albu
▁neditjah
▁0,00
▁qawwij
supermarket
ħall
imbuttatur
nied
browsers
invertebrati
liana
agħti
▁prefiere
▁jinte
▁parassit
▁jgħa
8.5.200
▁qabl
5(3)."
racea
HE
jaġġar
rgumenta
▁imħar
▁act
▁kard
▁konven
▁desc
barr
isfa
econdo
rotta
!”
▁viċ
ntegrat
10000
▁kumplimenta
+3
▁simetri
Av
rriżultaw
għadh
10,000
cell
nannu
▁jinbel
kkonservata
statiċi
▁dettat
▁Inxtra
▁Qiegħ
MAT
▁isostn
ondazzjonijiet
Opinjonijiet
sekuttiva
eëëe
▁jippres
sina
▁Nav
ecretar
▁crud
kno
▁Bel
▁żvantaġġ
▁komparattiva
dekorazzjonijiet
għo
▁ġġe
▁subs
adju
▁Resource
▁elast
istabbil
▁rrakkomanda
▁biħsieb
lleria
iplomacy
6.12.200
ċipazzjoni
arth
160
▁Bir
▁naħż
09
mmemor
stilisti
erika
▁papil
illustra
▁Relati
ipotek
Riform
▁pense
vas
sadid
ostra
kifemendat
render
rti
rtografika
riz
ße
Gul
orta
3.0
oping
▁bur
▁derivat
▁casa
ordinati
▁melodik
020000
ODE
iskj
Tiż
sekond
laser
wiċċijiet
ddiskuti
▁pjanur
tub
rred
imita
▁ssem
▁ve
▁probabil
publika
▁nikkonsidrah
aħdit
pastizzi
attribwiti
konfrontazzjoni
ġibbli
atchings
motorji
▁€0.0
erman
iskors
terfa
▁ntrodott
oriġinalità
ressq
▁aut
2.0
ork
meter
▁żgura
trip
Vidjo
stampar
▁Angel
dark
▁noffr
▁Ant
67
trażż
▁birra
affettwaw
▁tinħa
▁Colo
Han
▁eks
lja
hop
sity
60000
ncer
▁esto
Investi
▁armon
ming
notte
iabilitazzjoni
▁inqa
▁ħuth
▁vesti
proċed
ibbażat
KLI
▁iperlink
▁MEDIĊI
▁alloka
gej
gía
▁ezempj
▁blue
Vettur
imejls
▁Ik
ditorjali
ень
▁2012""
tħassar
skopju
▁jaffe
PDT
jvarja
Trini
rus
żar
▁Bell
levar
sp
▁Del
äl
▁Veron
tlesta
conomy
88
▁ngħatatl
wanti
Ŝur
inŜa
▁boro
ection
IER
auges
êê
silic
▁prest
▁Savi
030000
▁198
▁jeduka
curi
qassim
debitu
▁intbag
rist
▁tiċ
Xir
nissel
▁creativ
▁Ult
▁jibn
▁Integra
amus
nä
MO
imblukka
validazzjoni
eaders
ġudika
mico
▁intlaħqu
ġġet
▁Real
żvantaġġi
▁€120
▁mutaġen
99.
ог
ikonċiljazzjoni
ject
għażl
ompetizzjoni
Dispożizzjoni
▁Tem
rgonomiċi
▁brut
mmassimizza
udikatura
Revolu
intolleranz
▁nipproċess
rovvediment
prototipa
yan
▁7510
verament
▁ltaqg
last
feġġ
portabilit
▁Impe
▁artic
kontraparti
refiero
▁cart
Rum
ddiskut
▁ergonomi
2.2
▁skolasti
restriz
▁vir
▁konverż
rtiġjanat
nħallu
nck
▁gradat
interpret
aqqigħ
ellulo
▁ipp
ntegrazzjoni
Kompeti
iftehm
tlestew
▁Ċe
▁Twaqq
▁Modifik
konċiljazzjoni
▁sidra
▁ittieħd
stand
▁Leader
0]
kkonsidra
mblukkat
gratitud
▁Hen
ttestjati
tique
oche
rate
tez
pper
WTO
spective
KKO
nqabbe
TWE
edukaw
kitbet
êêA
▁gauge
▁traġ
Arkitett
ddaq
▁Econom
▁Tqass
kapaci
ho
▁€5
braz
tiċki
5(2);
tly
Ġdida
riġe
▁bijoga
kopru
kjaw
llevar
▁SPD
żijiet
ivity
ьше
▁editor
▁Invest
quier
ometti
ebra
missjonijiet
mmo
Intraprendit
rvi
Appar
tellgħ
nkisbu
ally
▁imnixxf
perlinks
Sho
▁jueg
▁jitraż
fiżi
▁jaëëe
.6.200
де
▁vest
dentifika
kkord
glia
APPLIKA
08
ntilfu
Qal
cce
RBA
ayment
▁bijom
Ŝd
▁dom
ples
AU
vibra
ops
▁Supp
▁Varj
restawrat
occ
ngelo
Ope
ntlaħqux
markatur
fundamental
▁impinġi
assisten
etturi
ntrodotta
żieq
▁vulnerab
ст
hatching
scre
junarj
▁attribwit
▁pastizz
▁mor
nibb
-189
IFIKAZZJONIJ
żitu
Andr
▁nwe
▁reklama
skyd
2014)
▁jinfir
reparamenti
▁Scha
infiltra
▁motorj
auche
ppella
traċċja
soġġetta
150
▁Ħon
▁468
▁Latin
ħdem
ubija
▁allerā
probabilit
▁traċċ
▁mniss
ß
jzu
▁estrad
6(6)
027
kummerċjanti
ħsib
radi
tho
lustrazzjonijiet
PREZZ
▁Van
▁solvent
orriment
operation
Tnedi
▁partiċip
▁titqassa
Pip
kkoopera
staff
riservat
tqarrija
subordina
sche
affidab
ejjem
biħsiebn
Nê
ekuttiva
ejj
▁mxand
ppresied
69
illage
▁kkonservat
▁ipote
Modi
funzjon
Birg
nizz
▁kumpliment
▁Yout
second
▁ċertezz
▁pome
▁assiste
▁disk
konvenjen
▁kompatib
inġabru
ċell
▁waqfie
neħħew
prevale
▁faċċat
CN
ostar
dire
▁imbutta
▁stamp
olly
▁tmiemh
gawdi
krivan
kwarti
ibqa
▁supermark
ndustrijali
▁Pajji
2010
▁2.2.1
nunc
ffic
laces
▁inniss
Immexxi
proseg
istenza
000
xplore
intéress
ttrasforma
nfirex
▁imagina
▁imħall
01
mexxija
thorn
ensulfozjon
▁jissotto
rrived
▁ddettalj
▁jinkora
Ċittadina
Inklud
0.12.200
.4.200
▁educati
Technica
prend
sfuma
ogħma
▁speċifikazzjon
▁deput
▁kkonfer
ssisti
Uż
Consultation
ëë
2009
ompila
kludi
camp
▁aċeti
durabilit
▁Baj
stampa
▁nawgura
96/8
ethane
radition
ETTORA
▁fonem
▁ttieħd
▁эт
EGA
ābu
▁117
ecc
QATT
kultiva
▁jikkump
istħarri
▁segretar
clipp
iġjeni
ormon
ddikkja
ttestja
▁Tiegħ
nteroperabilità
ehme
▁Provi
Xem
2016
sebbħ
aloġen
▁inva
infestaz
rsu
park
KUL
▁vjol
▁singl
▁Twa
akkru
parent
nfurzar
ssimplifika
2015
▁Strateġi
▁Semitik
engel
rrik
ence
▁tqiegħd
vokata
ħtieġu
okok
Cultur
aghmlu
▁proviżjo
formul
ġistrat
nniversarju
rankofonu
Emerg
kontribuzzjon
isbiħ
sakkaridi
point
enchmark
ċelebra
1192
▁kell
speċifika
199
▁Defini
▁onora
handek
rrepeti
siert
▁Għażl
0.1
versifikazzjoni
aspir
awwe
ĠETTI
zjonalità
erapist
5/11
▁Nagħż
Stamp
ecent
▁msaħħ
lsifikazzjoni
▁ibidd
daqq
cienc
kkonverti
studji
evih
kkommemora
▁distint
▁realisti
ezzjona
▁terapi
ordinatur
▁ċeramik
▁koreografij
ppromwov
llets
exist
rimonjali
▁nikkri
dixxenden
abbrika
inkuraġġixxi
ovem
Beness
pjiegi
▁xjentist
ifrat
rċiev
mble
▁idroklor
▁finish
▁iniġġ
▁Poż
kkunsidra
mping
faħħr
pproċessar
kabb
supervi
▁skuż
Ċik
earch
▁Pop
▁KON
ntergovernattiv
ntwer
referenzjar
ibrerija
attentat
maste
predikat
▁provvist
Eżami
ispeċifik
KWI
ouve
▁iddedika
ħajj
▁sterilizza
▁Oġġett
forest
Rego
▁akkademi
plussivi
▁Tekni
stitwenti
▁imże
ertilizzanti
rekluta
vvju
▁ambaxxat
iġifieri
phor
▁kwantitattiv
▁Implimenta
eneralment
access
▁cupcake
▁displej
▁jintwe
clud
phon
▁ikkoreġ
Meditterran
▁biddl
Edit
▁letteratur
oriġ
▁cours
Federa
priż
Ā
▁epossid
▁msejj
▁traëë
°
provduta
żgur
Artiko
ffoka
medji
atabase
▁ċelebr
xpruna
avri
ZZ
▁kulinar
valuta
▁Formo
▁terapewti
▁akusti
▁inventarj
ccekkja
Arċip
ċerimonj
▁tfass
▁Saħħ
imiterju
▁Kontin
FORMA
ама
change
▁akkredita
rfinar
▁issiā
▁aċċellera
preparar
▁tirqi
nfrastrutturali
OND
soëj
▁żgħaż
▁żżew
▁awgur
konjuga
ostituti
▁vulkan
▁Georg
Gass
Gimg
bilanċjati
spejjeż
▁jirnexx
irrekordja
riżulta
ĦAL
nstalla
dentist
ehold
▁irradja
▁Attivita
mġiba
▁tistaqsi
▁irrefer
Univers
▁Dikjara
▁folkloristi
▁viżjon
ndependenti
▁interfac
▁evoluzzjon
dramm
▁Priva
drammat
refle
Sforz
kommemora
rovviżorju
▁assenz
reklam
▁Environment
▁tessella
emeton
ċuħ
ifsir
▁govern
▁ossida
membran
tatwa
MINA
mprendituri
ntrapriżi
pprofondi
ENZ
wiefer
Protokol
4,5
eġiżlazzjoni
▁technic
▁tnaqqi
rticle
nfinittiv
kandi
÷
ж
û
έ
Х
ι
©
Ç
É
Ê
×
Ø
î
ē
ń
ş
̊
ή
ί
γ
З
И
М
Ч
ю
ض
ظ
ه
Ö
̃
δ
λ
τ
П
Н
К
β
ô
È
⁄
ύ
ź
Ł
¡
□
−
σ
ū
ő
į
ш
Д
¦
э
х
́
ñ
→
п
в

ö
к
р
н

‘
